{
  "version": "1.0",
  "truncation": null,
  "padding": null,
  "added_tokens": [
    {
      "id": 0,
      "content": "[PAD]",
      "single_word": false,
      "lstrip": false,
      "rstrip": false,
      "normalized": false,
      "special": true
    },
    {
      "id": 1,
      "content": "[UNK]",
      "single_word": false,
      "lstrip": false,
      "rstrip": false,
      "normalized": false,
      "special": true
    },
    {
      "id": 2,
      "content": "[CLS]",
      "single_word": false,
      "lstrip": false,
      "rstrip": false,
      "normalized": false,
      "special": true
    },
    {
      "id": 3,
      "content": "[SEP]",
      "single_word": false,
      "lstrip": false,
      "rstrip": false,
      "normalized": false,
      "special": true
    },
    {
      "id": 4,
      "content": "[MASK]",
      "single_word": false,
      "lstrip": false,
      "rstrip": false,
      "normalized": false,
      "special": true
    },
    {
      "id": 5,
      "content": "[BOS]",
      "single_word": false,
      "lstrip": false,
      "rstrip": false,
      "normalized": false,
      "special": true
    },
    {
      "id": 6,
      "content": "[EOS]",
      "single_word": false,
      "lstrip": false,
      "rstrip": false,
      "normalized": false,
      "special": true
    }
  ],
  "normalizer": {
    "type": "Sequence",
    "normalizers": [
      {
        "type": "NFC"
      }
    ]
  },
  "pre_tokenizer": {
    "type": "Sequence",
    "pretokenizers": [
      {
        "type": "Whitespace"
      },
      {
        "type": "Digits",
        "individual_digits": false
      }
    ]
  },
  "post_processor": {
    "type": "TemplateProcessing",
    "single": [
      {
        "SpecialToken": {
          "id": "[CLS]",
          "type_id": 0
        }
      },
      {
        "Sequence": {
          "id": "A",
          "type_id": 0
        }
      },
      {
        "SpecialToken": {
          "id": "[SEP]",
          "type_id": 0
        }
      }
    ],
    "pair": [
      {
        "SpecialToken": {
          "id": "[CLS]",
          "type_id": 0
        }
      },
      {
        "Sequence": {
          "id": "A",
          "type_id": 0
        }
      },
      {
        "SpecialToken": {
          "id": "[SEP]",
          "type_id": 0
        }
      },
      {
        "Sequence": {
          "id": "B",
          "type_id": 1
        }
      },
      {
        "SpecialToken": {
          "id": "[SEP]",
          "type_id": 1
        }
      }
    ],
    "special_tokens": {
      "[CLS]": {
        "id": "[CLS]",
        "ids": [
          2
        ],
        "tokens": [
          "[CLS]"
        ]
      },
      "[SEP]": {
        "id": "[SEP]",
        "ids": [
          3
        ],
        "tokens": [
          "[SEP]"
        ]
      }
    }
  },
  "decoder": {
    "type": "BPEDecoder",
    "suffix": ""
  },
  "model": {
    "type": "BPE",
    "dropout": null,
    "unk_token": "[UNK]",
    "continuing_subword_prefix": null,
    "end_of_word_suffix": null,
    "fuse_unk": false,
    "byte_fallback": false,
    "ignore_merges": false,
    "vocab": {
      "[PAD]": 0,
      "[UNK]": 1,
      "[CLS]": 2,
      "[SEP]": 3,
      "[MASK]": 4,
      "[BOS]": 5,
      "[EOS]": 6,
      "!": 7,
      "\"": 8,
      "%": 9,
      "&": 10,
      "'": 11,
      "(": 12,
      ")": 13,
      "+": 14,
      ",": 15,
      "-": 16,
      ".": 17,
      "/": 18,
      "0": 19,
      "1": 20,
      "2": 21,
      "3": 22,
      "4": 23,
      "5": 24,
      "6": 25,
      "7": 26,
      "8": 27,
      "9": 28,
      ":": 29,
      ";": 30,
      "<": 31,
      "=": 32,
      ">": 33,
      "?": 34,
      "@": 35,
      "A": 36,
      "B": 37,
      "C": 38,
      "D": 39,
      "E": 40,
      "F": 41,
      "G": 42,
      "H": 43,
      "I": 44,
      "J": 45,
      "K": 46,
      "L": 47,
      "M": 48,
      "N": 49,
      "O": 50,
      "P": 51,
      "Q": 52,
      "R": 53,
      "S": 54,
      "T": 55,
      "U": 56,
      "V": 57,
      "W": 58,
      "X": 59,
      "Y": 60,
      "Z": 61,
      "[": 62,
      "]": 63,
      "`": 64,
      "a": 65,
      "b": 66,
      "c": 67,
      "d": 68,
      "e": 69,
      "f": 70,
      "g": 71,
      "h": 72,
      "i": 73,
      "j": 74,
      "k": 75,
      "l": 76,
      "m": 77,
      "n": 78,
      "o": 79,
      "p": 80,
      "q": 81,
      "r": 82,
      "s": 83,
      "t": 84,
      "u": 85,
      "v": 86,
      "w": 87,
      "x": 88,
      "y": 89,
      "z": 90,
      "«": 91,
      "²": 92,
      "»": 93,
      "À": 94,
      "Â": 95,
      "Ã": 96,
      "Ç": 97,
      "È": 98,
      "É": 99,
      "Ê": 100,
      "Ô": 101,
      "à": 102,
      "á": 103,
      "â": 104,
      "ç": 105,
      "è": 106,
      "é": 107,
      "ê": 108,
      "ë": 109,
      "í": 110,
      "î": 111,
      "ï": 112,
      "ô": 113,
      "ù": 114,
      "ú": 115,
      "û": 116,
      "ü": 117,
      "Œ": 118,
      "œ": 119,
      "̈": 120,
      "–": 121,
      "‘": 122,
      "’": 123,
      "es": 124,
      "nt": 125,
      "ou": 126,
      "de": 127,
      "le": 128,
      "re": 129,
      "ai": 130,
      "on": 131,
      "er": 132,
      "et": 133,
      "qu": 134,
      "il": 135,
      "ne": 136,
      "la": 137,
      "en": 138,
      "an": 139,
      "ar": 140,
      "eu": 141,
      "oi": 142,
      "les": 143,
      "it": 144,
      "au": 145,
      "ent": 146,
      "ch": 147,
      "ous": 148,
      "our": 149,
      "is": 150,
      "ur": 151,
      "om": 152,
      "as": 153,
      "ont": 154,
      "se": 155,
      "ce": 156,
      "or": 157,
      "que": 158,
      "te": 159,
      "me": 160,
      "av": 161,
      "ant": 162,
      "des": 163,
      "est": 164,
      "pr": 165,
      "in": 166,
      "ter": 167,
      "qui": 168,
      "ais": 169,
      "ans": 170,
      "ait": 171,
      "par": 172,
      "ra": 173,
      "ils": 174,
      "ti": 175,
      "lu": 176,
      "ét": 177,
      "un": 178,
      "vous": 179,
      "pour": 180,
      "dans": 181,
      "du": 182,
      "sa": 183,
      "nel": 184,
      "pas": 185,
      "tr": 186,
      "ieu": 187,
      "ternel": 188,
      "és": 189,
      "Éternel": 190,
      "Et": 191,
      "si": 192,
      "tre": 193,
      "ser": 194,
      "lui": 195,
      "ri": 196,
      "dit": 197,
      "ère": 198,
      "al": 199,
      "com": 200,
      "leur": 201,
      "el": 202,
      "ave": 203,
      "je": 204,
      "us": 205,
      "ons": 206,
      "li": 207,
      "os": 208,
      "tu": 209,
      "son": 210,
      "ab": 211,
      "tou": 212,
      "sur": 213,
      "Il": 214,
      "vi": 215,
      "une": 216,
      "eux": 217,
      "ci": 218,
      "am": 219,
      "ré": 220,
      "eur": 221,
      "ain": 222,
      "ment": 223,
      "res": 224,
      "tes": 225,
      "mes": 226,
      "avec": 227,
      "Dieu": 228,
      "mais": 229,
      "ée": 230,
      "at": 231,
      "che": 232,
      "ge": 233,
      "roi": 234,
      "di": 235,
      "don": 236,
      "ses": 237,
      "fils": 238,
      "vo": 239,
      "ver": 240,
      "hom": 241,
      "dé": 242,
      "moi": 243,
      "aux": 244,
      "uis": 245,
      "con": 246,
      "fi": 247,
      "aient": 248,
      "ap": 249,
      "nous": 250,
      "jour": 251,
      "mon": 252,
      "sont": 253,
      "pa": 254,
      "comme": 255,
      "cou": 256,
      "and": 257,
      "gne": 258,
      "pro": 259,
      "Is": 260,
      "ille": 261,
      "ël": 262,
      "ér": 263,
      "ma": 264,
      "peu": 265,
      "co": 266,
      "tion": 267,
      "ve": 268,
      "mi": 269,
      "Isra": 270,
      "Israël": 271,
      "ui": 272,
      "na": 273,
      "ple": 274,
      "ces": 275,
      "ort": 276,
      "elle": 277,
      "Je": 278,
      "dis": 279,
      "fait": 280,
      "voi": 281,
      "ens": 282,
      "rent": 283,
      "end": 284,
      "Le": 285,
      "ph": 286,
      "ants": 287,
      "était": 288,
      "né": 289,
      "gr": 290,
      "leurs": 291,
      "ès": 292,
      "tous": 293,
      "dev": 294,
      "cont": 295,
      "ren": 296,
      "car": 297,
      "fr": 298,
      "ors": 299,
      "mp": 300,
      "tout": 301,
      "maison": 302,
      "man": 303,
      "homme": 304,
      "ys": 305,
      "enf": 306,
      "ac": 307,
      "ité": 308,
      "mé": 309,
      "sera": 310,
      "jus": 311,
      "main": 312,
      "ni": 313,
      "avait": 314,
      "ta": 315,
      "lé": 316,
      "ton": 317,
      "rez": 318,
      "pays": 319,
      "peuple": 320,
      "toi": 321,
      "ir": 322,
      "èrent": 323,
      "aint": 324,
      "Les": 325,
      "Qu": 326,
      "té": 327,
      "lon": 328,
      "été": 329,
      "per": 330,
      "ois": 331,
      "cr": 332,
      "La": 333,
      "cri": 334,
      "vit": 335,
      "plu": 336,
      "em": 337,
      "nom": 338,
      "pi": 339,
      "ven": 340,
      "votre": 341,
      "mê": 342,
      "era": 343,
      "contre": 344,
      "sé": 345,
      "Car": 346,
      "plus": 347,
      "ceux": 348,
      "mont": 349,
      "près": 350,
      "aus": 351,
      "lle": 352,
      "ez": 353,
      "uit": 354,
      "igne": 355,
      "devant": 356,
      "Mais": 357,
      "ance": 358,
      "aire": 359,
      "ux": 360,
      "Ils": 361,
      "ff": 362,
      "pé": 363,
      "soi": 364,
      "fin": 365,
      "puis": 366,
      "mb": 367,
      "hommes": 368,
      "tions": 369,
      "igneur": 370,
      "même": 371,
      "ras": 372,
      "ut": 373,
      "mis": 374,
      "ères": 375,
      "app": 376,
      "enfants": 377,
      "loi": 378,
      "poi": 379,
      "bi": 380,
      "terre": 381,
      "eau": 382,
      "cher": 383,
      "gar": 384,
      "eurs": 385,
      "gu": 386,
      "ad": 387,
      "id": 388,
      "illes": 389,
      "ger": 390,
      "ner": 391,
      "ex": 392,
      "nes": 393,
      "ouv": 394,
      "cet": 395,
      "Se": 396,
      "vos": 397,
      "quand": 398,
      "vers": 399,
      "celui": 400,
      "étaient": 401,
      "point": 402,
      "br": 403,
      "bre": 404,
      "là": 405,
      "entre": 406,
      "ole": 407,
      "for": 408,
      "ob": 409,
      "aussi": 410,
      "jours": 411,
      "ins": 412,
      "por": 413,
      "rai": 414,
      "Si": 415,
      "Seigneur": 416,
      "ges": 417,
      "rép": 418,
      "fem": 419,
      "ête": 420,
      "Jés": 421,
      "Jésus": 422,
      "être": 423,
      "da": 424,
      "voy": 425,
      "vre": 426,
      "semb": 427,
      "Dav": 428,
      "David": 429,
      "rend": 430,
      "ché": 431,
      "oy": 432,
      "aut": 433,
      "cha": 434,
      "pre": 435,
      "sacri": 436,
      "sacrifi": 437,
      "toutes": 438,
      "prit": 439,
      "ieux": 440,
      "mar": 441,
      "ande": 442,
      "servit": 443,
      "ers": 444,
      "ist": 445,
      "suis": 446,
      "sou": 447,
      "afin": 448,
      "cor": 449,
      "quoi": 450,
      "ront": 451,
      "Mo": 452,
      "deux": 453,
      "jusqu": 454,
      "avez": 455,
      "ie": 456,
      "va": 457,
      "donné": 458,
      "Tu": 459,
      "toute": 460,
      "pris": 461,
      "pla": 462,
      "quel": 463,
      "sor": 464,
      "fer": 465,
      "lors": 466,
      "père": 467,
      "ul": 468,
      "gé": 469,
      "ème": 470,
      "où": 471,
      "th": 472,
      "Ju": 473,
      "mal": 474,
      "su": 475,
      "tres": 476,
      "hab": 477,
      "Jér": 478,
      "oses": 479,
      "met": 480,
      "pos": 481,
      "choses": 482,
      "enant": 483,
      "mort": 484,
      "int": 485,
      "ation": 486,
      "Ch": 487,
      "dés": 488,
      "bou": 489,
      "ante": 490,
      "vé": 491,
      "ert": 492,
      "no": 493,
      "vis": 494,
      "Ce": 495,
      "pe": 496,
      "usa": 497,
      "Jo": 498,
      "mil": 499,
      "aintenant": 500,
      "cette": 501,
      "ville": 502,
      "fs": 503,
      "parle": 504,
      "ments": 505,
      "répon": 506,
      "vin": 507,
      "ure": 508,
      "jet": 509,
      "faire": 510,
      "Juda": 511,
      "lem": 512,
      "ag": 513,
      "Voi": 514,
      "après": 515,
      "san": 516,
      "mer": 517,
      "Voici": 518,
      "Jérusa": 519,
      "Jérusalem": 520,
      "selon": 521,
      "men": 522,
      "temp": 523,
      "tri": 524,
      "cons": 525,
      "femme": 526,
      "yp": 527,
      "age": 528,
      "ail": 529,
      "lè": 530,
      "tent": 531,
      "habit": 532,
      "ïse": 533,
      "Moïse": 534,
      "Pour": 535,
      "enne": 536,
      "ol": 537,
      "pri": 538,
      "bien": 539,
      "étr": 540,
      "cent": 541,
      "ép": 542,
      "sent": 543,
      "vie": 544,
      "disant": 545,
      "bé": 546,
      "gyp": 547,
      "arri": 548,
      "ainsi": 549,
      "comp": 550,
      "pré": 551,
      "ts": 552,
      "temps": 553,
      "autre": 554,
      "seront": 555,
      "bat": 556,
      "tour": 557,
      "yeux": 558,
      "Vous": 559,
      "Ne": 560,
      "bon": 561,
      "notre": 562,
      "Que": 563,
      "parce": 564,
      "soit": 565,
      "sau": 566,
      "trou": 567,
      "ion": 568,
      "nez": 569,
      "col": 570,
      "Ph": 571,
      "venu": 572,
      "rap": 573,
      "erre": 574,
      "min": 575,
      "endu": 576,
      "parole": 577,
      "parmi": 578,
      "envoy": 579,
      "cour": 580,
      "bu": 581,
      "donc": 582,
      "proph": 583,
      "vu": 584,
      "oles": 585,
      "coup": 586,
      "im": 587,
      "ath": 588,
      "mains": 589,
      "lais": 590,
      "sep": 591,
      "êtes": 592,
      "trav": 593,
      "parti": 594,
      "ju": 595,
      "Alors": 596,
      "sorti": 597,
      "milieu": 598,
      "tom": 599,
      "Ab": 600,
      "cat": 601,
      "amp": 602,
      "fu": 603,
      "cin": 604,
      "gent": 605,
      "conn": 606,
      "oc": 607,
      "sans": 608,
      "lée": 609,
      "tit": 610,
      "gypte": 611,
      "lan": 612,
      "ause": 613,
      "garde": 614,
      "Sa": 615,
      "air": 616,
      "voici": 617,
      "sacrificat": 618,
      "grand": 619,
      "ques": 620,
      "lieu": 621,
      "core": 622,
      "feu": 623,
      "cu": 624,
      "chi": 625,
      "cô": 626,
      "imp": 627,
      "fut": 628,
      "tel": 629,
      "cela": 630,
      "sus": 631,
      "ed": 632,
      "ler": 633,
      "fit": 634,
      "ca": 635,
      "ence": 636,
      "non": 637,
      "Chr": 638,
      "pourquoi": 639,
      "eure": 640,
      "ord": 641,
      "cause": 642,
      "porte": 643,
      "sez": 644,
      "ffr": 645,
      "vent": 646,
      "prend": 647,
      "encore": 648,
      "agne": 649,
      "beau": 650,
      "frères": 651,
      "coeur": 652,
      "Ain": 653,
      "Ainsi": 654,
      "ches": 655,
      "char": 656,
      "livre": 657,
      "ction": 658,
      "Es": 659,
      "mande": 660,
      "Christ": 661,
      "Par": 662,
      "jou": 663,
      "ite": 664,
      "avons": 665,
      "donn": 666,
      "saint": 667,
      "Com": 668,
      "vres": 669,
      "premi": 670,
      "Qui": 671,
      "able": 672,
      "En": 673,
      "pères": 674,
      "cé": 675,
      "dou": 676,
      "ose": 677,
      "Quand": 678,
      "Puis": 679,
      "fam": 680,
      "villes": 681,
      "tomb": 682,
      "seu": 683,
      "mille": 684,
      "qua": 685,
      "grande": 686,
      "person": 687,
      "mo": 688,
      "prés": 689,
      "endant": 690,
      "Ja": 691,
      "tez": 692,
      "chant": 693,
      "droi": 694,
      "ten": 695,
      "avaient": 696,
      "servi": 697,
      "voix": 698,
      "sous": 699,
      "aine": 700,
      "paroles": 701,
      "frap": 702,
      "desc": 703,
      "auc": 704,
      "justi": 705,
      "nations": 706,
      "ble": 707,
      "serviteur": 708,
      "op": 709,
      "gna": 710,
      "De": 711,
      "offr": 712,
      "lis": 713,
      "sort": 714,
      "ître": 715,
      "prophè": 716,
      "trois": 717,
      "dirent": 718,
      "elles": 719,
      "ine": 720,
      "Égypte": 721,
      "autres": 722,
      "ciel": 723,
      "ia": 724,
      "port": 725,
      "serviteurs": 726,
      "endra": 727,
      "cip": 728,
      "donner": 729,
      "sion": 730,
      "côté": 731,
      "hui": 732,
      "fa": 733,
      "oir": 734,
      "sept": 735,
      "jeu": 736,
      "argent": 737,
      "crit": 738,
      "ore": 739,
      "ja": 740,
      "maintenant": 741,
      "vais": 742,
      "dont": 743,
      "sang": 744,
      "trouv": 745,
      "sance": 746,
      "ass": 747,
      "écou": 748,
      "née": 749,
      "nos": 750,
      "répondit": 751,
      "voir": 752,
      "som": 753,
      "dem": 754,
      "colère": 755,
      "rest": 756,
      "esprit": 757,
      "autel": 758,
      "fon": 759,
      "off": 760,
      "viv": 761,
      "donne": 762,
      "érité": 763,
      "nombre": 764,
      "justice": 765,
      "prin": 766,
      "tra": 767,
      "ouve": 768,
      "beaucoup": 769,
      "dix": 770,
      "cap": 771,
      "éri": 772,
      "rés": 773,
      "dent": 774,
      "fois": 775,
      "mour": 776,
      "alors": 777,
      "toujours": 778,
      "pet": 779,
      "connais": 780,
      "Lé": 781,
      "ara": 782,
      "appel": 783,
      "lement": 784,
      "rois": 785,
      "gn": 786,
      "mois": 787,
      "Nous": 788,
      "rien": 789,
      "péché": 790,
      "nu": 791,
      "loire": 792,
      "détr": 793,
      "sant": 794,
      "dire": 795,
      "ites": 796,
      "épée": 797,
      "assemb": 798,
      "chez": 799,
      "pendant": 800,
      "pain": 801,
      "œur": 802,
      "éle": 803,
      "roy": 804,
      "ül": 805,
      "pied": 806,
      "Saül": 807,
      "Maintenant": 808,
      "ense": 809,
      "tête": 810,
      "âme": 811,
      "liv": 812,
      "gloire": 813,
      "mée": 814,
      "chemin": 815,
      "frère": 816,
      "sais": 817,
      "personne": 818,
      "ange": 819,
      "all": 820,
      "désert": 821,
      "bouche": 822,
      "aille": 823,
      "hu": 824,
      "montagne": 825,
      "chaque": 826,
      "grâ": 827,
      "fais": 828,
      "ving": 829,
      "gue": 830,
      "cob": 831,
      "cer": 832,
      "quatre": 833,
      "Jacob": 834,
      "Un": 835,
      "ach": 836,
      "érit": 837,
      "ro": 838,
      "vête": 839,
      "titu": 840,
      "sui": 841,
      "ées": 842,
      "cla": 843,
      "oeu": 844,
      "aura": 845,
      "avoir": 846,
      "ini": 847,
      "Fils": 848,
      "champ": 849,
      "tis": 850,
      "chac": 851,
      "Am": 852,
      "jam": 853,
      "Elle": 854,
      "ba": 855,
      "eth": 856,
      "entendu": 857,
      "chose": 858,
      "po": 859,
      "avant": 860,
      "be": 861,
      "der": 862,
      "Tou": 863,
      "onne": 864,
      "juge": 865,
      "chair": 866,
      "pros": 867,
      "cœur": 868,
      "dét": 869,
      "nuit": 870,
      "fille": 871,
      "haut": 872,
      "Ma": 873,
      "peut": 874,
      "cieux": 875,
      "ori": 876,
      "vingt": 877,
      "enfant": 878,
      "mées": 879,
      "dessus": 880,
      "bres": 881,
      "aron": 882,
      "semble": 883,
      "ture": 884,
      "oie": 885,
      "Celui": 886,
      "aff": 887,
      "Comme": 888,
      "As": 889,
      "dom": 890,
      "mul": 891,
      "pl": 892,
      "sages": 893,
      "alli": 894,
      "méch": 895,
      "venir": 896,
      "témoi": 897,
      "royau": 898,
      "travail": 899,
      "pres": 900,
      "Aaron": 901,
      "rit": 902,
      "mère": 903,
      "retour": 904,
      "Phil": 905,
      "ay": 906,
      "bâ": 907,
      "sacrificateur": 908,
      "écrit": 909,
      "pai": 910,
      "ub": 911,
      "chacun": 912,
      "prê": 913,
      "lie": 914,
      "@-": 915,
      "place": 916,
      "@-@": 917,
      "ala": 918,
      "Sal": 919,
      "az": 920,
      "ze": 921,
      "cinq": 922,
      "erai": 923,
      "eut": 924,
      "Sam": 925,
      "ué": 926,
      "mur": 927,
      "aller": 928,
      "chef": 929,
      "femmes": 930,
      "ière": 931,
      "ps": 932,
      "lou": 933,
      "offrande": 934,
      "oisi": 935,
      "pur": 936,
      "monde": 937,
      "Abra": 938,
      "armées": 939,
      "ième": 940,
      "peur": 941,
      "mat": 942,
      "brû": 943,
      "endre": 944,
      "alliance": 945,
      "année": 946,
      "Lors": 947,
      "ouver": 948,
      "anger": 949,
      "premier": 950,
      "ferai": 951,
      "face": 952,
      "chefs": 953,
      "tribu": 954,
      "hérit": 955,
      "commande": 956,
      "vera": 957,
      "vient": 958,
      "sanc": 959,
      "eaux": 960,
      "ham": 961,
      "étab": 962,
      "anci": 963,
      "mit": 964,
      "rait": 965,
      "parlé": 966,
      "présent": 967,
      "aï": 968,
      "iniqu": 969,
      "fai": 970,
      "cle": 971,
      "paix": 972,
      "Salom": 973,
      "Bab": 974,
      "reste": 975,
      "vou": 976,
      "rie": 977,
      "Pourquoi": 978,
      "Salomon": 979,
      "ylon": 980,
      "gard": 981,
      "gens": 982,
      "illa": 983,
      "Babylon": 984,
      "rée": 985,
      "cre": 986,
      "allé": 987,
      "oyez": 988,
      "envoyé": 989,
      "Babylone": 990,
      "lier": 991,
      "autour": 992,
      "chés": 993,
      "gi": 994,
      "manger": 995,
      "ns": 996,
      "rais": 997,
      "tifi": 998,
      "bas": 999,
      "cert": 1000,
      "vint": 1001,
      "corps": 1002,
      "Lévit": 1003,
      "Philist": 1004,
      "assemblée": 1005,
      "rer": 1006,
      "ban": 1007,
      "Jé": 1008,
      "seul": 1009,
      "tant": 1010,
      "vez": 1011,
      "On": 1012,
      "tru": 1013,
      "force": 1014,
      "tente": 1015,
      "bris": 1016,
      "fera": 1017,
      "eront": 1018,
      "so": 1019,
      "vérité": 1020,
      "trans": 1021,
      "Jui": 1022,
      "bles": 1023,
      "ale": 1024,
      "mau": 1025,
      "oloc": 1026,
      "ru": 1027,
      "Phara": 1028,
      "olocaus": 1029,
      "Pharaon": 1030,
      "holocaus": 1031,
      "discip": 1032,
      "morts": 1033,
      "aucun": 1034,
      "boi": 1035,
      "royaume": 1036,
      "ani": 1037,
      "sommes": 1038,
      "dieux": 1039,
      "ennemis": 1040,
      "étranger": 1041,
      "pieds": 1042,
      "sortir": 1043,
      "vêtements": 1044,
      "Ben": 1045,
      "lev": 1046,
      "mange": 1047,
      "filles": 1048,
      "lez": 1049,
      "lumi": 1050,
      "ieur": 1051,
      "joie": 1052,
      "nte": 1053,
      "Père": 1054,
      "trom": 1055,
      "propre": 1056,
      "appro": 1057,
      "seph": 1058,
      "fruit": 1059,
      "part": 1060,
      "juste": 1061,
      "donna": 1062,
      "Au": 1063,
      "oth": 1064,
      "depuis": 1065,
      "Jos": 1066,
      "Mon": 1067,
      "chev": 1068,
      "venus": 1069,
      "pous": 1070,
      "conna": 1071,
      "eng": 1072,
      "onté": 1073,
      "faites": 1074,
      "Lévites": 1075,
      "Joseph": 1076,
      "aban": 1077,
      "réjou": 1078,
      "sacrificateurs": 1079,
      "très": 1080,
      "tab": 1081,
      "Tous": 1082,
      "foi": 1083,
      "lles": 1084,
      "deven": 1085,
      "fou": 1086,
      "ines": 1087,
      "Philistins": 1088,
      "habitants": 1089,
      "disciples": 1090,
      "remp": 1091,
      "furent": 1092,
      "jourd": 1093,
      "Esprit": 1094,
      "heure": 1095,
      "nouve": 1096,
      "Abraham": 1097,
      "géné": 1098,
      "bois": 1099,
      "pli": 1100,
      "hi": 1101,
      "camp": 1102,
      "ayant": 1103,
      "eff": 1104,
      "lut": 1105,
      "hors": 1106,
      "voie": 1107,
      "seigneur": 1108,
      "Juifs": 1109,
      "bes": 1110,
      "cré": 1111,
      "serai": 1112,
      "Josué": 1113,
      "ég": 1114,
      "its": 1115,
      "héritage": 1116,
      "ici": 1117,
      "lait": 1118,
      "reç": 1119,
      "armée": 1120,
      "rou": 1121,
      "matin": 1122,
      "fle": 1123,
      "lo": 1124,
      "uite": 1125,
      "prophètes": 1126,
      "amen": 1127,
      "iles": 1128,
      "soient": 1129,
      "lumière": 1130,
      "sy": 1131,
      "guerre": 1132,
      "prophète": 1133,
      "offri": 1134,
      "pou": 1135,
      "nouveau": 1136,
      "six": 1137,
      "sagesse": 1138,
      "iniquité": 1139,
      "doi": 1140,
      "emp": 1141,
      "uel": 1142,
      "iti": 1143,
      "tique": 1144,
      "andes": 1145,
      "assis": 1146,
      "confi": 1147,
      "appelé": 1148,
      "assé": 1149,
      "loin": 1150,
      "ves": 1151,
      "dées": 1152,
      "aujourd": 1153,
      "sole": 1154,
      "ordonné": 1155,
      "jeunes": 1156,
      "phra": 1157,
      "nour": 1158,
      "commen": 1159,
      "dre": 1160,
      "ron": 1161,
      "arche": 1162,
      "accomp": 1163,
      "demeure": 1164,
      "vol": 1165,
      "heur": 1166,
      "fleu": 1167,
      "porter": 1168,
      "ourd": 1169,
      "anciens": 1170,
      "cents": 1171,
      "éch": 1172,
      "alla": 1173,
      "vas": 1174,
      "erna": 1175,
      "capti": 1176,
      "actions": 1177,
      "ah": 1178,
      "asse": 1179,
      "ali": 1180,
      "condu": 1181,
      "lit": 1182,
      "ets": 1183,
      "ct": 1184,
      "peau": 1185,
      "do": 1186,
      "auprès": 1187,
      "ains": 1188,
      "ît": 1189,
      "leva": 1190,
      "ang": 1191,
      "aul": 1192,
      "lent": 1193,
      "assi": 1194,
      "ïm": 1195,
      "sacrifice": 1196,
      "sup": 1197,
      "ig": 1198,
      "grâce": 1199,
      "ions": 1200,
      "droite": 1201,
      "Dans": 1202,
      "gl": 1203,
      "appe": 1204,
      "combat": 1205,
      "Tout": 1206,
      "mple": 1207,
      "lam": 1208,
      "jeune": 1209,
      "Abi": 1210,
      "méchants": 1211,
      "puisse": 1212,
      "vienne": 1213,
      "cul": 1214,
      "cation": 1215,
      "coudées": 1216,
      "sait": 1217,
      "champs": 1218,
      "bis": 1219,
      "huile": 1220,
      "trouvé": 1221,
      "quelle": 1222,
      "inter": 1223,
      "Lorsque": 1224,
      "ôt": 1225,
      "serv": 1226,
      "sujet": 1227,
      "aires": 1228,
      "viend": 1229,
      "cles": 1230,
      "lés": 1231,
      "apport": 1232,
      "trai": 1233,
      "viendra": 1234,
      "nés": 1235,
      "portes": 1236,
      "visage": 1237,
      "arriva": 1238,
      "envoya": 1239,
      "généra": 1240,
      "tement": 1241,
      "étant": 1242,
      "mari": 1243,
      "titude": 1244,
      "Hé": 1245,
      "pes": 1246,
      "mu": 1247,
      "lar": 1248,
      "soleil": 1249,
      "mor": 1250,
      "œu": 1251,
      "cis": 1252,
      "ordre": 1253,
      "pau": 1254,
      "corde": 1255,
      "Moab": 1256,
      "Re": 1257,
      "ram": 1258,
      "sorte": 1259,
      "ire": 1260,
      "comment": 1261,
      "mandé": 1262,
      "brebis": 1263,
      "Jourd": 1264,
      "Jourdain": 1265,
      "iens": 1266,
      "temple": 1267,
      "produ": 1268,
      "famille": 1269,
      "ples": 1270,
      "ensemble": 1271,
      "conque": 1272,
      "mêmes": 1273,
      "détour": 1274,
      "établi": 1275,
      "maisons": 1276,
      "couv": 1277,
      "erres": 1278,
      "serez": 1279,
      "sage": 1280,
      "puissance": 1281,
      "onte": 1282,
      "seras": 1283,
      "lig": 1284,
      "chée": 1285,
      "oré": 1286,
      "couver": 1287,
      "athan": 1288,
      "multitude": 1289,
      "lant": 1290,
      "agnes": 1291,
      "trô": 1292,
      "princes": 1293,
      "pent": 1294,
      "miséri": 1295,
      "taberna": 1296,
      "Après": 1297,
      "uns": 1298,
      "cru": 1299,
      "rassemb": 1300,
      "erez": 1301,
      "arie": 1302,
      "enten": 1303,
      "peuples": 1304,
      "mie": 1305,
      "cham": 1306,
      "cond": 1307,
      "familles": 1308,
      "douze": 1309,
      "cs": 1310,
      "souff": 1311,
      "lève": 1312,
      "Ba": 1313,
      "Isa": 1314,
      "péchés": 1315,
      "quelqu": 1316,
      "droit": 1317,
      "ima": 1318,
      "cep": 1319,
      "pierre": 1320,
      "montagnes": 1321,
      "march": 1322,
      "nouv": 1323,
      "sab": 1324,
      "parler": 1325,
      "aucune": 1326,
      "phraïm": 1327,
      "ilis": 1328,
      "ures": 1329,
      "voies": 1330,
      "Benjam": 1331,
      "hon": 1332,
      "let": 1333,
      "témoigna": 1334,
      "ber": 1335,
      "liers": 1336,
      "fort": 1337,
      "rach": 1338,
      "craint": 1339,
      "Parce": 1340,
      "détrui": 1341,
      "Beth": 1342,
      "but": 1343,
      "long": 1344,
      "ifi": 1345,
      "regarde": 1346,
      "sal": 1347,
      "trône": 1348,
      "maître": 1349,
      "celle": 1350,
      "aines": 1351,
      "obser": 1352,
      "bâti": 1353,
      "Sh": 1354,
      "Une": 1355,
      "cl": 1356,
      "ot": 1357,
      "pens": 1358,
      "demande": 1359,
      "tran": 1360,
      "pierres": 1361,
      "monter": 1362,
      "mettre": 1363,
      "ique": 1364,
      "lequel": 1365,
      "péri": 1366,
      "service": 1367,
      "Paul": 1368,
      "mala": 1369,
      "ainement": 1370,
      "Man": 1371,
      "quar": 1372,
      "resse": 1373,
      "devenu": 1374,
      "tabernacle": 1375,
      "obé": 1376,
      "grâces": 1377,
      "fleuve": 1378,
      "allée": 1379,
      "cris": 1380,
      "pér": 1381,
      "para": 1382,
      "atta": 1383,
      "cours": 1384,
      "bar": 1385,
      "étu": 1386,
      "dites": 1387,
      "donnerai": 1388,
      "Éphraïm": 1389,
      "conse": 1390,
      "Pi": 1391,
      "bus": 1392,
      "cur": 1393,
      "més": 1394,
      "sol": 1395,
      "levé": 1396,
      "prom": 1397,
      "nation": 1398,
      "lieux": 1399,
      "expi": 1400,
      "Des": 1401,
      "soir": 1402,
      "ances": 1403,
      "utilis": 1404,
      "bran": 1405,
      "cit": 1406,
      "regard": 1407,
      "connu": 1408,
      "aime": 1409,
      "Ni": 1410,
      "boeu": 1411,
      "van": 1412,
      "lorsque": 1413,
      "Ach": 1414,
      "bras": 1415,
      "pu": 1416,
      "prêtre": 1417,
      "front": 1418,
      "appor": 1419,
      "commandements": 1420,
      "holocauste": 1421,
      "soyez": 1422,
      "éternel": 1423,
      "issent": 1424,
      "amour": 1425,
      "intel": 1426,
      "partie": 1427,
      "salut": 1428,
      "trente": 1429,
      "feras": 1430,
      "constr": 1431,
      "impur": 1432,
      "langue": 1433,
      "Can": 1434,
      "ier": 1435,
      "troisi": 1436,
      "prendre": 1437,
      "..": 1438,
      "dè": 1439,
      "sement": 1440,
      "cir": 1441,
      "Benjamin": 1442,
      "troisième": 1443,
      "Jon": 1444,
      "nent": 1445,
      "témoignage": 1446,
      "oam": 1447,
      "cinqu": 1448,
      "livré": 1449,
      "gie": 1450,
      "nè": 1451,
      "riches": 1452,
      "sanctu": 1453,
      "esse": 1454,
      "quelque": 1455,
      "oin": 1456,
      "omin": 1457,
      "tés": 1458,
      "abomin": 1459,
      "Sion": 1460,
      "sortit": 1461,
      "jugement": 1462,
      "bonté": 1463,
      "gni": 1464,
      "tué": 1465,
      "veille": 1466,
      "nées": 1467,
      "bonne": 1468,
      "jamais": 1469,
      "cinquante": 1470,
      "ira": 1471,
      "connaître": 1472,
      "sabbat": 1473,
      "cad": 1474,
      "oise": 1475,
      "sacrifices": 1476,
      "Pierre": 1477,
      "annon": 1478,
      "rég": 1479,
      "délivre": 1480,
      "tera": 1481,
      "huit": 1482,
      "nce": 1483,
      "vallée": 1484,
      "descen": 1485,
      "reti": 1486,
      "étis": 1487,
      "crai": 1488,
      "Mi": 1489,
      "rè": 1490,
      "ût": 1491,
      "consu": 1492,
      "béni": 1493,
      "Gala": 1494,
      "ard": 1495,
      "compa": 1496,
      "sanctuaire": 1497,
      "xante": 1498,
      "ça": 1499,
      "sions": 1500,
      "déf": 1501,
      "rê": 1502,
      "go": 1503,
      "orifi": 1504,
      "gnes": 1505,
      "abon": 1506,
      "vivant": 1507,
      "raient": 1508,
      "passer": 1509,
      "quarante": 1510,
      "Sy": 1511,
      "firent": 1512,
      "extr": 1513,
      "rendre": 1514,
      "bén": 1515,
      "ations": 1516,
      "aisse": 1517,
      "soixante": 1518,
      "oboam": 1519,
      "zé": 1520,
      "régna": 1521,
      "rendu": 1522,
      "miséricorde": 1523,
      "contin": 1524,
      "glorifi": 1525,
      "jur": 1526,
      "illé": 1527,
      "entrée": 1528,
      "troupe": 1529,
      "engendra": 1530,
      "Gu": 1531,
      "comm": 1532,
      "connaissance": 1533,
      "Ar": 1534,
      "Ceux": 1535,
      "deur": 1536,
      "airain": 1537,
      "mourir": 1538,
      "anges": 1539,
      "oment": 1540,
      "justes": 1541,
      "Est": 1542,
      "Manassé": 1543,
      "Saint": 1544,
      "ordonn": 1545,
      "viens": 1546,
      "gues": 1547,
      "présence": 1548,
      "aie": 1549,
      "Sch": 1550,
      "meur": 1551,
      "ané": 1552,
      "aure": 1553,
      "saph": 1554,
      "Joab": 1555,
      "Ham": 1556,
      "cité": 1557,
      "quent": 1558,
      "envi": 1559,
      "choisi": 1560,
      "rémie": 1561,
      "mépris": 1562,
      "Samuel": 1563,
      "sanctifi": 1564,
      "Jérémie": 1565,
      "honte": 1566,
      "Éli": 1567,
      "tième": 1568,
      "circon": 1569,
      "Sé": 1570,
      "ables": 1571,
      "érieur": 1572,
      "prostitu": 1573,
      "crainte": 1574,
      "Bé": 1575,
      "croi": 1576,
      "table": 1577,
      "repos": 1578,
      "reçu": 1579,
      "sour": 1580,
      "dez": 1581,
      "marche": 1582,
      "arriv": 1583,
      "boire": 1584,
      "moins": 1585,
      "jeté": 1586,
      "prophétis": 1587,
      "prêtres": 1588,
      "Egypte": 1589,
      "seulement": 1590,
      "sons": 1591,
      "tiens": 1592,
      "frappé": 1593,
      "font": 1594,
      "tremb": 1595,
      "ho": 1596,
      "gers": 1597,
      "rera": 1598,
      "ari": 1599,
      "aute": 1600,
      "nourrit": 1601,
      "pouv": 1602,
      "Écou": 1603,
      "cherche": 1604,
      "saints": 1605,
      "ffi": 1606,
      "issez": 1607,
      "Assy": 1608,
      "Oui": 1609,
      "Mal": 1610,
      "Jean": 1611,
      "Ses": 1612,
      "bét": 1613,
      "taure": 1614,
      "trés": 1615,
      "proster": 1616,
      "mauvais": 1617,
      "rece": 1618,
      "avais": 1619,
      "faite": 1620,
      "lation": 1621,
      "châ": 1622,
      "ligence": 1623,
      "divis": 1624,
      "ténè": 1625,
      "trouve": 1626,
      "troupeau": 1627,
      "continu": 1628,
      "ténèbres": 1629,
      "vois": 1630,
      "ign": 1631,
      "détruit": 1632,
      "Isaac": 1633,
      "bétail": 1634,
      "vê": 1635,
      "villa": 1636,
      "prie": 1637,
      "purifi": 1638,
      "intelligence": 1639,
      "lin": 1640,
      "viole": 1641,
      "fidè": 1642,
      "grandes": 1643,
      "ds": 1644,
      "mots": 1645,
      "foule": 1646,
      "Galaad": 1647,
      "dée": 1648,
      "vant": 1649,
      "veux": 1650,
      "passé": 1651,
      "expiation": 1652,
      "rons": 1653,
      "idoles": 1654,
      "prison": 1655,
      "appelle": 1656,
      "plui": 1657,
      "appar": 1658,
      "oreilles": 1659,
      "her": 1660,
      "moment": 1661,
      "persé": 1662,
      "sée": 1663,
      "oub": 1664,
      "abond": 1665,
      "att": 1666,
      "entrer": 1667,
      "colon": 1668,
      "agré": 1669,
      "donnera": 1670,
      "appela": 1671,
      "disent": 1672,
      "manière": 1673,
      "arrivé": 1674,
      "lance": 1675,
      "rocher": 1676,
      "truction": 1677,
      "nourriture": 1678,
      "piti": 1679,
      "vité": 1680,
      "envers": 1681,
      "années": 1682,
      "chent": 1683,
      "semen": 1684,
      "mesure": 1685,
      "bout": 1686,
      "septième": 1687,
      "élevé": 1688,
      "vigne": 1689,
      "décla": 1690,
      "adres": 1691,
      "confiance": 1692,
      "Baal": 1693,
      "circoncis": 1694,
      "ages": 1695,
      "demain": 1696,
      "oire": 1697,
      "uni": 1698,
      "ressus": 1699,
      "chercher": 1700,
      "orient": 1701,
      "heureux": 1702,
      "zéchi": 1703,
      "ités": 1704,
      "proch": 1705,
      "vinrent": 1706,
      "trompet": 1707,
      "viennent": 1708,
      "far": 1709,
      "pal": 1710,
      "entendre": 1711,
      "possé": 1712,
      "tenait": 1713,
      "gnation": 1714,
      "éloi": 1715,
      "siè": 1716,
      "die": 1717,
      "répondu": 1718,
      "Ammon": 1719,
      "accompli": 1720,
      "Où": 1721,
      "mâ": 1722,
      "anim": 1723,
      "four": 1724,
      "fav": 1725,
      "arbre": 1726,
      "sainte": 1727,
      "zéchias": 1728,
      "veu": 1729,
      "neu": 1730,
      "étais": 1731,
      "puissant": 1732,
      "posses": 1733,
      "Samarie": 1734,
      "descend": 1735,
      "quit": 1736,
      "quiconque": 1737,
      "phar": 1738,
      "venue": 1739,
      "servir": 1740,
      "doit": 1741,
      "semence": 1742,
      "dès": 1743,
      "fus": 1744,
      "dra": 1745,
      "sta": 1746,
      "vrai": 1747,
      "Ézéchias": 1748,
      "piè": 1749,
      "chevaux": 1750,
      "rempli": 1751,
      "iers": 1752,
      "Ésa": 1753,
      "eté": 1754,
      "diction": 1755,
      "forte": 1756,
      "insens": 1757,
      "bouc": 1758,
      "poussi": 1759,
      "Alle": 1760,
      "ême": 1761,
      "ancet": 1762,
      "lion": 1763,
      "post": 1764,
      "chars": 1765,
      "méchancet": 1766,
      "eil": 1767,
      "entend": 1768,
      "plant": 1769,
      "oeuvres": 1770,
      "Jonathan": 1771,
      "poussière": 1772,
      "gera": 1773,
      "troupeaux": 1774,
      "châti": 1775,
      "Sur": 1776,
      "pra": 1777,
      "parla": 1778,
      "lorsqu": 1779,
      "grands": 1780,
      "petit": 1781,
      "Assyrie": 1782,
      "méchanceté": 1783,
      "yst": 1784,
      "ennemi": 1785,
      "Allez": 1786,
      "Bala": 1787,
      "haï": 1788,
      "lèrent": 1789,
      "plais": 1790,
      "infor": 1791,
      "éth": 1792,
      "pare": 1793,
      "lèvres": 1794,
      "postérité": 1795,
      "rom": 1796,
      "eras": 1797,
      "laquelle": 1798,
      "oint": 1799,
      "trait": 1800,
      "mangé": 1801,
      "posé": 1802,
      "tribus": 1803,
      "Niger": 1804,
      "pleur": 1805,
      "sois": 1806,
      "puiss": 1807,
      "Mes": 1808,
      "petits": 1809,
      "couvri": 1810,
      "gres": 1811,
      "tor": 1812,
      "aimé": 1813,
      "multi": 1814,
      "nouvelle": 1815,
      "cas": 1816,
      "cam": 1817,
      "paré": 1818,
      "quelques": 1819,
      "oreille": 1820,
      "geur": 1821,
      "pè": 1822,
      "sés": 1823,
      "prirent": 1824,
      "travers": 1825,
      "Mar": 1826,
      "blé": 1827,
      "pren": 1828,
      "yr": 1829,
      "messa": 1830,
      "méchant": 1831,
      "cav": 1832,
      "gouver": 1833,
      "écri": 1834,
      "dira": 1835,
      "chaz": 1836,
      "tenir": 1837,
      "fête": 1838,
      "honne": 1839,
      "vain": 1840,
      "Égyp": 1841,
      "pron": 1842,
      "atte": 1843,
      "ieurs": 1844,
      "extré": 1845,
      "honneur": 1846,
      "pub": 1847,
      "sub": 1848,
      "partir": 1849,
      "Comment": 1850,
      "allés": 1851,
      "banlieu": 1852,
      "animaux": 1853,
      "cens": 1854,
      "âte": 1855,
      "éga": 1856,
      "Az": 1857,
      "ctions": 1858,
      "étendu": 1859,
      "certainement": 1860,
      "frontière": 1861,
      "Li": 1862,
      "meil": 1863,
      "frapper": 1864,
      "moisson": 1865,
      "suivi": 1866,
      "holocaustes": 1867,
      "belle": 1868,
      "neur": 1869,
      "sein": 1870,
      "prière": 1871,
      "règne": 1872,
      "pronon": 1873,
      "tenu": 1874,
      "No": 1875,
      "nord": 1876,
      "rencontre": 1877,
      "objet": 1878,
      "Absal": 1879,
      "derni": 1880,
      "possession": 1881,
      "Absalom": 1882,
      "lec": 1883,
      "aph": 1884,
      "monta": 1885,
      "gueur": 1886,
      "sembla": 1887,
      "Nebu": 1888,
      "pluie": 1889,
      "Sche": 1890,
      "har": 1891,
      "nav": 1892,
      "éph": 1893,
      "termin": 1894,
      "vue": 1895,
      "prince": 1896,
      "affli": 1897,
      "fos": 1898,
      "nera": 1899,
      "quer": 1900,
      "dévo": 1901,
      "andis": 1902,
      "travaille": 1903,
      "curité": 1904,
      "midi": 1905,
      "marcher": 1906,
      "menson": 1907,
      "capit": 1908,
      "bap": 1909,
      "st": 1910,
      "aise": 1911,
      "concer": 1912,
      "ouvri": 1913,
      "vêtement": 1914,
      "oiseaux": 1915,
      "ât": 1916,
      "dition": 1917,
      "endroi": 1918,
      "descendu": 1919,
      "fruits": 1920,
      "viendront": 1921,
      "pul": 1922,
      "ène": 1923,
      "chera": 1924,
      "rends": 1925,
      "mettr": 1926,
      "génération": 1927,
      "morce": 1928,
      "arbres": 1929,
      "allez": 1930,
      "gardé": 1931,
      "répand": 1932,
      "voyant": 1933,
      "malé": 1934,
      "consé": 1935,
      "famine": 1936,
      "princip": 1937,
      "Lorsqu": 1938,
      "pouvoir": 1939,
      "assignation": 1940,
      "œuvres": 1941,
      "Bar": 1942,
      "aan": 1943,
      "sci": 1944,
      "enter": 1945,
      "indi": 1946,
      "ferez": 1947,
      "chau": 1948,
      "dure": 1949,
      "laissez": 1950,
      "ray": 1951,
      "Jéroboam": 1952,
      "effet": 1953,
      "juré": 1954,
      "ordonnances": 1955,
      "demandé": 1956,
      "gile": 1957,
      "Écoutez": 1958,
      "nant": 1959,
      "sit": 1960,
      "commis": 1961,
      "ats": 1962,
      "séjour": 1963,
      "nerai": 1964,
      "transgres": 1965,
      "fé": 1966,
      "Élis": 1967,
      "quant": 1968,
      "dév": 1969,
      "fix": 1970,
      "coupe": 1971,
      "première": 1972,
      "statu": 1973,
      "cal": 1974,
      "voyez": 1975,
      "âmes": 1976,
      "espér": 1977,
      "oui": 1978,
      "encens": 1979,
      "médi": 1980,
      "Quel": 1981,
      "Or": 1982,
      "refu": 1983,
      "détruire": 1984,
      "boeufs": 1985,
      "gnifi": 1986,
      "bêtes": 1987,
      "rière": 1988,
      "emmen": 1989,
      "élev": 1990,
      "Son": 1991,
      "blan": 1992,
      "fest": 1993,
      "hé": 1994,
      "sépul": 1995,
      "fond": 1996,
      "Cet": 1997,
      "Ou": 1998,
      "gle": 1999,
      "nets": 2000,
      "sè": 2001,
      "dehors": 2002,
      "aide": 2003,
      "qué": 2004,
      "las": 2005,
      "chem": 2006,
      "pitié": 2007,
      "Ap": 2008,
      "chas": 2009,
      "bataille": 2010,
      "vivants": 2011,
      "nombreux": 2012,
      "enseig": 2013,
      "étrangers": 2014,
      "prochain": 2015,
      "pharis": 2016,
      "he": 2017,
      "zième": 2018,
      "dul": 2019,
      "déliv": 2020,
      "bruit": 2021,
      "lèvera": 2022,
      "Pre": 2023,
      "haute": 2024,
      "uses": 2025,
      "venez": 2026,
      "plusieurs": 2027,
      "guéri": 2028,
      "pect": 2029,
      "hauts": 2030,
      "bord": 2031,
      "fui": 2032,
      "gment": 2033,
      "entré": 2034,
      "sidé": 2035,
      "répan": 2036,
      "olo": 2037,
      "Achab": 2038,
      "Per": 2039,
      "dres": 2040,
      "orgue": 2041,
      "arrivera": 2042,
      "écoutez": 2043,
      "domin": 2044,
      "volonté": 2045,
      "lever": 2046,
      "détresse": 2047,
      "commandement": 2048,
      "apporté": 2049,
      "ien": 2050,
      "savez": 2051,
      "Édom": 2052,
      "isse": 2053,
      "parfu": 2054,
      "viande": 2055,
      "consa": 2056,
      "érieu": 2057,
      "disper": 2058,
      "puissent": 2059,
      "rassemble": 2060,
      "plaisir": 2061,
      "gui": 2062,
      "scri": 2063,
      "ude": 2064,
      "personnes": 2065,
      "frappa": 2066,
      "captivité": 2067,
      "cadnets": 2068,
      "Prenez": 2069,
      "cadnetsar": 2070,
      "Vo": 2071,
      "bête": 2072,
      "parta": 2073,
      "captifs": 2074,
      "servante": 2075,
      "suite": 2076,
      "diri": 2077,
      "propres": 2078,
      "mélec": 2079,
      "laissé": 2080,
      "craigne": 2081,
      "Eternel": 2082,
      "Jus": 2083,
      "iez": 2084,
      "lesquel": 2085,
      "antes": 2086,
      "suppli": 2087,
      "Nebucadnetsar": 2088,
      "Sché": 2089,
      "Tes": 2090,
      "chér": 2091,
      "irai": 2092,
      "noms": 2093,
      "nommé": 2094,
      "tombé": 2095,
      "porté": 2096,
      "pauvre": 2097,
      "banlieue": 2098,
      "cè": 2099,
      "çon": 2100,
      "aveu": 2101,
      "monté": 2102,
      "marché": 2103,
      "pen": 2104,
      "apparti": 2105,
      "écoute": 2106,
      "agréable": 2107,
      "Han": 2108,
      "Élie": 2109,
      "ania": 2110,
      "augment": 2111,
      "ration": 2112,
      "éro": 2113,
      "peuvent": 2114,
      "fortifi": 2115,
      "Chal": 2116,
      "pauvres": 2117,
      "construit": 2118,
      "richesses": 2119,
      "Égyptiens": 2120,
      "cti": 2121,
      "anne": 2122,
      "révé": 2123,
      "prof": 2124,
      "mani": 2125,
      "derrière": 2126,
      "brûle": 2127,
      "échap": 2128,
      "enez": 2129,
      "vail": 2130,
      "entra": 2131,
      "second": 2132,
      "signe": 2133,
      "forme": 2134,
      "amené": 2135,
      "largeur": 2136,
      "couvert": 2137,
      "Ave": 2138,
      "lois": 2139,
      "mou": 2140,
      "use": 2141,
      "vivre": 2142,
      "pide": 2143,
      "offrandes": 2144,
      "humil": 2145,
      "conseil": 2146,
      "Canaan": 2147,
      "publi": 2148,
      "Avec": 2149,
      "ureur": 2150,
      "célé": 2151,
      "frapp": 2152,
      "soci": 2153,
      "espérance": 2154,
      "parent": 2155,
      "graisse": 2156,
      "devrait": 2157,
      "ouvez": 2158,
      "azar": 2159,
      "Asa": 2160,
      "Ram": 2161,
      "fureur": 2162,
      "escla": 2163,
      "terai": 2164,
      "allu": 2165,
      "miel": 2166,
      "advers": 2167,
      "fosse": 2168,
      "chérub": 2169,
      "are": 2170,
      "hor": 2171,
      "len": 2172,
      "ilité": 2173,
      "pleine": 2174,
      "biens": 2175,
      "prenez": 2176,
      "malheur": 2177,
      "trouver": 2178,
      "soeur": 2179,
      "longtemps": 2180,
      "tôt": 2181,
      "Josaph": 2182,
      "prendra": 2183,
      "descendre": 2184,
      "allèrent": 2185,
      "besoin": 2186,
      "pharisiens": 2187,
      "Josaphat": 2188,
      "Aus": 2189,
      "nèrent": 2190,
      "enlevé": 2191,
      "auche": 2192,
      "iste": 2193,
      "appris": 2194,
      "iller": 2195,
      "lèver": 2196,
      "béné": 2197,
      "sauver": 2198,
      "taureau": 2199,
      "multipli": 2200,
      "ha": 2201,
      "ève": 2202,
      "tié": 2203,
      "dité": 2204,
      "tuer": 2205,
      "bron": 2206,
      "instru": 2207,
      "caché": 2208,
      "éternelle": 2209,
      "Ésaü": 2210,
      "conséquent": 2211,
      "Me": 2212,
      "fleur": 2213,
      "enver": 2214,
      "arrê": 2215,
      "Béth": 2216,
      "Gad": 2217,
      "Ré": 2218,
      "org": 2219,
      "tient": 2220,
      "étend": 2221,
      "commandé": 2222,
      "attent": 2223,
      "déchi": 2224,
      "faits": 2225,
      "phth": 2226,
      "trième": 2227,
      "quatrième": 2228,
      "aniel": 2229,
      "butin": 2230,
      "Achaz": 2231,
      "pois": 2232,
      "êt": 2233,
      "ition": 2234,
      "cine": 2235,
      "moitié": 2236,
      "apô": 2237,
      "mets": 2238,
      "intérieur": 2239,
      "mangerez": 2240,
      "herbe": 2241,
      "oubli": 2242,
      "Daniel": 2243,
      "jard": 2244,
      "âne": 2245,
      "riens": 2246,
      "déci": 2247,
      "proche": 2248,
      "accor": 2249,
      "pains": 2250,
      "abandonné": 2251,
      "Malheur": 2252,
      "dieu": 2253,
      "iel": 2254,
      "iques": 2255,
      "repent": 2256,
      "eurent": 2257,
      "désir": 2258,
      "brisé": 2259,
      "levain": 2260,
      "An": 2261,
      "cieu": 2262,
      "rav": 2263,
      "écu": 2264,
      "oux": 2265,
      "ust": 2266,
      "couche": 2267,
      "acc": 2268,
      "charge": 2269,
      "tomber": 2270,
      "mourut": 2271,
      "principaux": 2272,
      "lons": 2273,
      "od": 2274,
      "saient": 2275,
      "écla": 2276,
      "auras": 2277,
      "riez": 2278,
      "diras": 2279,
      "ada": 2280,
      "oeuvre": 2281,
      "onnement": 2282,
      "branches": 2283,
      "gauche": 2284,
      "égard": 2285,
      "debout": 2286,
      "ombre": 2287,
      "déso": 2288,
      "agneaux": 2289,
      "demand": 2290,
      "enseigne": 2291,
      "parfum": 2292,
      "Dan": 2293,
      "zer": 2294,
      "ailes": 2295,
      "aurez": 2296,
      "vier": 2297,
      "ensiles": 2298,
      "nuée": 2299,
      "produit": 2300,
      "image": 2301,
      "faveur": 2302,
      "semblable": 2303,
      "endroit": 2304,
      "ustensiles": 2305,
      "ânes": 2306,
      "alil": 2307,
      "line": 2308,
      "considé": 2309,
      "longueur": 2310,
      "plaît": 2311,
      "vision": 2312,
      "sortis": 2313,
      "ouvert": 2314,
      "ffici": 2315,
      "abondance": 2316,
      "messagers": 2317,
      "vaillant": 2318,
      "Galil": 2319,
      "Pâ": 2320,
      "deau": 2321,
      "auront": 2322,
      "chan": 2323,
      "invo": 2324,
      "renver": 2325,
      "bélier": 2326,
      "premiers": 2327,
      "informa": 2328,
      "Elles": 2329,
      "éner": 2330,
      "ila": 2331,
      "meaux": 2332,
      "avan": 2333,
      "voit": 2334,
      "Simon": 2335,
      "répondirent": 2336,
      "donnée": 2337,
      "Amoré": 2338,
      "Chaldé": 2339,
      "Pâque": 2340,
      "Ces": 2341,
      "cée": 2342,
      "sin": 2343,
      "sèrent": 2344,
      "teur": 2345,
      "ellement": 2346,
      "rence": 2347,
      "tombe": 2348,
      "Toute": 2349,
      "plaie": 2350,
      "commencé": 2351,
      "...": 2352,
      "baptis": 2353,
      "lité": 2354,
      "diff": 2355,
      "brûlé": 2356,
      "cret": 2357,
      "générations": 2358,
      "abominations": 2359,
      "environ": 2360,
      "Ad": 2361,
      "Afin": 2362,
      "gre": 2363,
      "ija": 2364,
      "oph": 2365,
      "savoir": 2366,
      "vieux": 2367,
      "ateur": 2368,
      "mira": 2369,
      "Be": 2370,
      "sas": 2371,
      "aim": 2372,
      "cement": 2373,
      "poursui": 2374,
      "amas": 2375,
      "Élisée": 2376,
      "Chaldéens": 2377,
      "Lève": 2378,
      "Ton": 2379,
      "jà": 2380,
      "données": 2381,
      "ferme": 2382,
      "mettra": 2383,
      "prends": 2384,
      "Hébron": 2385,
      "peste": 2386,
      "chambre": 2387,
      "fidèle": 2388,
      "Amoréens": 2389,
      "ales": 2390,
      "entière": 2391,
      "jeû": 2392,
      "plein": 2393,
      "perp": 2394,
      "chaî": 2395,
      "agneau": 2396,
      "Ke": 2397,
      "fasse": 2398,
      "couché": 2399,
      "obs": 2400,
      "tradition": 2401,
      "condam": 2402,
      "trésors": 2403,
      "Rub": 2404,
      "outre": 2405,
      "deu": 2406,
      "rassas": 2407,
      "sortira": 2408,
      "Lévi": 2409,
      "allait": 2410,
      "mités": 2411,
      "violence": 2412,
      "Ruben": 2413,
      "gné": 2414,
      "pouvez": 2415,
      "syst": 2416,
      "éra": 2417,
      "retran": 2418,
      "revê": 2419,
      "ceint": 2420,
      "parlait": 2421,
      "alité": 2422,
      "cifi": 2423,
      "cro": 2424,
      "montèrent": 2425,
      "sud": 2426,
      "mettrai": 2427,
      "pensées": 2428,
      "palais": 2429,
      "gouverneur": 2430,
      "Va": 2431,
      "rage": 2432,
      "plan": 2433,
      "prix": 2434,
      "trompette": 2435,
      "pratique": 2436,
      "Dis": 2437,
      "quest": 2438,
      "cho": 2439,
      "profon": 2440,
      "sommet": 2441,
      "villages": 2442,
      "également": 2443,
      "Venez": 2444,
      "Zab": 2445,
      "gra": 2446,
      "rèrent": 2447,
      "tin": 2448,
      "tiques": 2449,
      "elop": 2450,
      "récomp": 2451,
      "déjà": 2452,
      "autor": 2453,
      "souver": 2454,
      "tentes": 2455,
      "Fais": 2456,
      "fo": 2457,
      "gen": 2458,
      "gner": 2459,
      "lus": 2460,
      "ami": 2461,
      "offrir": 2462,
      "défaut": 2463,
      "colonnes": 2464,
      "mettras": 2465,
      "Achi": 2466,
      "ïe": 2467,
      "cident": 2468,
      "uits": 2469,
      "raison": 2470,
      "cheveux": 2471,
      "souffle": 2472,
      "Non": 2473,
      "cra": 2474,
      "oiles": 2475,
      "rejet": 2476,
      "destruction": 2477,
      "amis": 2478,
      "éris": 2479,
      "nature": 2480,
      "croy": 2481,
      "exécu": 2482,
      "statuts": 2483,
      "Don": 2484,
      "Fait": 2485,
      "cut": 2486,
      "dur": 2487,
      "âge": 2488,
      "anis": 2489,
      "ceci": 2490,
      "dus": 2491,
      "riche": 2492,
      "uisse": 2493,
      "pleure": 2494,
      "disait": 2495,
      "léazar": 2496,
      "morceaux": 2497,
      "gles": 2498,
      "glis": 2499,
      "iz": 2500,
      "mant": 2501,
      "nais": 2502,
      "oli": 2503,
      "sû": 2504,
      "éti": 2505,
      "écl": 2506,
      "sac": 2507,
      "sicles": 2508,
      "péch": 2509,
      "prise": 2510,
      "import": 2511,
      "Canané": 2512,
      "Syrie": 2513,
      "ressuscité": 2514,
      "insensé": 2515,
      "puissants": 2516,
      "Th": 2517,
      "adul": 2518,
      "io": 2519,
      "ris": 2520,
      "ros": 2521,
      "éten": 2522,
      "donnez": 2523,
      "déli": 2524,
      "agit": 2525,
      "oppro": 2526,
      "murs": 2527,
      "muraille": 2528,
      "Syriens": 2529,
      "torrent": 2530,
      "lendemain": 2531,
      "jal": 2532,
      "oeil": 2533,
      "delà": 2534,
      "parvis": 2535,
      "lim": 2536,
      "faisant": 2537,
      "reçoi": 2538,
      "œuvre": 2539,
      "Liban": 2540,
      "Galilée": 2541,
      "Gui": 2542,
      "Mer": 2543,
      "gés": 2544,
      "jure": 2545,
      "pir": 2546,
      "rob": 2547,
      "lamp": 2548,
      "change": 2549,
      "racont": 2550,
      "compas": 2551,
      "conç": 2552,
      "feront": 2553,
      "répond": 2554,
      "côtés": 2555,
      "combattre": 2556,
      "boeuf": 2557,
      "Béthel": 2558,
      "Bas": 2559,
      "Dit": 2560,
      "Là": 2561,
      "dois": 2562,
      "mons": 2563,
      "devint": 2564,
      "arc": 2565,
      "inf": 2566,
      "verge": 2567,
      "fidé": 2568,
      "ensuite": 2569,
      "écouter": 2570,
      "remplis": 2571,
      "Abimélec": 2572,
      "Balaam": 2573,
      "Faites": 2574,
      "opprobre": 2575,
      "El": 2576,
      "Na": 2577,
      "écr": 2578,
      "abord": 2579,
      "dian": 2580,
      "conde": 2581,
      "nago": 2582,
      "enfui": 2583,
      "talent": 2584,
      "béliers": 2585,
      "demeur": 2586,
      "élec": 2587,
      "iniquités": 2588,
      "base": 2589,
      "certains": 2590,
      "synago": 2591,
      "cavali": 2592,
      "deuil": 2593,
      "épr": 2594,
      "forter": 2595,
      "offert": 2596,
      "descendit": 2597,
      "refuge": 2598,
      "souverain": 2599,
      "bor": 2600,
      "kim": 2601,
      "îme": 2602,
      "Sichem": 2603,
      "occident": 2604,
      "vases": 2605,
      "adressée": 2606,
      "vés": 2607,
      "arra": 2608,
      "cornes": 2609,
      "oppri": 2610,
      "enseign": 2611,
      "achet": 2612,
      "Madian": 2613,
      "Abram": 2614,
      "She": 2615,
      "adult": 2616,
      "Amen": 2617,
      "Ta": 2618,
      "tar": 2619,
      "vont": 2620,
      "recu": 2621,
      "orte": 2622,
      "proie": 2623,
      "sique": 2624,
      "répri": 2625,
      "paï": 2626,
      "neront": 2627,
      "habitent": 2628,
      "partirent": 2629,
      "juger": 2630,
      "garder": 2631,
      "jugements": 2632,
      "haïs": 2633,
      "Du": 2634,
      "Tr": 2635,
      "entrai": 2636,
      "iront": 2637,
      "montre": 2638,
      "adab": 2639,
      "ther": 2640,
      "rapport": 2641,
      "impure": 2642,
      "donnés": 2643,
      "bases": 2644,
      "vangile": 2645,
      "Al": 2646,
      "Leurs": 2647,
      "reb": 2648,
      "inno": 2649,
      "trop": 2650,
      "précip": 2651,
      "écouté": 2652,
      "nouvelles": 2653,
      "prostituée": 2654,
      "chérubins": 2655,
      "vaillants": 2656,
      "ies": 2657,
      "pose": 2658,
      "nelle": 2659,
      "sécurité": 2660,
      "tenaient": 2661,
      "dents": 2662,
      "Toutes": 2663,
      "hauteur": 2664,
      "enfanta": 2665,
      "pression": 2666,
      "Jéhu": 2667,
      "accomplis": 2668,
      "chambres": 2669,
      "obéis": 2670,
      "Béni": 2671,
      "sépulcre": 2672,
      "orgueil": 2673,
      "dirige": 2674,
      "jardin": 2675,
      "Heure": 2676,
      "teurs": 2677,
      "ith": 2678,
      "teaux": 2679,
      "lune": 2680,
      "serpent": 2681,
      "voyage": 2682,
      "douleur": 2683,
      "orer": 2684,
      "mourra": 2685,
      "connaît": 2686,
      "scribes": 2687,
      "fidélité": 2688,
      "Job": 2689,
      "Jéri": 2690,
      "Marie": 2691,
      "lâ": 2692,
      "mieux": 2693,
      "partit": 2694,
      "passe": 2695,
      "serait": 2696,
      "rion": 2697,
      "néces": 2698,
      "plaine": 2699,
      "ayez": 2700,
      "culp": 2701,
      "apporter": 2702,
      "source": 2703,
      "extrémités": 2704,
      "diffé": 2705,
      "païens": 2706,
      "agé": 2707,
      "ajou": 2708,
      "irent": 2709,
      "telle": 2710,
      "abat": 2711,
      "terreur": 2712,
      "habite": 2713,
      "santé": 2714,
      "rues": 2715,
      "animal": 2716,
      "levèrent": 2717,
      "route": 2718,
      "organis": 2719,
      "apôtres": 2720,
      "Jéricho": 2721,
      "Soyez": 2722,
      "han": 2723,
      "ran": 2724,
      "armes": 2725,
      "dénombre": 2726,
      "accep": 2727,
      "cherché": 2728,
      "Joas": 2729,
      "Abner": 2730,
      "bâtit": 2731,
      "volont": 2732,
      "érieure": 2733,
      "Heureux": 2734,
      "dénombrement": 2735,
      "hen": 2736,
      "puits": 2737,
      "cel": 2738,
      "siez": 2739,
      "convoi": 2740,
      "uire": 2741,
      "compte": 2742,
      "bonnes": 2743,
      "appelés": 2744,
      "détruis": 2745,
      "Sédéci": 2746,
      "mensonge": 2747,
      "Aussi": 2748,
      "énergie": 2749,
      "Sédécias": 2750,
      "10": 2751,
      "Damas": 2752,
      "achar": 2753,
      "fes": 2754,
      "oram": 2755,
      "étoiles": 2756,
      "endur": 2757,
      "enflam": 2758,
      "forêt": 2759,
      "laisser": 2760,
      "faim": 2761,
      "jeunesse": 2762,
      "barres": 2763,
      "Con": 2764,
      "can": 2765,
      "rant": 2766,
      "relles": 2767,
      "aissez": 2768,
      "diront": 2769,
      "devraient": 2770,
      "contr": 2771,
      "lées": 2772,
      "crains": 2773,
      "vage": 2774,
      "habiter": 2775,
      "complè": 2776,
      "préparé": 2777,
      "abomination": 2778,
      "Cert": 2779,
      "Gué": 2780,
      "So": 2781,
      "Sil": 2782,
      "veut": 2783,
      "reine": 2784,
      "chèrent": 2785,
      "quième": 2786,
      "mirent": 2787,
      "mangera": 2788,
      "cinquième": 2789,
      "village": 2790,
      "science": 2791,
      "Jusqu": 2792,
      "entrailles": 2793,
      "Dé": 2794,
      "reur": 2795,
      "rection": 2796,
      "aria": 2797,
      "parab": 2798,
      "pourrait": 2799,
      "combien": 2800,
      "couvre": 2801,
      "propri": 2802,
      "voile": 2803,
      "cherchent": 2804,
      "portion": 2805,
      "consul": 2806,
      "restera": 2807,
      "malade": 2808,
      "farine": 2809,
      "neuf": 2810,
      "Cananéens": 2811,
      "dor": 2812,
      "gal": 2813,
      "Éléazar": 2814,
      "envoie": 2815,
      "chande": 2816,
      "rapide": 2817,
      "Jeho": 2818,
      "irrit": 2819,
      "ennent": 2820,
      "dochée": 2821,
      "Mardochée": 2822,
      "Moi": 2823,
      "Même": 2824,
      "Pendant": 2825,
      "flè": 2826,
      "lines": 2827,
      "reins": 2828,
      "éton": 2829,
      "tris": 2830,
      "iras": 2831,
      "crain": 2832,
      "cordes": 2833,
      "mettez": 2834,
      "justifi": 2835,
      "poser": 2836,
      "bénit": 2837,
      "cavaliers": 2838,
      "Très": 2839,
      "Had": 2840,
      "Pila": 2841,
      "gresse": 2842,
      "sis": 2843,
      "seconde": 2844,
      "éthi": 2845,
      "libre": 2846,
      "rédu": 2847,
      "Isma": 2848,
      "disaient": 2849,
      "rencont": 2850,
      "montré": 2851,
      "Josi": 2852,
      "épau": 2853,
      "arrive": 2854,
      "cations": 2855,
      "recev": 2856,
      "veuve": 2857,
      "Cette": 2858,
      "échapper": 2859,
      "bénédiction": 2860,
      "Pilate": 2861,
      "Laban": 2862,
      "Sara": 2863,
      "Tyr": 2864,
      "bour": 2865,
      "mité": 2866,
      "sav": 2867,
      "tons": 2868,
      "espè": 2869,
      "tués": 2870,
      "coupé": 2871,
      "exer": 2872,
      "occu": 2873,
      "commencement": 2874,
      "conduit": 2875,
      "commun": 2876,
      "malédiction": 2877,
      "Gé": 2878,
      "Lou": 2879,
      "Né": 2880,
      "aque": 2881,
      "faux": 2882,
      "hath": 2883,
      "pil": 2884,
      "recherche": 2885,
      "lament": 2886,
      "chass": 2887,
      "délivré": 2888,
      "souffr": 2889,
      "réjouis": 2890,
      "conduis": 2891,
      "enverrai": 2892,
      "entièrement": 2893,
      "folie": 2894,
      "Laissez": 2895,
      "dras": 2896,
      "his": 2897,
      "offici": 2898,
      "tandis": 2899,
      "zi": 2900,
      "ènerai": 2901,
      "épi": 2902,
      "orge": 2903,
      "incirconcis": 2904,
      "serment": 2905,
      "irr": 2906,
      "peine": 2907,
      "tentrion": 2908,
      "sauvé": 2909,
      "septentrion": 2910,
      "tomba": 2911,
      "dixième": 2912,
      "royaumes": 2913,
      "certain": 2914,
      "nourri": 2915,
      "perpétu": 2916,
      "autorité": 2917,
      "Har": 2918,
      "Zachar": 2919,
      "fra": 2920,
      "mera": 2921,
      "têtes": 2922,
      "èmes": 2923,
      "secours": 2924,
      "aba": 2925,
      "provin": 2926,
      "veil": 2927,
      "monte": 2928,
      "collines": 2929,
      "tomberont": 2930,
      "mot": 2931,
      "emport": 2932,
      "observe": 2933,
      "craign": 2934,
      "Votre": 2935,
      "récompense": 2936,
      "Zacharie": 2937,
      "ache": 2938,
      "pol": 2939,
      "tail": 2940,
      "êtres": 2941,
      "regar": 2942,
      "anmoins": 2943,
      "dite": 2944,
      "grav": 2945,
      "devait": 2946,
      "venge": 2947,
      "soif": 2948,
      "mettent": 2949,
      "envoyés": 2950,
      "couronne": 2951,
      "juges": 2952,
      "joug": 2953,
      "nudité": 2954,
      "lettre": 2955,
      "promesse": 2956,
      "régner": 2957,
      "Noé": 2958,
      "anneaux": 2959,
      "Basan": 2960,
      "Sat": 2961,
      "dons": 2962,
      "faut": 2963,
      "gas": 2964,
      "ventre": 2965,
      "ilà": 2966,
      "sel": 2967,
      "salu": 2968,
      "digne": 2969,
      "phel": 2970,
      "trine": 2971,
      "allégresse": 2972,
      "étudie": 2973,
      "sources": 2974,
      "répandu": 2975,
      "instruments": 2976,
      "Josias": 2977,
      "Bien": 2978,
      "Joram": 2979,
      "peux": 2980,
      "chassé": 2981,
      "asch": 2982,
      "antique": 2983,
      "alia": 2984,
      "voient": 2985,
      "poids": 2986,
      "Esther": 2987,
      "Quiconque": 2988,
      "vanité": 2989,
      "pouvait": 2990,
      "partage": 2991,
      "adversaires": 2992,
      "rassasi": 2993,
      "Leur": 2994,
      "fen": 2995,
      "rang": 2996,
      "savons": 2997,
      "dépou": 2998,
      "dévas": 2999,
      "renvoy": 3000,
      "puisque": 3001,
      "ext": 3002,
      "autant": 3003,
      "soumis": 3004,
      "désire": 3005,
      "seule": 3006,
      "affer": 3007,
      "offrira": 3008,
      "navi": 3009,
      "Satan": 3010,
      "Prends": 3011,
      "Tsa": 3012,
      "fût": 3013,
      "yez": 3014,
      "Églis": 3015,
      "él": 3016,
      "nement": 3017,
      "action": 3018,
      "Chaque": 3019,
      "saison": 3020,
      "louange": 3021,
      "rachet": 3022,
      "périr": 3023,
      "Schi": 3024,
      "lah": 3025,
      "libé": 3026,
      "abri": 3027,
      "rendit": 3028,
      "embras": 3029,
      "ouvent": 3030,
      "précieu": 3031,
      "colline": 3032,
      "prendras": 3033,
      "Combien": 3034,
      "autels": 3035,
      "vivra": 3036,
      "mangeront": 3037,
      "boit": 3038,
      "tables": 3039,
      "regards": 3040,
      "arrivèrent": 3041,
      "recevoir": 3042,
      "continuellement": 3043,
      "ologie": 3044,
      "craignez": 3045,
      "Rab": 3046,
      "Sau": 3047,
      "doc": 3048,
      "pun": 3049,
      "ramen": 3050,
      "abilité": 3051,
      "atoire": 3052,
      "couper": 3053,
      "discours": 3054,
      "ends": 3055,
      "Simé": 3056,
      "rendra": 3057,
      "milliers": 3058,
      "habitaient": 3059,
      "préhen": 3060,
      "Nephth": 3061,
      "campèrent": 3062,
      "meurtri": 3063,
      "sitôt": 3064,
      "talents": 3065,
      "Eli": 3066,
      "Haut": 3067,
      "Sin": 3068,
      "bo": 3069,
      "gis": 3070,
      "moy": 3071,
      "tus": 3072,
      "memb": 3073,
      "état": 3074,
      "tue": 3075,
      "amar": 3076,
      "ator": 3077,
      "parer": 3078,
      "Pourtant": 3079,
      "sauve": 3080,
      "tombera": 3081,
      "rester": 3082,
      "esprits": 3083,
      "approcher": 3084,
      "traite": 3085,
      "attenti": 3086,
      "Siméon": 3087,
      "jada": 3088,
      "ruisse": 3089,
      "quator": 3090,
      "territ": 3091,
      "tiers": 3092,
      "pourpre": 3093,
      "passa": 3094,
      "vignes": 3095,
      "versé": 3096,
      "démons": 3097,
      "provo": 3098,
      "nier": 3099,
      "toire": 3100,
      "prépar": 3101,
      "précep": 3102,
      "sauf": 3103,
      "tombés": 3104,
      "fleuves": 3105,
      "images": 3106,
      "command": 3107,
      "Haman": 3108,
      "appartient": 3109,
      "Nephthali": 3110,
      "Héro": 3111,
      "Ob": 3112,
      "Vos": 3113,
      "flé": 3114,
      "gré": 3115,
      "ib": 3116,
      "joy": 3117,
      "odeur": 3118,
      "uc": 3119,
      "tier": 3120,
      "sable": 3121,
      "enfer": 3122,
      "méde": 3123,
      "souvenir": 3124,
      "sortes": 3125,
      "Puissant": 3126,
      "fonde": 3127,
      "témoins": 3128,
      "aïm": 3129,
      "faibles": 3130,
      "observer": 3131,
      "apporte": 3132,
      "taureaux": 3133,
      "siècles": 3134,
      "compassion": 3135,
      "Ismaël": 3136,
      "12": 3137,
      "Jiz": 3138,
      "fl": 3139,
      "laient": 3140,
      "rui": 3141,
      "oins": 3142,
      "aurai": 3143,
      "chè": 3144,
      "tire": 3145,
      "signes": 3146,
      "magnifi": 3147,
      "guéris": 3148,
      "expli": 3149,
      "chameaux": 3150,
      "vécu": 3151,
      "ailles": 3152,
      "lèvent": 3153,
      "coupable": 3154,
      "lang": 3155,
      "frappe": 3156,
      "bleu": 3157,
      "trouva": 3158,
      "nombreuses": 3159,
      "voulu": 3160,
      "tromper": 3161,
      "dok": 3162,
      "cadav": 3163,
      "oiseau": 3164,
      "trompettes": 3165,
      "mâle": 3166,
      "poissons": 3167,
      "Louez": 3168,
      "Tsadok": 3169,
      "Bo": 3170,
      "cy": 3171,
      "eille": 3172,
      "rose": 3173,
      "épar": 3174,
      "élé": 3175,
      "aimés": 3176,
      "ceau": 3177,
      "pru": 3178,
      "réun": 3179,
      "dép": 3180,
      "prodi": 3181,
      "aca": 3182,
      "plutôt": 3183,
      "entrera": 3184,
      "souil": 3185,
      "conso": 3186,
      "saintes": 3187,
      "moqu": 3188,
      "témoin": 3189,
      "retourna": 3190,
      "établit": 3191,
      "transport": 3192,
      "forts": 3193,
      "branche": 3194,
      "huitième": 3195,
      "fourn": 3196,
      "éphod": 3197,
      "enterré": 3198,
      "lesquels": 3199,
      "Toi": 3200,
      "Uz": 3201,
      "Zi": 3202,
      "bons": 3203,
      "crois": 3204,
      "ète": 3205,
      "dedans": 3206,
      "enir": 3207,
      "race": 3208,
      "train": 3209,
      "sile": 3210,
      "rions": 3211,
      "gardes": 3212,
      "Joja": 3213,
      "épines": 3214,
      "sortirent": 3215,
      "chantres": 3216,
      "suiv": 3217,
      "envir": 3218,
      "ressuscit": 3219,
      "piège": 3220,
      "bouclier": 3221,
      "Azaria": 3222,
      "sèche": 3223,
      "humili": 3224,
      "esclave": 3225,
      "ruine": 3226,
      "Nathan": 3227,
      "Rach": 3228,
      "urent": 3229,
      "écar": 3230,
      "secou": 3231,
      "tume": 3232,
      "verront": 3233,
      "actes": 3234,
      "réser": 3235,
      "paraître": 3236,
      "navire": 3237,
      "Zabu": 3238,
      "territoire": 3239,
      "aja": 3240,
      "tien": 3241,
      "signifi": 3242,
      "aly": 3243,
      "mesur": 3244,
      "filet": 3245,
      "permis": 3246,
      "crié": 3247,
      "extermin": 3248,
      "deuxième": 3249,
      "illar": 3250,
      "berger": 3251,
      "délivrer": 3252,
      "naissance": 3253,
      "19": 3254,
      "Roboam": 3255,
      "Zé": 3256,
      "bil": 3257,
      "gag": 3258,
      "erne": 3259,
      "chois": 3260,
      "abel": 3261,
      "amin": 3262,
      "amment": 3263,
      "pati": 3264,
      "gran": 3265,
      "manque": 3266,
      "airement": 3267,
      "visions": 3268,
      "Cependant": 3269,
      "dome": 3270,
      "travaillé": 3271,
      "crucifi": 3272,
      "salaire": 3273,
      "extrémité": 3274,
      "concernant": 3275,
      "célébre": 3276,
      "Sodome": 3277,
      "Jehojada": 3278,
      "Donne": 3279,
      "souvent": 3280,
      "aiment": 3281,
      "lations": 3282,
      "entier": 3283,
      "esté": 3284,
      "lions": 3285,
      "vide": 3286,
      "récol": 3287,
      "direz": 3288,
      "Issa": 3289,
      "maj": 3290,
      "mier": 3291,
      "montrer": 3292,
      "rendrai": 3293,
      "sauront": 3294,
      "faisait": 3295,
      "plai": 3296,
      "aza": 3297,
      "maudit": 3298,
      "Guibe": 3299,
      "espèce": 3300,
      "irrité": 3301,
      "Rachel": 3302,
      "Zabulon": 3303,
      "Kir": 3304,
      "fe": 3305,
      "seur": 3306,
      "reel": 3307,
      "phy": 3308,
      "crie": 3309,
      "senti": 3310,
      "allons": 3311,
      "offrirez": 3312,
      "sixième": 3313,
      "empê": 3314,
      "affliction": 3315,
      "brûlera": 3316,
      "chandelier": 3317,
      "Ah": 3318,
      "élève": 3319,
      "eus": 3320,
      "sec": 3321,
      "secr": 3322,
      "secret": 3323,
      "esti": 3324,
      "verrez": 3325,
      "déon": 3326,
      "placé": 3327,
      "plaça": 3328,
      "position": 3329,
      "courage": 3330,
      "laisse": 3331,
      "droiture": 3332,
      "voulez": 3333,
      "interpr": 3334,
      "viendrai": 3335,
      "larmes": 3336,
      "demander": 3337,
      "mâles": 3338,
      "aveugle": 3339,
      "manifest": 3340,
      "pécheurs": 3341,
      "adultère": 3342,
      "Gédéon": 3343,
      "Cés": 3344,
      "Yah": 3345,
      "êle": 3346,
      "îtra": 3347,
      "deaux": 3348,
      "quin": 3349,
      "aurait": 3350,
      "compréhen": 3351,
      "victi": 3352,
      "dies": 3353,
      "proces": 3354,
      "veau": 3355,
      "ouvrage": 3356,
      "inte": 3357,
      "resta": 3358,
      "petite": 3359,
      "angois": 3360,
      "système": 3361,
      "César": 3362,
      "Gaba": 3363,
      "Nab": 3364,
      "flam": 3365,
      "gâte": 3366,
      "vaut": 3367,
      "Éth": 3368,
      "Écrit": 3369,
      "ili": 3370,
      "chu": 3371,
      "chance": 3372,
      "mise": 3373,
      "cherch": 3374,
      "excelle": 3375,
      "suc": 3376,
      "jeta": 3377,
      "arrière": 3378,
      "saurez": 3379,
      "ancien": 3380,
      "faible": 3381,
      "vase": 3382,
      "consumés": 3383,
      "mauvaises": 3384,
      "fidèles": 3385,
      "traité": 3386,
      "meilleur": 3387,
      "fixé": 3388,
      "manteau": 3389,
      "reçoit": 3390,
      "innocent": 3391,
      "complètement": 3392,
      "Jizreel": 3393,
      "Guibea": 3394,
      "Gent": 3395,
      "Jab": 3396,
      "blas": 3397,
      "hâte": 3398,
      "virent": 3399,
      "dirai": 3400,
      "verra": 3401,
      "conom": 3402,
      "coucha": 3403,
      "pécher": 3404,
      "saute": 3405,
      "beauté": 3406,
      "gnons": 3407,
      "louanges": 3408,
      "effray": 3409,
      "culture": 3410,
      "rassemblé": 3411,
      "étendue": 3412,
      "consacré": 3413,
      "parents": 3414,
      "miracles": 3415,
      "ceinture": 3416,
      "sûre": 3417,
      "Gabaon": 3418,
      "blasph": 3419,
      "14": 3420,
      "Neth": 3421,
      "Oh": 3422,
      "Pe": 3423,
      "Sou": 3424,
      "entour": 3425,
      "tenez": 3426,
      "étri": 3427,
      "instant": 3428,
      "souillé": 3429,
      "Judée": 3430,
      "merveille": 3431,
      "saume": 3432,
      "fumée": 3433,
      "langues": 3434,
      "connaissent": 3435,
      "entendit": 3436,
      "bergers": 3437,
      "tranqu": 3438,
      "Michée": 3439,
      "fardeau": 3440,
      "puissante": 3441,
      "cèdre": 3442,
      "limite": 3443,
      "Certainement": 3444,
      "silence": 3445,
      "Gentils": 3446,
      "18": 3447,
      "Gath": 3448,
      "Mont": 3449,
      "kis": 3450,
      "lavera": 3451,
      "sonne": 3452,
      "coucher": 3453,
      "cherchez": 3454,
      "formé": 3455,
      "preu": 3456,
      "gémis": 3457,
      "agi": 3458,
      "occas": 3459,
      "donnèrent": 3460,
      "gnera": 3461,
      "écrits": 3462,
      "cheval": 3463,
      "amener": 3464,
      "portera": 3465,
      "interdit": 3466,
      "meurt": 3467,
      "trésor": 3468,
      "épha": 3469,
      "désolation": 3470,
      "question": 3471,
      "regarda": 3472,
      "processus": 3473,
      "Ara": 3474,
      "Ret": 3475,
      "veur": 3476,
      "vend": 3477,
      "îtres": 3478,
      "esses": 3479,
      "ardent": 3480,
      "euse": 3481,
      "aume": 3482,
      "tir": 3483,
      "songe": 3484,
      "ordres": 3485,
      "anéant": 3486,
      "insensés": 3487,
      "Balak": 3488,
      "capitaine": 3489,
      "transgressions": 3490,
      "média": 3491,
      "vengeance": 3492,
      "Schime": 3493,
      "Asaph": 3494,
      "Hor": 3495,
      "Tel": 3496,
      "cli": 3497,
      "hem": 3498,
      "ip": 3499,
      "kija": 3500,
      "tait": 3501,
      "orphel": 3502,
      "terri": 3503,
      "appa": 3504,
      "Levez": 3505,
      "sauvés": 3506,
      "trouble": 3507,
      "droits": 3508,
      "Philip": 3509,
      "doig": 3510,
      "rassemblés": 3511,
      "sold": 3512,
      "promis": 3513,
      "croit": 3514,
      "capitaines": 3515,
      "Hérode": 3516,
      "prodiges": 3517,
      "Issacar": 3518,
      "Dès": 3519,
      "nul": 3520,
      "revenu": 3521,
      "refus": 3522,
      "aimer": 3523,
      "chants": 3524,
      "urrection": 3525,
      "parfait": 3526,
      "tint": 3527,
      "unique": 3528,
      "atsi": 3529,
      "diable": 3530,
      "profit": 3531,
      "Quelle": 3532,
      "perdu": 3533,
      "pie": 3534,
      "appli": 3535,
      "Sidon": 3536,
      "battu": 3537,
      "traver": 3538,
      "parties": 3539,
      "fati": 3540,
      "clin": 3541,
      "richesse": 3542,
      "jalous": 3543,
      "synagogue": 3544,
      "culpabilité": 3545,
      "compréhension": 3546,
      "Tsi": 3547,
      "eja": 3548,
      "économ": 3549,
      "alis": 3550,
      "récon": 3551,
      "révol": 3552,
      "convo": 3553,
      "soin": 3554,
      "chaï": 3555,
      "corrom": 3556,
      "malheureux": 3557,
      "comprendre": 3558,
      "portez": 3559,
      "Depuis": 3560,
      "résurrection": 3561,
      "Samson": 3562,
      "rup": 3563,
      "servantes": 3564,
      "couverture": 3565,
      "maladies": 3566,
      "lesquelles": 3567,
      "convoitis": 3568,
      "préceptes": 3569,
      "médiatement": 3570,
      "bri": 3571,
      "faute": 3572,
      "mas": 3573,
      "demi": 3574,
      "itude": 3575,
      "entrés": 3576,
      "chis": 3577,
      "teras": 3578,
      "lution": 3579,
      "pourtant": 3580,
      "passera": 3581,
      "figui": 3582,
      "coudée": 3583,
      "vendu": 3584,
      "ouvre": 3585,
      "impu": 3586,
      "sommeil": 3587,
      "livrés": 3588,
      "attend": 3589,
      "posséde": 3590,
      "festin": 3591,
      "obscurité": 3592,
      "planches": 3593,
      "parabole": 3594,
      "occasion": 3595,
      "Jac": 3596,
      "Psaume": 3597,
      "Évangile": 3598,
      "lets": 3599,
      "teau": 3600,
      "sible": 3601,
      "concu": 3602,
      "vement": 3603,
      "boucs": 3604,
      "arriver": 3605,
      "courut": 3606,
      "poteaux": 3607,
      "voulait": 3608,
      "amenés": 3609,
      "annoncé": 3610,
      "compagni": 3611,
      "déclaré": 3612,
      "chaînes": 3613,
      "rosée": 3614,
      "écras": 3615,
      "achevé": 3616,
      "Lot": 3617,
      "Mits": 3618,
      "tas": 3619,
      "taille": 3620,
      "Éph": 3621,
      "relâ": 3622,
      "usé": 3623,
      "surface": 3624,
      "vième": 3625,
      "déch": 3626,
      "découvri": 3627,
      "gros": 3628,
      "cria": 3629,
      "puissiez": 3630,
      "gardi": 3631,
      "chaleur": 3632,
      "corne": 3633,
      "jeter": 3634,
      "lèpre": 3635,
      "tels": 3636,
      "resté": 3637,
      "réso": 3638,
      "appelait": 3639,
      "bâton": 3640,
      "établis": 3641,
      "approcha": 3642,
      "Auc": 3643,
      "interro": 3644,
      "arrivée": 3645,
      "pouvaient": 3646,
      "favor": 3647,
      "neuvième": 3648,
      "suivirent": 3649,
      "dernier": 3650,
      "Beer": 3651,
      "étendit": 3652,
      "nécess": 3653,
      "jalousie": 3654,
      "Jacques": 3655,
      "Gar": 3656,
      "Ké": 3657,
      "Koré": 3658,
      "ane": 3659,
      "hér": 3660,
      "rhe": 3661,
      "sens": 3662,
      "âgé": 3663,
      "éte": 3664,
      "eunu": 3665,
      "sachant": 3666,
      "tront": 3667,
      "sert": 3668,
      "difi": 3669,
      "conser": 3670,
      "veilles": 3671,
      "doux": 3672,
      "brûler": 3673,
      "détourne": 3674,
      "Isaï": 3675,
      "marchent": 3676,
      "pensée": 3677,
      "bénis": 3678,
      "détruits": 3679,
      "siège": 3680,
      "dévore": 3681,
      "blanc": 3682,
      "rapidement": 3683,
      "flèches": 3684,
      "Hes": 3685,
      "Urie": 3686,
      "hur": 3687,
      "ige": 3688,
      "ize": 3689,
      "sœur": 3690,
      "zar": 3691,
      "ana": 3692,
      "aurais": 3693,
      "assez": 3694,
      "tech": 3695,
      "lié": 3696,
      "érus": 3697,
      "grain": 3698,
      "grêle": 3699,
      "sépar": 3700,
      "consci": 3701,
      "envoyer": 3702,
      "particu": 3703,
      "livrer": 3704,
      "assit": 3705,
      "éleva": 3706,
      "cœurs": 3707,
      "retourne": 3708,
      "Benaja": 3709,
      "ramènerai": 3710,
      "maladie": 3711,
      "consumé": 3712,
      "Schema": 3713,
      "Achazia": 3714,
      "impureté": 3715,
      "Jer": 3716,
      "kk": 3717,
      "vaise": 3718,
      "étions": 3719,
      "ilgal": 3720,
      "seins": 3721,
      "tré": 3722,
      "èrement": 3723,
      "liens": 3724,
      "moisi": 3725,
      "visages": 3726,
      "connaissez": 3727,
      "mauvaise": 3728,
      "devenus": 3729,
      "tranchant": 3730,
      "Hamath": 3731,
      "apparut": 3732,
      "concerne": 3733,
      "domination": 3734,
      "Kehath": 3735,
      "forteresse": 3736,
      "réprimande": 3737,
      "environnement": 3738,
      "apparence": 3739,
      "aî": 3740,
      "gla": 3741,
      "mè": 3742,
      "pure": 3743,
      "pât": 3744,
      "espa": 3745,
      "repas": 3746,
      "chet": 3747,
      "ands": 3748,
      "maï": 3749,
      "coeurs": 3750,
      "phe": 3751,
      "inst": 3752,
      "résis": 3753,
      "suivre": 3754,
      "affe": 3755,
      "raisins": 3756,
      "doivent": 3757,
      "étude": 3758,
      "conseils": 3759,
      "glorifié": 3760,
      "éloigne": 3761,
      "objets": 3762,
      "ouvriers": 3763,
      "Donnez": 3764,
      "officiers": 3765,
      "navires": 3766,
      "Sinaï": 3767,
      "membres": 3768,
      "atsia": 3769,
      "Avant": 3770,
      "Cont": 3771,
      "faus": 3772,
      "gée": 3773,
      "net": 3774,
      "nité": 3775,
      "velop": 3776,
      "ouest": 3777,
      "tirent": 3778,
      "lib": 3779,
      "liba": 3780,
      "dévou": 3781,
      "sédu": 3782,
      "fortes": 3783,
      "placer": 3784,
      "plante": 3785,
      "épouv": 3786,
      "vieillar": 3787,
      "sortie": 3788,
      "Abis": 3789,
      "grandeur": 3790,
      "portent": 3791,
      "nuages": 3792,
      "réjouissent": 3793,
      "Bethlé": 3794,
      "utilisé": 3795,
      "persécu": 3796,
      "quitté": 3797,
      "campa": 3798,
      "prennent": 3799,
      "Schéba": 3800,
      "genoux": 3801,
      "cramoisi": 3802,
      "conçu": 3803,
      "Silo": 3804,
      "patience": 3805,
      "Philippe": 3806,
      "pâtur": 3807,
      "Aser": 3808,
      "Cale": 3809,
      "bais": 3810,
      "dos": 3811,
      "gèrent": 3812,
      "stu": 3813,
      "ordonne": 3814,
      "pardonné": 3815,
      "tiré": 3816,
      "bonheur": 3817,
      "cacher": 3818,
      "façon": 3819,
      "demeu": 3820,
      "affaire": 3821,
      "prêt": 3822,
      "abandonne": 3823,
      "annoncer": 3824,
      "tremble": 3825,
      "dévor": 3826,
      "frappés": 3827,
      "rebelles": 3828,
      "précipit": 3829,
      "Église": 3830,
      "angoisse": 3831,
      "Éthio": 3832,
      "Caleb": 3833,
      "Ai": 3834,
      "Aï": 3835,
      "Adon": 3836,
      "Nach": 3837,
      "Pause": 3838,
      "Roy": 3839,
      "fil": 3840,
      "jath": 3841,
      "nait": 3842,
      "èle": 3843,
      "éli": 3844,
      "devez": 3845,
      "rejeté": 3846,
      "oma": 3847,
      "inclin": 3848,
      "satis": 3849,
      "abs": 3850,
      "amer": 3851,
      "pay": 3852,
      "maîtres": 3853,
      "accu": 3854,
      "fini": 3855,
      "instr": 3856,
      "ferons": 3857,
      "répondre": 3858,
      "Parle": 3859,
      "acheté": 3860,
      "large": 3861,
      "deurs": 3862,
      "châtiment": 3863,
      "atteint": 3864,
      "enseigner": 3865,
      "demanda": 3866,
      "Merari": 3867,
      "Néanmoins": 3868,
      "Te": 3869,
      "cera": 3870,
      "yant": 3871,
      "revenir": 3872,
      "celles": 3873,
      "prête": 3874,
      "touche": 3875,
      "atth": 3876,
      "dia": 3877,
      "pleins": 3878,
      "pire": 3879,
      "exh": 3880,
      "servitude": 3881,
      "soud": 3882,
      "quels": 3883,
      "tempête": 3884,
      "épous": 3885,
      "autrefois": 3886,
      "bath": 3887,
      "gardez": 3888,
      "offrit": 3889,
      "appelée": 3890,
      "Amatsia": 3891,
      "retourner": 3892,
      "bâtis": 3893,
      "levés": 3894,
      "appeler": 3895,
      "couvrit": 3896,
      "traditionnel": 3897,
      "lampes": 3898,
      "Hadad": 3899,
      "Jojakim": 3900,
      "Bethléhem": 3901,
      "Royaume": 3902,
      "Tar": 3903,
      "bal": 3904,
      "dîme": 3905,
      "fabri": 3906,
      "seurs": 3907,
      "rep": 3908,
      "relle": 3909,
      "envelop": 3910,
      "arro": 3911,
      "enterre": 3912,
      "teront": 3913,
      "partis": 3914,
      "compris": 3915,
      "lir": 3916,
      "pleu": 3917,
      "acé": 3918,
      "venait": 3919,
      "instruction": 3920,
      "Sihon": 3921,
      "habité": 3922,
      "Cela": 3923,
      "merci": 3924,
      "minist": 3925,
      "affaires": 3926,
      "retourné": 3927,
      "utilise": 3928,
      "Voilà": 3929,
      "Rama": 3930,
      "haïssent": 3931,
      "propriété": 3932,
      "extérieur": 3933,
      "Kirjath": 3934,
      "Hesbon": 3935,
      "Tim": 3936,
      "joint": 3937,
      "retent": 3938,
      "assur": 3939,
      "serons": 3940,
      "journée": 3941,
      "tonner": 3942,
      "obtenu": 3943,
      "courir": 3944,
      "livrerai": 3945,
      "offre": 3946,
      "saisi": 3947,
      "saisit": 3948,
      "Maître": 3949,
      "présents": 3950,
      "allées": 3951,
      "apportèrent": 3952,
      "lettres": 3953,
      "bâtir": 3954,
      "construire": 3955,
      "impurs": 3956,
      "Gued": 3957,
      "Séir": 3958,
      "enseigné": 3959,
      "étiez": 3960,
      "électri": 3961,
      "épaule": 3962,
      "Schemaeja": 3963,
      "11": 3964,
      "Di": 3965,
      "Seu": 3966,
      "ace": 3967,
      "cen": 3968,
      "cte": 3969,
      "cés": 3970,
      "cès": 3971,
      "cèrent": 3972,
      "dan": 3973,
      "gon": 3974,
      "paille": 3975,
      "rô": 3976,
      "savait": 3977,
      "to": 3978,
      "tte": 3979,
      "outra": 3980,
      "argile": 3981,
      "tiendra": 3982,
      "mices": 3983,
      "souille": 3984,
      "pement": 3985,
      "étrang": 3986,
      "prémices": 3987,
      "jugé": 3988,
      "fusion": 3989,
      "portant": 3990,
      "donneras": 3991,
      "mangeras": 3992,
      "rêve": 3993,
      "posséder": 3994,
      "subst": 3995,
      "craignent": 3996,
      "éclair": 3997,
      "différent": 3998,
      "soldats": 3999,
      "21": 4000,
      "Ga": 4001,
      "Saul": 4002,
      "fêtes": 4003,
      "suit": 4004,
      "éter": 4005,
      "lek": 4006,
      "regardé": 4007,
      "chante": 4008,
      "destin": 4009,
      "pourra": 4010,
      "sache": 4011,
      "abas": 4012,
      "ateurs": 4013,
      "aper": 4014,
      "procla": 4015,
      "distribu": 4016,
      "Quant": 4017,
      "poir": 4018,
      "ador": 4019,
      "parlent": 4020,
      "épo": 4021,
      "tourné": 4022,
      "laissa": 4023,
      "cache": 4024,
      "charité": 4025,
      "voud": 4026,
      "commença": 4027,
      "détruirai": 4028,
      "délivrera": 4029,
      "extrême": 4030,
      "descendants": 4031,
      "Ésaïe": 4032,
      "dévelop": 4033,
      "robe": 4034,
      "cellu": 4035,
      "fraî": 4036,
      "cadavres": 4037,
      "Schimeï": 4038,
      "figuier": 4039,
      "partout": 4040,
      "tiend": 4041,
      "étaire": 4042,
      "commet": 4043,
      "ligent": 4044,
      "toit": 4045,
      "perver": 4046,
      "vation": 4047,
      "prières": 4048,
      "précieux": 4049,
      "prépare": 4050,
      "travaux": 4051,
      "oppres": 4052,
      "trouvait": 4053,
      "posera": 4054,
      "créé": 4055,
      "produits": 4056,
      "malades": 4057,
      "descendent": 4058,
      "Schaph": 4059,
      "méprisé": 4060,
      "prosterna": 4061,
      "aveugles": 4062,
      "obéissance": 4063,
      "Kad": 4064,
      "Sans": 4065,
      "ati": 4066,
      "hont": 4067,
      "ières": 4068,
      "rête": 4069,
      "sants": 4070,
      "vée": 4071,
      "levez": 4072,
      "onction": 4073,
      "quis": 4074,
      "mez": 4075,
      "avert": 4076,
      "terres": 4077,
      "racin": 4078,
      "sacer": 4079,
      "elon": 4080,
      "tua": 4081,
      "mesures": 4082,
      "voleur": 4083,
      "dispar": 4084,
      "renom": 4085,
      "persu": 4086,
      "expl": 4087,
      "corrup": 4088,
      "gén": 4089,
      "feuilles": 4090,
      "importe": 4091,
      "cade": 4092,
      "préser": 4093,
      "livra": 4094,
      "truct": 4095,
      "ruines": 4096,
      "approche": 4097,
      "prophétise": 4098,
      "Écoute": 4099,
      "colonne": 4100,
      "attein": 4101,
      "Notre": 4102,
      "morceau": 4103,
      "dispersés": 4104,
      "parfums": 4105,
      "meurtrier": 4106,
      "Obed": 4107,
      "médecine": 4108,
      "tromperie": 4109,
      "chute": 4110,
      "sacerdo": 4111,
      "Ama": 4112,
      "Ana": 4113,
      "Ent": 4114,
      "Sois": 4115,
      "das": 4116,
      "fla": 4117,
      "gou": 4118,
      "gri": 4119,
      "kam": 4120,
      "nob": 4121,
      "pon": 4122,
      "pense": 4123,
      "tèrent": 4124,
      "ess": 4125,
      "espoir": 4126,
      "aider": 4127,
      "audit": 4128,
      "chasse": 4129,
      "dessous": 4130,
      "racine": 4131,
      "servent": 4132,
      "comporte": 4133,
      "voeu": 4134,
      "proté": 4135,
      "manqu": 4136,
      "loint": 4137,
      "marcha": 4138,
      "déser": 4139,
      "merveilles": 4140,
      "prié": 4141,
      "ock": 4142,
      "impos": 4143,
      "trouvaient": 4144,
      "restent": 4145,
      "Léa": 4146,
      "bec": 4147,
      "Assu": 4148,
      "illant": 4149,
      "Philistin": 4150,
      "détourner": 4151,
      "sabbats": 4152,
      "Guers": 4153,
      "harpe": 4154,
      "aimait": 4155,
      "grandi": 4156,
      "sûrement": 4157,
      "preuve": 4158,
      "ardente": 4159,
      "compagnie": 4160,
      "Mitspa": 4161,
      "conscience": 4162,
      "espace": 4163,
      "exhort": 4164,
      "Ath": 4165,
      "Hil": 4166,
      "Hur": 4167,
      "Més": 4168,
      "Pro": 4169,
      "Viens": 4170,
      "coins": 4171,
      "eût": 4172,
      "fuite": 4173,
      "ile": 4174,
      "mouve": 4175,
      "myst": 4176,
      "îmes": 4177,
      "lapi": 4178,
      "ents": 4179,
      "entou": 4180,
      "ordonna": 4181,
      "mel": 4182,
      "ing": 4183,
      "tiennent": 4184,
      "tuera": 4185,
      "attente": 4186,
      "dictions": 4187,
      "début": 4188,
      "conver": 4189,
      "confon": 4190,
      "acle": 4191,
      "croyez": 4192,
      "examin": 4193,
      "sure": 4194,
      "jette": 4195,
      "prier": 4196,
      "compté": 4197,
      "comprend": 4198,
      "minis": 4199,
      "trouvés": 4200,
      "donnerez": 4201,
      "allaient": 4202,
      "prospé": 4203,
      "approchèrent": 4204,
      "conseiller": 4205,
      "région": 4206,
      "pouvons": 4207,
      "voisin": 4208,
      "persécut": 4209,
      "accomplir": 4210,
      "frappera": 4211,
      "dévorera": 4212,
      "délivrés": 4213,
      "esclaves": 4214,
      "lèveront": 4215,
      "histoire": 4216,
      "Aucun": 4217,
      "Hilkija": 4218,
      "),": 4219,
      "Dites": 4220,
      "Kis": 4221,
      "cous": 4222,
      "cuis": 4223,
      "fre": 4224,
      "fri": 4225,
      "gnon": 4226,
      "iv": 4227,
      "plie": 4228,
      "rance": 4229,
      "tée": 4230,
      "ébran": 4231,
      "revint": 4232,
      "itu": 4233,
      "aupar": 4234,
      "chon": 4235,
      "antez": 4236,
      "passèrent": 4237,
      "abais": 4238,
      "dénom": 4239,
      "cesser": 4240,
      "devrais": 4241,
      "fran": 4242,
      "permet": 4243,
      "guer": 4244,
      "agis": 4245,
      "sainteté": 4246,
      "posa": 4247,
      "murmur": 4248,
      "matéri": 4249,
      "Juif": 4250,
      "mangez": 4251,
      "roues": 4252,
      "asseoir": 4253,
      "glor": 4254,
      "combattu": 4255,
      "entendent": 4256,
      "éternellement": 4257,
      "prati": 4258,
      "messager": 4259,
      "supplications": 4260,
      "oublié": 4261,
      "vierge": 4262,
      "lampe": 4263,
      "acheter": 4264,
      "enflamma": 4265,
      "éthiens": 4266,
      "majesté": 4267,
      "Contre": 4268,
      "Guedalia": 4269,
      "auparavant": 4270,
      "13": 4271,
      "22": 4272,
      "Caï": 4273,
      "Voyez": 4274,
      "flo": 4275,
      "gin": 4276,
      "hyp": 4277,
      "haz": 4278,
      "spir": 4279,
      "um": 4280,
      "za": 4281,
      "élèvera": 4282,
      "ézer": 4283,
      "îles": 4284,
      "rebelle": 4285,
      "euses": 4286,
      "aver": 4287,
      "siens": 4288,
      "sicle": 4289,
      "alo": 4290,
      "liber": 4291,
      "verras": 4292,
      "coule": 4293,
      "mangent": 4294,
      "accompa": 4295,
      "bine": 4296,
      "exau": 4297,
      "oyons": 4298,
      "cordieux": 4299,
      "console": 4300,
      "sauva": 4301,
      "sauvera": 4302,
      "ordin": 4303,
      "prendront": 4304,
      "fonction": 4305,
      "faisaient": 4306,
      "illage": 4307,
      "conduite": 4308,
      "musique": 4309,
      "miséricordieux": 4310,
      "tremblement": 4311,
      "ignor": 4312,
      "pièces": 4313,
      "pleura": 4314,
      "chasser": 4315,
      "recueil": 4316,
      "moyen": 4317,
      "dépend": 4318,
      "crucifié": 4319,
      "orphelin": 4320,
      "libations": 4321,
      "liberté": 4322,
      "Ac": 4323,
      "Ahi": 4324,
      "Hi": 4325,
      "cres": 4326,
      "mait": 4327,
      "naient": 4328,
      "nabas": 4329,
      "çons": 4330,
      "deviendra": 4331,
      "laver": 4332,
      "rivi": 4333,
      "réveille": 4334,
      "irons": 4335,
      "crime": 4336,
      "puissions": 4337,
      "exal": 4338,
      "parlerai": 4339,
      "consom": 4340,
      "habitait": 4341,
      "sentiers": 4342,
      "colom": 4343,
      "enceinte": 4344,
      "céles": 4345,
      "trouvèrent": 4346,
      "rassemblèrent": 4347,
      "entende": 4348,
      "obéi": 4349,
      "connue": 4350,
      "compagnons": 4351,
      "sanctifié": 4352,
      "division": 4353,
      "derniers": 4354,
      "Barnabas": 4355,
      "profan": 4356,
      "horreur": 4357,
      "grena": 4358,
      "dirigeants": 4359,
      "perpétuelle": 4360,
      "précieuses": 4361,
      "fondements": 4362,
      "flamme": 4363,
      "chancelle": 4364,
      "trébu": 4365,
      "sacerdoce": 4366,
      "Assuérus": 4367,
      "Aux": 4368,
      "Hom": 4369,
      "Ith": 4370,
      "Laisse": 4371,
      "maine": 4372,
      "nan": 4373,
      "équ": 4374,
      "égar": 4375,
      "îtront": 4376,
      "ôte": 4377,
      "assent": 4378,
      "abîme": 4379,
      "sures": 4380,
      "amè": 4381,
      "ressemb": 4382,
      "divers": 4383,
      "confes": 4384,
      "apprit": 4385,
      "dispu": 4386,
      "enfuit": 4387,
      "garçon": 4388,
      "brés": 4389,
      "plat": 4390,
      "Judas": 4391,
      "suff": 4392,
      "inté": 4393,
      "dési": 4394,
      "réponse": 4395,
      "immédiatement": 4396,
      "athar": 4397,
      "laisserai": 4398,
      "cale": 4399,
      "Parmi": 4400,
      "Ensuite": 4401,
      "modè": 4402,
      "devenir": 4403,
      "Abiathar": 4404,
      "culti": 4405,
      "Achit": 4406,
      "intelligent": 4407,
      "Jonas": 4408,
      "glorifie": 4409,
      "vraiment": 4410,
      "pèche": 4411,
      "élevés": 4412,
      "Personne": 4413,
      "révélé": 4414,
      "lèverai": 4415,
      "poisson": 4416,
      "changé": 4417,
      "demeures": 4418,
      "étonnés": 4419,
      "observerez": 4420,
      "doctrine": 4421,
      "sauterelles": 4422,
      "fatigu": 4423,
      "éternité": 4424,
      "Met": 4425,
      "Rou": 4426,
      "Tser": 4427,
      "taient": 4428,
      "œil": 4429,
      "essa": 4430,
      "arim": 4431,
      "entifi": 4432,
      "tile": 4433,
      "touché": 4434,
      "ciple": 4435,
      "parez": 4436,
      "Jephth": 4437,
      "dispersé": 4438,
      "disciple": 4439,
      "acti": 4440,
      "venant": 4441,
      "Carmel": 4442,
      "aussitôt": 4443,
      "uth": 4444,
      "Chantez": 4445,
      "double": 4446,
      "tombée": 4447,
      "restés": 4448,
      "fonctions": 4449,
      "enfanté": 4450,
      "réjouit": 4451,
      "aliment": 4452,
      "annonce": 4453,
      "violent": 4454,
      "prononcé": 4455,
      "orgueille": 4456,
      "Allons": 4457,
      "zias": 4458,
      "chèvres": 4459,
      "Écriture": 4460,
      "Amalek": 4461,
      "becca": 4462,
      "Edom": 4463,
      "Nos": 4464,
      "Ozias": 4465,
      "cau": 4466,
      "cendre": 4467,
      "fis": 4468,
      "froi": 4469,
      "éc": 4470,
      "reviendra": 4471,
      "inqui": 4472,
      "étonnement": 4473,
      "sie": 4474,
      "ligne": 4475,
      "décret": 4476,
      "propiti": 4477,
      "devons": 4478,
      "vite": 4479,
      "ouvelle": 4480,
      "positi": 4481,
      "habiteront": 4482,
      "troupes": 4483,
      "coupes": 4484,
      "Salu": 4485,
      "premières": 4486,
      "douleurs": 4487,
      "chanterai": 4488,
      "capable": 4489,
      "humb": 4490,
      "pot": 4491,
      "prêts": 4492,
      "brûla": 4493,
      "présenter": 4494,
      "établir": 4495,
      "souffert": 4496,
      "honore": 4497,
      "regardai": 4498,
      "rendus": 4499,
      "communi": 4500,
      "croix": 4501,
      "arrivés": 4502,
      "divisé": 4503,
      "apparu": 4504,
      "oublie": 4505,
      "rochers": 4506,
      "prenant": 4507,
      "caverne": 4508,
      "emmené": 4509,
      "scribe": 4510,
      "cèdres": 4511,
      "Donc": 4512,
      "Naam": 4513,
      "éprouv": 4514,
      "provinces": 4515,
      "boiteux": 4516,
      "substance": 4517,
      "Schaphan": 4518,
      "dénombrés": 4519,
      "Jephthé": 4520,
      "Gom": 4521,
      "Nun": 4522,
      "Pas": 4523,
      "dû": 4524,
      "gaz": 4525,
      "pê": 4526,
      "èse": 4527,
      "demp": 4528,
      "revenus": 4529,
      "aigle": 4530,
      "enlève": 4531,
      "analy": 4532,
      "entôt": 4533,
      "asper": 4534,
      "étation": 4535,
      "duquel": 4536,
      "tuèrent": 4537,
      "confus": 4538,
      "veillé": 4539,
      "mir": 4540,
      "gras": 4541,
      "mémoi": 4542,
      "séparé": 4543,
      "brè": 4544,
      "valeur": 4545,
      "thé": 4546,
      "agri": 4547,
      "rapp": 4548,
      "moth": 4549,
      "suivit": 4550,
      "afflig": 4551,
      "retournés": 4552,
      "Lévite": 4553,
      "englou": 4554,
      "retiré": 4555,
      "vêtu": 4556,
      "campé": 4557,
      "Hanania": 4558,
      "désolé": 4559,
      "volontairement": 4560,
      "joyeux": 4561,
      "époque": 4562,
      "Ex": 4563,
      "Gre": 4564,
      "Plus": 4565,
      "San": 4566,
      "Ze": 4567,
      "pop": 4568,
      "tap": 4569,
      "arm": 4570,
      "entrèrent": 4571,
      "omi": 4572,
      "semé": 4573,
      "sacs": 4574,
      "viers": 4575,
      "cesse": 4576,
      "grou": 4577,
      "acité": 4578,
      "appren": 4579,
      "ado": 4580,
      "forces": 4581,
      "comptés": 4582,
      "battit": 4583,
      "troub": 4584,
      "trouvera": 4585,
      "chargé": 4586,
      "oppression": 4587,
      "retournèrent": 4588,
      "levée": 4589,
      "remplie": 4590,
      "églis": 4591,
      "rouge": 4592,
      "empor": 4593,
      "méprise": 4594,
      "croient": 4595,
      "scientifi": 4596,
      "rassemblerai": 4597,
      "jeûne": 4598,
      "important": 4599,
      "chassés": 4600,
      "Sauveur": 4601,
      "signifie": 4602,
      "mesura": 4603,
      "Seulement": 4604,
      "aperç": 4605,
      "propitiatoire": 4606,
      "Ayant": 4607,
      "Beau": 4608,
      "Monte": 4609,
      "Matth": 4610,
      "bra": 4611,
      "dai": 4612,
      "fleurs": 4613,
      "noir": 4614,
      "pit": 4615,
      "pom": 4616,
      "pendu": 4617,
      "vallées": 4618,
      "we": 4619,
      "èvre": 4620,
      "devient": 4621,
      "onde": 4622,
      "lavé": 4623,
      "chap": 4624,
      "avenir": 4625,
      "pardonne": 4626,
      "osch": 4627,
      "respect": 4628,
      "découvert": 4629,
      "paître": 4630,
      "prolon": 4631,
      "propos": 4632,
      "dise": 4633,
      "act": 4634,
      "tation": 4635,
      "irré": 4636,
      "téri": 4637,
      "bientôt": 4638,
      "ouvrit": 4639,
      "possè": 4640,
      "parlez": 4641,
      "jetés": 4642,
      "sauvage": 4643,
      "rappe": 4644,
      "prophéti": 4645,
      "chimi": 4646,
      "chiens": 4647,
      "Encore": 4648,
      "saisis": 4649,
      "suivant": 4650,
      "Amnon": 4651,
      "gique": 4652,
      "Hébre": 4653,
      "entendis": 4654,
      "souffri": 4655,
      "retire": 4656,
      "compagnon": 4657,
      "pleuré": 4658,
      "dévoré": 4659,
      "Perse": 4660,
      "allum": 4661,
      "areth": 4662,
      "attention": 4663,
      "sinon": 4664,
      "systèmes": 4665,
      "conduisit": 4666,
      "roseau": 4667,
      "tranquille": 4668,
      "Go": 4669,
      "Ho": 4670,
      "Hus": 4671,
      "Im": 4672,
      "Maudit": 4673,
      "Peut": 4674,
      "To": 4675,
      "cantique": 4676,
      "gren": 4677,
      "gist": 4678,
      "hait": 4679,
      "maint": 4680,
      "pis": 4681,
      "spé": 4682,
      "espère": 4683,
      "den": 4684,
      "oral": 4685,
      "menez": 4686,
      "vive": 4687,
      "cien": 4688,
      "atten": 4689,
      "mati": 4690,
      "mation": 4691,
      "emb": 4692,
      "montés": 4693,
      "valu": 4694,
      "triom": 4695,
      "tribut": 4696,
      "habitera": 4697,
      "vents": 4698,
      "fonda": 4699,
      "Ash": 4700,
      "Jébu": 4701,
      "assié": 4702,
      "établirai": 4703,
      "rassembler": 4704,
      "marchands": 4705,
      "périssent": 4706,
      "paraît": 4707,
      "barque": 4708,
      "plantes": 4709,
      "Lib": 4710,
      "élevée": 4711,
      "déchiré": 4712,
      "accord": 4713,
      "éclat": 4714,
      "veillance": 4715,
      "quatorze": 4716,
      "fournaise": 4717,
      "choisis": 4718,
      "héros": 4719,
      "épouvante": 4720,
      "vieillards": 4721,
      "ministère": 4722,
      "extrêmement": 4723,
      "mouvement": 4724,
      "hypo": 4725,
      "Rouge": 4726,
      "tapis": 4727,
      "Beaucoup": 4728,
      "gistra": 4729,
      "Bonne": 4730,
      "Mé": 4731,
      "Macé": 4732,
      "Ra": 4733,
      "Sera": 4734,
      "bass": 4735,
      "ga": 4736,
      "nis": 4737,
      "ode": 4738,
      "pais": 4739,
      "uy": 4740,
      "évan": 4741,
      "ûte": 4742,
      "escha": 4743,
      "ette": 4744,
      "eue": 4745,
      "sements": 4746,
      "inées": 4747,
      "lure": 4748,
      "passait": 4749,
      "réus": 4750,
      "gea": 4751,
      "confusion": 4752,
      "fian": 4753,
      "prob": 4754,
      "endor": 4755,
      "crés": 4756,
      "entreront": 4757,
      "intérieure": 4758,
      "épais": 4759,
      "vieilles": 4760,
      "laissera": 4761,
      "chiez": 4762,
      "telles": 4763,
      "faisons": 4764,
      "témoigne": 4765,
      "écrites": 4766,
      "prêché": 4767,
      "louerai": 4768,
      "rue": 4769,
      "engend": 4770,
      "appelez": 4771,
      "honor": 4772,
      "détruira": 4773,
      "bâtie": 4774,
      "paraîtra": 4775,
      "circoncision": 4776,
      "planté": 4777,
      "descendus": 4778,
      "baptisé": 4779,
      "obscur": 4780,
      "tristes": 4781,
      "Boaz": 4782,
      "interprétation": 4783,
      "Adonija": 4784,
      "89": 4785,
      "Gr": 4786,
      "Naz": 4787,
      "gale": 4788,
      "jail": 4789,
      "mun": 4790,
      "sar": 4791,
      "vus": 4792,
      "écris": 4793,
      "ittit": 4794,
      "chait": 4795,
      "étés": 4796,
      "cile": 4797,
      "cipa": 4798,
      "colle": 4799,
      "grin": 4800,
      "acquis": 4801,
      "mélan": 4802,
      "maines": 4803,
      "bouil": 4804,
      "époux": 4805,
      "Esdras": 4806,
      "portaient": 4807,
      "royale": 4808,
      "brisés": 4809,
      "doine": 4810,
      "supporter": 4811,
      "devenue": 4812,
      "frontières": 4813,
      "régné": 4814,
      "descendirent": 4815,
      "Guilgal": 4816,
      "subs": 4817,
      "semblables": 4818,
      "affligé": 4819,
      "travailler": 4820,
      "mensonges": 4821,
      "bapt": 4822,
      "mettront": 4823,
      "pectoral": 4824,
      "chanan": 4825,
      "renversé": 4826,
      "informations": 4827,
      "questions": 4828,
      "jurer": 4829,
      "arracher": 4830,
      "province": 4831,
      "physique": 4832,
      "quinze": 4833,
      "doigt": 4834,
      "refusé": 4835,
      "eunuques": 4836,
      "39": 4837,
      "Ha": 4838,
      "Lu": 4839,
      "Zor": 4840,
      "cus": 4841,
      "cite": 4842,
      "hâ": 4843,
      "haine": 4844,
      "pleurs": 4845,
      "puni": 4846,
      "savaient": 4847,
      "tsa": 4848,
      "éni": 4849,
      "ému": 4850,
      "reux": 4851,
      "nements": 4852,
      "chang": 4853,
      "prouv": 4854,
      "ingé": 4855,
      "parlèrent": 4856,
      "tumul": 4857,
      "grés": 4858,
      "gure": 4859,
      "adore": 4860,
      "voyagé": 4861,
      "fermé": 4862,
      "Joth": 4863,
      "parlera": 4864,
      "compren": 4865,
      "tourne": 4866,
      "sortiront": 4867,
      "tombent": 4868,
      "vivante": 4869,
      "banni": 4870,
      "roule": 4871,
      "Rebecca": 4872,
      "apportera": 4873,
      "goût": 4874,
      "choisira": 4875,
      "veuves": 4876,
      "emmenés": 4877,
      "Ramoth": 4878,
      "contraire": 4879,
      "ruisseau": 4880,
      "récolte": 4881,
      "victime": 4882,
      "terrible": 4883,
      "amertume": 4884,
      "Tarsis": 4885,
      "Tseru": 4886,
      "Saluez": 4887,
      "Nazareth": 4888,
      "Ant": 4889,
      "Esa": 4890,
      "Nouvelle": 4891,
      "Pé": 4892,
      "Rem": 4893,
      "fau": 4894,
      "guis": 4895,
      "hin": 4896,
      "loy": 4897,
      "meu": 4898,
      "myr": 4899,
      "émer": 4900,
      "espi": 4901,
      "ret": 4902,
      "repous": 4903,
      "oniques": 4904,
      "neige": 4905,
      "artis": 4906,
      "invit": 4907,
      "injustice": 4908,
      "parts": 4909,
      "tie": 4910,
      "riers": 4911,
      "cia": 4912,
      "ament": 4913,
      "vole": 4914,
      "cessé": 4915,
      "médit": 4916,
      "lépre": 4917,
      "montait": 4918,
      "brille": 4919,
      "marches": 4920,
      "maria": 4921,
      "corbe": 4922,
      "Joa": 4923,
      "centaines": 4924,
      "troublé": 4925,
      "tombeau": 4926,
      "chien": 4927,
      "détruite": 4928,
      "assembla": 4929,
      "Mak": 4930,
      "prescrit": 4931,
      "gies": 4932,
      "échapp": 4933,
      "Abija": 4934,
      "apporta": 4935,
      "couverte": 4936,
      "Baescha": 4937,
      "marchandis": 4938,
      "regarder": 4939,
      "agréables": 4940,
      "veulent": 4941,
      "chemins": 4942,
      "délivrance": 4943,
      "enseignement": 4944,
      "Adam": 4945,
      "changement": 4946,
      "nierie": 4947,
      "langage": 4948,
      "consolation": 4949,
      "gâteaux": 4950,
      "résolu": 4951,
      "renommée": 4952,
      "ingénierie": 4953,
      ".\"": 4954,
      "40": 4955,
      "Dari": 4956,
      "Haza": 4957,
      "Mach": 4958,
      "Selon": 4959,
      "bun": 4960,
      "cab": 4961,
      "ceur": 4962,
      "cence": 4963,
      "loc": 4964,
      "mers": 4965,
      "tè": 4966,
      "élus": 4967,
      "reposer": 4968,
      "art": 4969,
      "chê": 4970,
      "ramp": 4971,
      "tienne": 4972,
      "luge": 4973,
      "rése": 4974,
      "gnez": 4975,
      "Quoi": 4976,
      "longue": 4977,
      "pec": 4978,
      "conspi": 4979,
      "Phinées": 4980,
      "couru": 4981,
      "gardent": 4982,
      "côte": 4983,
      "prendrai": 4984,
      "livrera": 4985,
      "plaines": 4986,
      "transfor": 4987,
      "boisson": 4988,
      "échou": 4989,
      "glai": 4990,
      "Reph": 4991,
      "utilisée": 4992,
      "construis": 4993,
      "Arnon": 4994,
      "divisions": 4995,
      "déclare": 4996,
      "châtierai": 4997,
      "dernière": 4998,
      "blancs": 4999,
      "sépulcres": 5000,
      "adversaire": 5001,
      "synagogues": 5002,
      "mémoire": 5003,
      "baptême": 5004,
      "Tseruja": 5005,
      "Darius": 5006,
      "Hazaël": 5007,
      "Mil": 5008,
      "Mis": 5009,
      "dar": 5010,
      "hy": 5011,
      "irez": 5012,
      "zèle": 5013,
      "ènes": 5014,
      "este": 5015,
      "quet": 5016,
      "enlever": 5017,
      "aroma": 5018,
      "ention": 5019,
      "avance": 5020,
      "parlant": 5021,
      "tirer": 5022,
      "vivent": 5023,
      "ressort": 5024,
      "diver": 5025,
      "fir": 5026,
      "perte": 5027,
      "crièrent": 5028,
      "montée": 5029,
      "soins": 5030,
      "marque": 5031,
      "ullam": 5032,
      "habile": 5033,
      "Chac": 5034,
      "vécut": 5035,
      "peaux": 5036,
      "Jochanan": 5037,
      "sances": 5038,
      "tourner": 5039,
      "court": 5040,
      "Abel": 5041,
      "mourront": 5042,
      "gnés": 5043,
      "prosp": 5044,
      "soli": 5045,
      "maudis": 5046,
      "égor": 5047,
      "mariage": 5048,
      "entendirent": 5049,
      "appartenait": 5050,
      "boucliers": 5051,
      "stock": 5052,
      "endroits": 5053,
      "guérir": 5054,
      "profané": 5055,
      "public": 5056,
      "abattu": 5057,
      "fenêtres": 5058,
      "prudent": 5059,
      "gardien": 5060,
      "arrog": 5061,
      "voudrais": 5062,
      "Kadès": 5063,
      "honteux": 5064,
      "orgueilleux": 5065,
      "analyse": 5066,
      "lépreux": 5067,
      "Bil": 5068,
      "Bel": 5069,
      "Cus": 5070,
      "Tour": 5071,
      "Tamar": 5072,
      "belles": 5073,
      "kron": 5074,
      "scel": 5075,
      "tam": 5076,
      "tiles": 5077,
      "évangile": 5078,
      "degrés": 5079,
      "aies": 5080,
      "enre": 5081,
      "ceaux": 5082,
      "aviez": 5083,
      "nelles": 5084,
      "commer": 5085,
      "attra": 5086,
      "déluge": 5087,
      "figure": 5088,
      "nage": 5089,
      "dist": 5090,
      "néant": 5091,
      "mangèrent": 5092,
      "méri": 5093,
      "niers": 5094,
      "emple": 5095,
      "embus": 5096,
      "pées": 5097,
      "poitrine": 5098,
      "adorer": 5099,
      "exhor": 5100,
      "obabel": 5101,
      "souviens": 5102,
      "prises": 5103,
      "places": 5104,
      "posèrent": 5105,
      "désig": 5106,
      "nolo": 5107,
      "pria": 5108,
      "tourment": 5109,
      "tourbil": 5110,
      "envoyèrent": 5111,
      "jugera": 5112,
      "célè": 5113,
      "douce": 5114,
      "sortent": 5115,
      "nuage": 5116,
      "Maas": 5117,
      "giques": 5118,
      "Jéz": 5119,
      "offriras": 5120,
      "solen": 5121,
      "viendras": 5122,
      "regardez": 5123,
      "aimez": 5124,
      "Mica": 5125,
      "défense": 5126,
      "ordonnance": 5127,
      "voisins": 5128,
      "purifié": 5129,
      "frapperai": 5130,
      "chaud": 5131,
      "érieures": 5132,
      "repentance": 5133,
      "considéré": 5134,
      "pleurer": 5135,
      "organismes": 5136,
      "craind": 5137,
      "souffrances": 5138,
      "quatorzième": 5139,
      "nécessaire": 5140,
      "technolo": 5141,
      "Timoth": 5142,
      "racines": 5143,
      "nobles": 5144,
      "Zorobabel": 5145,
      "Jotham": 5146,
      "Ali": 5147,
      "Cantique": 5148,
      "Pré": 5149,
      "Tso": 5150,
      "gère": 5151,
      "édifi": 5152,
      "repose": 5153,
      "oires": 5154,
      "entendra": 5155,
      "meau": 5156,
      "rable": 5157,
      "passés": 5158,
      "serais": 5159,
      "liés": 5160,
      "discer": 5161,
      "disparaître": 5162,
      "devrions": 5163,
      "ainte": 5164,
      "sécher": 5165,
      "séché": 5166,
      "insul": 5167,
      "Cher": 5168,
      "préparer": 5169,
      "tourna": 5170,
      "Nebath": 5171,
      "lances": 5172,
      "donnant": 5173,
      "portait": 5174,
      "principa": 5175,
      "écriture": 5176,
      "amena": 5177,
      "confir": 5178,
      "détourné": 5179,
      "entendez": 5180,
      "racheté": 5181,
      "périra": 5182,
      "prosterner": 5183,
      "trouverez": 5184,
      "couvrir": 5185,
      "indigent": 5186,
      "quantité": 5187,
      "échappé": 5188,
      "Naomi": 5189,
      "Abischaï": 5190,
      "assurance": 5191,
      "sauvages": 5192,
      "Gomor": 5193,
      "prophétie": 5194,
      "Jébusiens": 5195,
      "Macédoine": 5196,
      "Timothée": 5197,
      "At": 5198,
      "Cor": 5199,
      "Eu": 5200,
      "Nul": 5201,
      "ible": 5202,
      "jon": 5203,
      "joi": 5204,
      "mét": 5205,
      "mèrent": 5206,
      "nor": 5207,
      "pille": 5208,
      "sport": 5209,
      "sceau": 5210,
      "ya": 5211,
      "enses": 5212,
      "ennes": 5213,
      "seize": 5214,
      "cependant": 5215,
      "desseins": 5216,
      "estima": 5217,
      "tremp": 5218,
      "ditions": 5219,
      "gez": 5220,
      "diffici": 5221,
      "cong": 5222,
      "figues": 5223,
      "projet": 5224,
      "profond": 5225,
      "distin": 5226,
      "devaient": 5227,
      "contrée": 5228,
      "mission": 5229,
      "gerai": 5230,
      "obtenir": 5231,
      "portiers": 5232,
      "visit": 5233,
      "répondra": 5234,
      "chargés": 5235,
      "serviront": 5236,
      "Amas": 5237,
      "Maaca": 5238,
      "domine": 5239,
      "louer": 5240,
      "purs": 5241,
      "ouverts": 5242,
      "voulut": 5243,
      "bandes": 5244,
      "brise": 5245,
      "levant": 5246,
      "tromp": 5247,
      "seigneurs": 5248,
      "confie": 5249,
      "muet": 5250,
      "marchait": 5251,
      "prostitution": 5252,
      "prophétisent": 5253,
      "pluies": 5254,
      "persév": 5255,
      "Mesch": 5256,
      "ouvrir": 5257,
      "chauff": 5258,
      "sinc": 5259,
      "revêtu": 5260,
      "importante": 5261,
      "délices": 5262,
      "limites": 5263,
      "enfuirent": 5264,
      "éprouver": 5265,
      "endurci": 5266,
      "craindre": 5267,
      "rencontré": 5268,
      "ruisseaux": 5269,
      "Nabal": 5270,
      "impudi": 5271,
      "mystère": 5272,
      "recueilli": 5273,
      "Hiram": 5274,
      "modèle": 5275,
      "Hébreux": 5276,
      "15": 5277,
      "Ru": 5278,
      "Ts": 5279,
      "bel": 5280,
      "crée": 5281,
      "féro": 5282,
      "ka": 5283,
      "math": 5284,
      "rin": 5285,
      "çant": 5286,
      "çait": 5287,
      "remis": 5288,
      "redou": 5289,
      "onze": 5290,
      "iné": 5291,
      "incré": 5292,
      "servis": 5293,
      "livres": 5294,
      "touchera": 5295,
      "divin": 5296,
      "vert": 5297,
      "démon": 5298,
      "érance": 5299,
      "veaux": 5300,
      "miers": 5301,
      "jetèrent": 5302,
      "vieil": 5303,
      "préfé": 5304,
      "battre": 5305,
      "course": 5306,
      "douzième": 5307,
      "chanteurs": 5308,
      "capacité": 5309,
      "avantage": 5310,
      "Aujourd": 5311,
      "réjouissez": 5312,
      "captif": 5313,
      "couverts": 5314,
      "observé": 5315,
      "abondamment": 5316,
      "siècle": 5317,
      "écrivit": 5318,
      "terminé": 5319,
      "Aussitôt": 5320,
      "Anath": 5321,
      "vierges": 5322,
      "retranché": 5323,
      "profondeurs": 5324,
      "graph": 5325,
      "olivier": 5326,
      "forteresses": 5327,
      "enseignant": 5328,
      "nécessit": 5329,
      "craignaient": 5330,
      "élites": 5331,
      "racheter": 5332,
      "rachetés": 5333,
      "libéra": 5334,
      "secrétaire": 5335,
      "blasphé": 5336,
      "Montez": 5337,
      "concubine": 5338,
      "favorable": 5339,
      "Garde": 5340,
      "comportement": 5341,
      "flots": 5342,
      "matière": 5343,
      "Joachaz": 5344,
      "glaive": 5345,
      "tourbillon": 5346,
      "Jézabel": 5347,
      "Gomorrhe": 5348,
      "congrég": 5349,
      "Gaza": 5350,
      "Hittit": 5351,
      "Ken": 5352,
      "Nia": 5353,
      "Og": 5354,
      "Sis": 5355,
      "Souve": 5356,
      "Terre": 5357,
      "cites": 5358,
      "cture": 5359,
      "gain": 5360,
      "ide": 5361,
      "ko": 5362,
      "mène": 5363,
      "meurent": 5364,
      "pani": 5365,
      "stéri": 5366,
      "ttes": 5367,
      "tend": 5368,
      "Ét": 5369,
      "Élam": 5370,
      "labou": 5371,
      "ome": 5372,
      "omni": 5373,
      "mey": 5374,
      "infir": 5375,
      "passent": 5376,
      "servez": 5377,
      "comple": 5378,
      "régnera": 5379,
      "rédemp": 5380,
      "débor": 5381,
      "mage": 5382,
      "plen": 5383,
      "grité": 5384,
      "tage": 5385,
      "apprendre": 5386,
      "chers": 5387,
      "adan": 5388,
      "idole": 5389,
      "daï": 5390,
      "intention": 5391,
      "tribun": 5392,
      "douceur": 5393,
      "vivait": 5394,
      "retournera": 5395,
      "briserai": 5396,
      "conduits": 5397,
      "produis": 5398,
      "produire": 5399,
      "délivrerai": 5400,
      "bénir": 5401,
      "sanctifie": 5402,
      "purification": 5403,
      "posséd": 5404,
      "fécond": 5405,
      "chérubin": 5406,
      "Elk": 5407,
      "recevra": 5408,
      "dévasté": 5409,
      "Naboth": 5410,
      "Jabès": 5411,
      "étribu": 5412,
      "maïs": 5413,
      "libation": 5414,
      "Éthiopie": 5415,
      "ressemblance": 5416,
      "intégrité": 5417,
      "tristesse": 5418,
      "difficile": 5419,
      "Niamey": 5420,
      "Souvenez": 5421,
      "stérile": 5422,
      "Amalé": 5423,
      "Akis": 5424,
      "Asie": 5425,
      "Roi": 5426,
      "ade": 5427,
      "clé": 5428,
      "hais": 5429,
      "ient": 5430,
      "ption": 5431,
      "plier": 5432,
      "pillage": 5433,
      "rétribu": 5434,
      "soyons": 5435,
      "vérit": 5436,
      "reu": 5437,
      "reconnu": 5438,
      "ones": 5439,
      "enri": 5440,
      "chad": 5441,
      "chron": 5442,
      "melle": 5443,
      "terme": 5444,
      "rac": 5445,
      "étrie": 5446,
      "rideau": 5447,
      "alon": 5448,
      "compos": 5449,
      "mention": 5450,
      "attris": 5451,
      "chevre": 5452,
      "donnes": 5453,
      "filets": 5454,
      "protè": 5455,
      "grave": 5456,
      "tache": 5457,
      "pervers": 5458,
      "Lakis": 5459,
      "piété": 5460,
      "montera": 5461,
      "exp": 5462,
      "marchez": 5463,
      "prédi": 5464,
      "sauce": 5465,
      "minu": 5466,
      "coups": 5467,
      "coupables": 5468,
      "immon": 5469,
      "connus": 5470,
      "côtes": 5471,
      "donnent": 5472,
      "mourras": 5473,
      "hud": 5474,
      "potier": 5475,
      "domaine": 5476,
      "réjouir": 5477,
      "réjouira": 5478,
      "généalo": 5479,
      "assise": 5480,
      "périront": 5481,
      "barbe": 5482,
      "retira": 5483,
      "Élias": 5484,
      "prophétisé": 5485,
      "enterra": 5486,
      "calomni": 5487,
      "chaîne": 5488,
      "gouverneurs": 5489,
      "sûr": 5490,
      "éclaire": 5491,
      "piliers": 5492,
      "pollu": 5493,
      "précieuse": 5494,
      "souillée": 5495,
      "célébrer": 5496,
      "convoitise": 5497,
      "pâturage": 5498,
      "affligés": 5499,
      "armure": 5500,
      "Makir": 5501,
      "Chacun": 5502,
      "estimation": 5503,
      "congrégation": 5504,
      "20": 5505,
      "?\"": 5506,
      "Cyr": 5507,
      "Mag": 5508,
      "Telle": 5509,
      "Tandis": 5510,
      "gnée": 5511,
      "oti": 5512,
      "opé": 5513,
      "vaines": 5514,
      "âtre": 5515,
      "reconnais": 5516,
      "entrez": 5517,
      "omb": 5518,
      "querelles": 5519,
      "innom": 5520,
      "due": 5521,
      "tron": 5522,
      "triste": 5523,
      "osh": 5524,
      "toucher": 5525,
      "restez": 5526,
      "coutume": 5527,
      "magi": 5528,
      "magas": 5529,
      "magistra": 5530,
      "mine": 5531,
      "renvers": 5532,
      "accro": 5533,
      "tax": 5534,
      "venaient": 5535,
      "désobéissance": 5536,
      "compter": 5537,
      "vues": 5538,
      "fumier": 5539,
      "Chroniques": 5540,
      "prendrez": 5541,
      "tombèrent": 5542,
      "écouta": 5543,
      "jugez": 5544,
      "présente": 5545,
      "rug": 5546,
      "hiver": 5547,
      "employ": 5548,
      "nourris": 5549,
      "porteront": 5550,
      "cteurs": 5551,
      "morte": 5552,
      "crurent": 5553,
      "rachat": 5554,
      "éloigner": 5555,
      "écrire": 5556,
      "meilleurs": 5557,
      "Baruc": 5558,
      "indignation": 5559,
      "pensez": 5560,
      "profes": 5561,
      "accusa": 5562,
      "baptisés": 5563,
      "poursuiv": 5564,
      "Achija": 5565,
      "exécuté": 5566,
      "savent": 5567,
      "épices": 5568,
      "taillée": 5569,
      "fenêtre": 5570,
      "élite": 5571,
      "explication": 5572,
      "Souviens": 5573,
      "économie": 5574,
      "fondation": 5575,
      "embuscade": 5576,
      "Euphra": 5577,
      "Cyrus": 5578,
      "30": 5579,
      "Lui": 5580,
      "Loin": 5581,
      "Ser": 5582,
      "dil": 5583,
      "fac": 5584,
      "gor": 5585,
      "laine": 5586,
      "mér": 5587,
      "tures": 5588,
      "red": 5589,
      "envie": 5590,
      "aison": 5591,
      "ieuse": 5592,
      "commettre": 5593,
      "apprirent": 5594,
      "paternel": 5595,
      "patient": 5596,
      "accorde": 5597,
      "guérit": 5598,
      "répu": 5599,
      "marchant": 5600,
      "boue": 5601,
      "Joël": 5602,
      "construction": 5603,
      "olés": 5604,
      "buv": 5605,
      "imri": 5606,
      "gardera": 5607,
      "cule": 5608,
      "charbons": 5609,
      "joue": 5610,
      "seuil": 5611,
      "restait": 5612,
      "clas": 5613,
      "entendue": 5614,
      "nuits": 5615,
      "certaine": 5616,
      "remplit": 5617,
      "hier": 5618,
      "conduire": 5619,
      "supplie": 5620,
      "marchera": 5621,
      "bénira": 5622,
      "puissantes": 5623,
      "pièce": 5624,
      "subsis": 5625,
      "travaillent": 5626,
      "calme": 5627,
      "répandit": 5628,
      "supplication": 5629,
      "entraî": 5630,
      "arrêta": 5631,
      "Réveille": 5632,
      "apôtre": 5633,
      "traditionnelle": 5634,
      "irriter": 5635,
      "souffrance": 5636,
      "perpétuité": 5637,
      "humilié": 5638,
      "Yahwe": 5639,
      "convoitises": 5640,
      "conseillers": 5641,
      "Caïn": 5642,
      "Ithamar": 5643,
      "Mettez": 5644,
      "froid": 5645,
      "église": 5646,
      "vieillesse": 5647,
      "tumulte": 5648,
      "marchandises": 5649,
      "Maasé": 5650,
      "nécessiteux": 5651,
      "Elkana": 5652,
      "Euphrate": 5653,
      "Yahweh": 5654,
      "!...": 5655,
      "Aro": 5656,
      "Bet": 5657,
      "Has": 5658,
      "Ner": 5659,
      "Rimmon": 5660,
      "Shi": 5661,
      "bande": 5662,
      "cend": 5663,
      "centre": 5664,
      "ddo": 5665,
      "fray": 5666,
      "ident": 5667,
      "kin": 5668,
      "scep": 5669,
      "tenant": 5670,
      "vesti": 5671,
      "éco": 5672,
      "out": 5673,
      "queue": 5674,
      "enu": 5675,
      "chets": 5676,
      "isation": 5677,
      "issage": 5678,
      "assujet": 5679,
      "sachiez": 5680,
      "vigner": 5681,
      "réfu": 5682,
      "dio": 5683,
      "diffi": 5684,
      "décis": 5685,
      "concep": 5686,
      "pher": 5687,
      "perfi": 5688,
      "planè": 5689,
      "gées": 5690,
      "mali": 5691,
      "intér": 5692,
      "habitant": 5693,
      "priez": 5694,
      "courag": 5695,
      "impies": 5696,
      "edan": 5697,
      "joué": 5698,
      "écoutent": 5699,
      "gions": 5700,
      "alent": 5701,
      "pousse": 5702,
      "cteur": 5703,
      "igence": 5704,
      "traiter": 5705,
      "pensé": 5706,
      "promp": 5707,
      "expiatoire": 5708,
      "prostitutions": 5709,
      "prisonniers": 5710,
      "éloigné": 5711,
      "prenne": 5712,
      "harpes": 5713,
      "répandrai": 5714,
      "enverra": 5715,
      "Réjou": 5716,
      "naturel": 5717,
      "oliviers": 5718,
      "pécheur": 5719,
      "occup": 5720,
      "chèvre": 5721,
      "acacia": 5722,
      "bilé": 5723,
      "plaies": 5724,
      "victimes": 5725,
      "excellent": 5726,
      "Nethania": 5727,
      "particulier": 5728,
      "résister": 5729,
      "esseux": 5730,
      "souffrir": 5731,
      "évanou": 5732,
      "Meschullam": 5733,
      "Sisera": 5734,
      "attristé": 5735,
      "diligence": 5736,
      "Avez": 5737,
      "Bu": 5738,
      "Nah": 5739,
      "Nadab": 5740,
      "Ren": 5741,
      "Sem": 5742,
      "Suc": 5743,
      "bai": 5744,
      "bit": 5745,
      "buis": 5746,
      "gâ": 5747,
      "ké": 5748,
      "lour": 5749,
      "mai": 5750,
      "mment": 5751,
      "meure": 5752,
      "nar": 5753,
      "pâ": 5754,
      "tur": 5755,
      "tard": 5756,
      "élèvent": 5757,
      "lati": 5758,
      "oix": 5759,
      "ituel": 5760,
      "entrent": 5761,
      "aspect": 5762,
      "querelle": 5763,
      "parfaite": 5764,
      "paresseux": 5765,
      "tira": 5766,
      "pourraient": 5767,
      "trie": 5768,
      "riel": 5769,
      "alie": 5770,
      "vir": 5771,
      "amène": 5772,
      "régn": 5773,
      "voiture": 5774,
      "nigé": 5775,
      "observ": 5776,
      "maris": 5777,
      "quelles": 5778,
      "sortez": 5779,
      "possible": 5780,
      "mena": 5781,
      "conster": 5782,
      "habits": 5783,
      "partici": 5784,
      "jugés": 5785,
      "impie": 5786,
      "cace": 5787,
      "Puisque": 5788,
      "servira": 5789,
      "portée": 5790,
      "trouvent": 5791,
      "poil": 5792,
      "ouverte": 5793,
      "blessé": 5794,
      "approchera": 5795,
      "créa": 5796,
      "promesses": 5797,
      "Quelques": 5798,
      "disperserai": 5799,
      "augmente": 5800,
      "fortifié": 5801,
      "moutons": 5802,
      "ioche": 5803,
      "adultères": 5804,
      "tarde": 5805,
      "recueille": 5806,
      "ramené": 5807,
      "secrè": 5808,
      "déchir": 5809,
      "tonnerre": 5810,
      "spirituel": 5811,
      "rivière": 5812,
      "colombe": 5813,
      "Hommes": 5814,
      "Naaman": 5815,
      "irréproch": 5816,
      "Antioche": 5817,
      "prospérité": 5818,
      "commerce": 5819,
      ").": 5820,
      "16": 5821,
      "69": 5822,
      "Bara": 5823,
      "Her": 5824,
      "Japh": 5825,
      "Kar": 5826,
      "Té": 5827,
      "Vers": 5828,
      "cuit": 5829,
      "cuisse": 5830,
      "dré": 5831,
      "had": 5832,
      "ki": 5833,
      "périt": 5834,
      "pillé": 5835,
      "scor": 5836,
      "sculp": 5837,
      "utile": 5838,
      "Éla": 5839,
      "équi": 5840,
      "espé": 5841,
      "remerci": 5842,
      "onzième": 5843,
      "ours": 5844,
      "teigne": 5845,
      "rameaux": 5846,
      "étoi": 5847,
      "passage": 5848,
      "sid": 5849,
      "vivi": 5850,
      "vivres": 5851,
      "améli": 5852,
      "respon": 5853,
      "voilà": 5854,
      "coulent": 5855,
      "prover": 5856,
      "proches": 5857,
      "éroth": 5858,
      "coth": 5859,
      "pleines": 5860,
      "rentissage": 5861,
      "rendirent": 5862,
      "carbon": 5863,
      "nid": 5864,
      "perfe": 5865,
      "crite": 5866,
      "crimes": 5867,
      "pides": 5868,
      "puisqu": 5869,
      "apprentissage": 5870,
      "bio": 5871,
      "bile": 5872,
      "neras": 5873,
      "Selah": 5874,
      "istance": 5875,
      "vache": 5876,
      "quelconque": 5877,
      "intes": 5878,
      "précé": 5879,
      "erreur": 5880,
      "Sachez": 5881,
      "impli": 5882,
      "services": 5883,
      "Devant": 5884,
      "crites": 5885,
      "saisir": 5886,
      "beaux": 5887,
      "présenta": 5888,
      "creus": 5889,
      "certaines": 5890,
      "aliments": 5891,
      "dod": 5892,
      "rassembla": 5893,
      "attaché": 5894,
      "glorifier": 5895,
      "Schu": 5896,
      "prosternèrent": 5897,
      "herbes": 5898,
      "banlieues": 5899,
      "indivi": 5900,
      "fuient": 5901,
      "déchira": 5902,
      "invoqu": 5903,
      "accomplissement": 5904,
      "consulter": 5905,
      "rassasié": 5906,
      "moyens": 5907,
      "Retour": 5908,
      "corrompu": 5909,
      "pleurez": 5910,
      "développement": 5911,
      "disparu": 5912,
      "grenades": 5913,
      "fiancée": 5914,
      "bannière": 5915,
      "distance": 5916,
      "Amalécites": 5917,
      "exploi": 5918,
      "Maaséja": 5919,
      "sceptre": 5920,
      "Succoth": 5921,
      "24": 5922,
      "Amon": 5923,
      "He": 5924,
      "Hat": 5925,
      "Mieux": 5926,
      "Nini": 5927,
      "Suse": 5928,
      "Vois": 5929,
      "gage": 5930,
      "gène": 5931,
      "kia": 5932,
      "mri": 5933,
      "plé": 5934,
      "tendre": 5935,
      "rets": 5936,
      "revient": 5937,
      "reproche": 5938,
      "lac": 5939,
      "ardeur": 5940,
      "oit": 5941,
      "chaus": 5942,
      "issant": 5943,
      "cez": 5944,
      "quez": 5945,
      "injuste": 5946,
      "infidèles": 5947,
      "indépend": 5948,
      "rages": 5949,
      "pourrais": 5950,
      "poursuivirent": 5951,
      "sacre": 5952,
      "siff": 5953,
      "ciens": 5954,
      "rées": 5955,
      "geons": 5956,
      "dias": 5957,
      "voleurs": 5958,
      "néanmoins": 5959,
      "manne": 5960,
      "perç": 5961,
      "agir": 5962,
      "ailleurs": 5963,
      "couron": 5964,
      "immo": 5965,
      "moût": 5966,
      "Demande": 5967,
      "mourrez": 5968,
      "connaissait": 5969,
      "élever": 5970,
      "jambes": 5971,
      "posez": 5972,
      "crets": 5973,
      "blessure": 5974,
      "mangea": 5975,
      "engage": 5976,
      "création": 5977,
      "assied": 5978,
      "honn": 5979,
      "sanctifiés": 5980,
      "Éliph": 5981,
      "dragon": 5982,
      "pareille": 5983,
      "Égyptien": 5984,
      "atsar": 5985,
      "transgressé": 5986,
      "Apportez": 5987,
      "Hanan": 5988,
      "augmentation": 5989,
      "accordé": 5990,
      "cieuse": 5991,
      "demandèrent": 5992,
      "informatique": 5993,
      "Achikam": 5994,
      "reçoivent": 5995,
      "contrô": 5996,
      "justifié": 5997,
      "réserve": 5998,
      "merveilleuses": 5999,
      "traversé": 6000,
      "affection": 6001,
      "épouse": 6002,
      "Guerschon": 6003,
      "brèche": 6004,
      "Seraja": 6005,
      "subsiste": 6006,
      "retors": 6007,
      "vignerons": 6008,
      "étoile": 6009,
      "perfection": 6010,
      "68": 6011,
      "Aram": 6012,
      "Ber": 6013,
      "Hasch": 6014,
      "Omri": 6015,
      "Tse": 6016,
      "aci": 6017,
      "bous": 6018,
      "bines": 6019,
      "dron": 6020,
      "flu": 6021,
      "hôte": 6022,
      "ièmes": 6023,
      "ke": 6024,
      "nus": 6025,
      "pieux": 6026,
      "sème": 6027,
      "tort": 6028,
      "zab": 6029,
      "évo": 6030,
      "épées": 6031,
      "ôter": 6032,
      "remit": 6033,
      "arcs": 6034,
      "armés": 6035,
      "auraient": 6036,
      "avis": 6037,
      "pourras": 6038,
      "osité": 6039,
      "vic": 6040,
      "amants": 6041,
      "récu": 6042,
      "répara": 6043,
      "ressources": 6044,
      "fier": 6045,
      "disais": 6046,
      "devriez": 6047,
      "rendent": 6048,
      "mandes": 6049,
      "sépare": 6050,
      "exist": 6051,
      "oyant": 6052,
      "battus": 6053,
      "tours": 6054,
      "laissés": 6055,
      "particip": 6056,
      "impl": 6057,
      "suscit": 6058,
      "cachés": 6059,
      "Demain": 6060,
      "dixièmes": 6061,
      "nue": 6062,
      "vingts": 6063,
      "poseront": 6064,
      "brûlés": 6065,
      "ancienne": 6066,
      "présentèrent": 6067,
      "effroi": 6068,
      "témoignages": 6069,
      "rachè": 6070,
      "attaquer": 6071,
      "purent": 6072,
      "sanctifier": 6073,
      "Séba": 6074,
      "déclarera": 6075,
      "adressa": 6076,
      "palmiers": 6077,
      "fussent": 6078,
      "prononcer": 6079,
      "prononcée": 6080,
      "fuir": 6081,
      "appartiennent": 6082,
      "multiplierai": 6083,
      "montrerai": 6084,
      "attentif": 6085,
      "gâteau": 6086,
      "gémissements": 6087,
      "étrangères": 6088,
      "corruption": 6089,
      "humbles": 6090,
      "oscheth": 6091,
      "féroce": 6092,
      "chroniques": 6093,
      "carbone": 6094,
      "Lo": 6095,
      "Oho": 6096,
      "Pen": 6097,
      "Thé": 6098,
      "cassé": 6099,
      "fré": 6100,
      "gest": 6101,
      "mû": 6102,
      "ope": 6103,
      "ots": 6104,
      "épuis": 6105,
      "évé": 6106,
      "évalu": 6107,
      "ïla": 6108,
      "deviendront": 6109,
      "oncle": 6110,
      "enlèvera": 6111,
      "enlevés": 6112,
      "chons": 6113,
      "semaine": 6114,
      "quement": 6115,
      "meille": 6116,
      "terrest": 6117,
      "étuel": 6118,
      "sale": 6119,
      "sachez": 6120,
      "ries": 6121,
      "régu": 6122,
      "réveillé": 6123,
      "attire": 6124,
      "diminu": 6125,
      "verrai": 6126,
      "départ": 6127,
      "courent": 6128,
      "prote": 6129,
      "content": 6130,
      "caract": 6131,
      "froment": 6132,
      "sév": 6133,
      "souvenu": 6134,
      "the": 6135,
      "malfait": 6136,
      "habita": 6137,
      "épis": 6138,
      "fuy": 6139,
      "calam": 6140,
      "Esch": 6141,
      "descendra": 6142,
      "vivaient": 6143,
      "baal": 6144,
      "Mah": 6145,
      "pressoir": 6146,
      "creusé": 6147,
      "brisera": 6148,
      "foulé": 6149,
      "servaient": 6150,
      "Héviens": 6151,
      "demandez": 6152,
      "Mano": 6153,
      "citerne": 6154,
      "apportez": 6155,
      "gnirent": 6156,
      "goû": 6157,
      "Schallum": 6158,
      "tremblent": 6159,
      "fourni": 6160,
      "rompu": 6161,
      "refuse": 6162,
      "guide": 6163,
      "frappèrent": 6164,
      "pleinement": 6165,
      "déchire": 6166,
      "poursuivit": 6167,
      "perpétuel": 6168,
      "Keïla": 6169,
      "crochets": 6170,
      "exécuter": 6171,
      "rebel": 6172,
      "paraboles": 6173,
      "épaules": 6174,
      "échappera": 6175,
      "cymb": 6176,
      "cherchaient": 6177,
      "massacre": 6178,
      "campagne": 6179,
      "électricité": 6180,
      "atteindre": 6181,
      "matériaux": 6182,
      "glorieux": 6183,
      "Grecs": 6184,
      "groupe": 6185,
      "possède": 6186,
      "Tobi": 6187,
      "engendré": 6188,
      "Esaü": 6189,
      "aromates": 6190,
      "diverses": 6191,
      "tambour": 6192,
      "enregis": 6193,
      "persévérance": 6194,
      "Anathoth": 6195,
      "magistrats": 6196,
      "Ninive": 6197,
      "indépendance": 6198,
      "Ag": 6199,
      "Ada": 6200,
      "Cap": 6201,
      "ager": 6202,
      "bul": 6203,
      "gine": 6204,
      "gram": 6205,
      "hau": 6206,
      "heurs": 6207,
      "idi": 6208,
      "iot": 6209,
      "join": 6210,
      "laire": 6211,
      "mus": 6212,
      "maux": 6213,
      "maient": 6214,
      "nitude": 6215,
      "pan": 6216,
      "pus": 6217,
      "ences": 6218,
      "aude": 6219,
      "avions": 6220,
      "tif": 6221,
      "poursuite": 6222,
      "duth": 6223,
      "passeront": 6224,
      "liez": 6225,
      "toucha": 6226,
      "confor": 6227,
      "profa": 6228,
      "program": 6229,
      "Jehi": 6230,
      "contest": 6231,
      "acte": 6232,
      "empara": 6233,
      "miséra": 6234,
      "appui": 6235,
      "cheront": 6236,
      "vaches": 6237,
      "vagues": 6238,
      "battirent": 6239,
      "céré": 6240,
      "asso": 6241,
      "restitu": 6242,
      "capables": 6243,
      "assemblez": 6244,
      "vingtième": 6245,
      "témoigné": 6246,
      "présentera": 6247,
      "briser": 6248,
      "brisée": 6249,
      "blessures": 6250,
      "offrirent": 6251,
      "itié": 6252,
      "Abig": 6253,
      "utilisation": 6254,
      "bénisse": 6255,
      "déclarer": 6256,
      "fardeaux": 6257,
      "pièges": 6258,
      "entends": 6259,
      "pleurant": 6260,
      "chauve": 6261,
      "férence": 6262,
      "emmena": 6263,
      "consacre": 6264,
      "mouton": 6265,
      "multiplié": 6266,
      "opprimé": 6267,
      "jugerai": 6268,
      "craignait": 6269,
      "commanda": 6270,
      "femelle": 6271,
      "quinzième": 6272,
      "Césarée": 6273,
      "consacrées": 6274,
      "Horon": 6275,
      "concubines": 6276,
      "aîné": 6277,
      "inclina": 6278,
      "reptiles": 6279,
      "examinera": 6280,
      "équité": 6281,
      "suffis": 6282,
      "essay": 6283,
      "rouleau": 6284,
      "myrrhe": 6285,
      "corbeille": 6286,
      "arrogance": 6287,
      "désigné": 6288,
      "Rubén": 6289,
      "narines": 6290,
      "plénitude": 6291,
      "\",": 6292,
      "17": 6293,
      "31": 6294,
      "Ayez": 6295,
      "Fr": 6296,
      "Hore": 6297,
      "Haz": 6298,
      "In": 6299,
      "Prête": 6300,
      "Ruth": 6301,
      "Tab": 6302,
      "ement": 6303,
      "fonte": 6304,
      "hob": 6305,
      "ppa": 6306,
      "pâte": 6307,
      "savais": 6308,
      "spect": 6309,
      "tan": 6310,
      "vô": 6311,
      "vari": 6312,
      "zare": 6313,
      "Éloi": 6314,
      "éré": 6315,
      "recher": 6316,
      "qualité": 6317,
      "changer": 6318,
      "issement": 6319,
      "cevoir": 6320,
      "orie": 6321,
      "ortez": 6322,
      "inc": 6323,
      "tible": 6324,
      "étendra": 6325,
      "serve": 6326,
      "riz": 6327,
      "vio": 6328,
      "amine": 6329,
      "div": 6330,
      "dérob": 6331,
      "fie": 6332,
      "monceau": 6333,
      "parera": 6334,
      "couchés": 6335,
      "coq": 6336,
      "dispositi": 6337,
      "méc": 6338,
      "Lazare": 6339,
      "criaient": 6340,
      "sées": 6341,
      "expri": 6342,
      "ouvrages": 6343,
      "oba": 6344,
      "portique": 6345,
      "oyer": 6346,
      "sacrifié": 6347,
      "malheurs": 6348,
      "super": 6349,
      "boucles": 6350,
      "Jok": 6351,
      "tenté": 6352,
      "coupés": 6353,
      "Abin": 6354,
      "cules": 6355,
      "charpent": 6356,
      "donneront": 6357,
      "trouvée": 6358,
      "trafi": 6359,
      "prescris": 6360,
      "loue": 6361,
      "brûlant": 6362,
      "génétique": 6363,
      "amenèrent": 6364,
      "angle": 6365,
      "musi": 6366,
      "Moabites": 6367,
      "Revenez": 6368,
      "souffre": 6369,
      "obéissez": 6370,
      "croire": 6371,
      "rencontrer": 6372,
      "situ": 6373,
      "chasserai": 6374,
      "supplié": 6375,
      "anneau": 6376,
      "célébr": 6377,
      "bénédictions": 6378,
      "naturelle": 6379,
      "jaloux": 6380,
      "compassions": 6381,
      "Délivre": 6382,
      "nourrir": 6383,
      "politi": 6384,
      "guérison": 6385,
      "réunis": 6386,
      "anciennes": 6387,
      "doigts": 6388,
      "réconc": 6389,
      "déchets": 6390,
      "découvrir": 6391,
      "pâturages": 6392,
      "demeura": 6393,
      "lointain": 6394,
      "confondus": 6395,
      "hazi": 6396,
      "céleste": 6397,
      "communication": 6398,
      "pêch": 6399,
      "scientifique": 6400,
      "sécheresse": 6401,
      "graphie": 6402,
      "véritable": 6403,
      "victoire": 6404,
      "récupé": 6405,
      "calamité": 6406,
      "cymbales": 6407,
      "41": 6408,
      "Amaria": 6409,
      "Deux": 6410,
      "For": 6411,
      "Mè": 6412,
      "Mel": 6413,
      "Scham": 6414,
      "ball": 6415,
      "cuire": 6416,
      "roc": 6417,
      "sc": 6418,
      "tâ": 6419,
      "vaine": 6420,
      "Éden": 6421,
      "île": 6422,
      "üm": 6423,
      "dement": 6424,
      "aigu": 6425,
      "auquel": 6426,
      "chir": 6427,
      "semaines": 6428,
      "secrets": 6429,
      "iner": 6430,
      "infidèle": 6431,
      "pardonner": 6432,
      "paraly": 6433,
      "tige": 6434,
      "unné": 6435,
      "unité": 6436,
      "sap": 6437,
      "trons": 6438,
      "tuez": 6439,
      "vigueur": 6440,
      "dignes": 6441,
      "couleur": 6442,
      "couleurs": 6443,
      "gneau": 6444,
      "matique": 6445,
      "Jeph": 6446,
      "Jearim": 6447,
      "Jeduth": 6448,
      "nég": 6449,
      "renon": 6450,
      "taï": 6451,
      "vengeur": 6452,
      "bijou": 6453,
      "adoré": 6454,
      "breu": 6455,
      "obab": 6456,
      "portions": 6457,
      "fermée": 6458,
      "Ceci": 6459,
      "const": 6460,
      "constitu": 6461,
      "minadab": 6462,
      "connut": 6463,
      "cachée": 6464,
      "assemblés": 6465,
      "hum": 6466,
      "Amram": 6467,
      "hauteurs": 6468,
      "prêcher": 6469,
      "murailles": 6470,
      "basse": 6471,
      "trompé": 6472,
      "approché": 6473,
      "connaî": 6474,
      "lot": 6475,
      "commence": 6476,
      "accomplie": 6477,
      "ernaüm": 6478,
      "détourna": 6479,
      "détournés": 6480,
      "cruche": 6481,
      "marchaient": 6482,
      "mettrez": 6483,
      "période": 6484,
      "regardant": 6485,
      "bénissez": 6486,
      "prisonnier": 6487,
      "accomplira": 6488,
      "couvrira": 6489,
      "camper": 6490,
      "égare": 6491,
      "dévorer": 6492,
      "blanche": 6493,
      "pauvreté": 6494,
      "augmenté": 6495,
      "information": 6496,
      "fermement": 6497,
      "profonde": 6498,
      "genre": 6499,
      "rejette": 6500,
      "croyaient": 6501,
      "raconta": 6502,
      "influ": 6503,
      "enseignait": 6504,
      "serpents": 6505,
      "Considé": 6506,
      "flèche": 6507,
      "exercer": 6508,
      "Églises": 6509,
      "Rabbi": 6510,
      "cadavre": 6511,
      "fournit": 6512,
      "anéantis": 6513,
      "convocation": 6514,
      "posséderont": 6515,
      "relâche": 6516,
      "séparation": 6517,
      "payer": 6518,
      "cellules": 6519,
      "grenou": 6520,
      "Libna": 6521,
      "hypocrites": 6522,
      "célèbre": 6523,
      "Cherchez": 6524,
      "Amasa": 6525,
      "protège": 6526,
      "magiciens": 6527,
      "vestibu": 6528,
      "intérêt": 6529,
      "Réjouissez": 6530,
      "secrètement": 6531,
      "Hermon": 6532,
      "zabad": 6533,
      "gestion": 6534,
      "Capernaüm": 6535,
      "Jehiel": 6536,
      "Rubénites": 6537,
      "Jephunné": 6538,
      "Jeduthun": 6539,
      "Afri": 6540,
      "Agneau": 6541,
      "Hets": 6542,
      "Jet": 6543,
      "Jis": 6544,
      "casse": 6545,
      "ec": 6546,
      "fur": 6547,
      "kla": 6548,
      "lai": 6549,
      "sourd": 6550,
      "test": 6551,
      "vœ": 6552,
      "vest": 6553,
      "ziens": 6554,
      "élu": 6555,
      "nter": 6556,
      "devoir": 6557,
      "demie": 6558,
      "retenu": 6559,
      "reviendrai": 6560,
      "quoti": 6561,
      "lath": 6562,
      "artifi": 6563,
      "arros": 6564,
      "choix": 6565,
      "ousse": 6566,
      "sex": 6567,
      "selle": 6568,
      "oracle": 6569,
      "desquels": 6570,
      "destruct": 6571,
      "ina": 6572,
      "inon": 6573,
      "pardonnez": 6574,
      "rafraî": 6575,
      "étang": 6576,
      "pourvu": 6577,
      "simple": 6578,
      "treize": 6579,
      "ribu": 6580,
      "abreu": 6581,
      "ama": 6582,
      "rébi": 6583,
      "régions": 6584,
      "déç": 6585,
      "coupa": 6586,
      "cessi": 6587,
      "disposé": 6588,
      "ensé": 6589,
      "grais": 6590,
      "rendez": 6591,
      "frais": 6592,
      "légu": 6593,
      "perd": 6594,
      "montrera": 6595,
      "exauc": 6596,
      "briller": 6597,
      "répande": 6598,
      "intè": 6599,
      "parleras": 6600,
      "agon": 6601,
      "meront": 6602,
      "menace": 6603,
      "lèves": 6604,
      "buvez": 6605,
      "impression": 6606,
      "jubilé": 6607,
      "Ense": 6608,
      "oppement": 6609,
      "restau": 6610,
      "nuées": 6611,
      "achoppement": 6612,
      "hériter": 6613,
      "héritier": 6614,
      "tructure": 6615,
      "nouveaux": 6616,
      "obéissent": 6617,
      "attache": 6618,
      "bénirai": 6619,
      "ards": 6620,
      "Malgré": 6621,
      "oublier": 6622,
      "remplir": 6623,
      "transgression": 6624,
      "médicam": 6625,
      "Jusques": 6626,
      "social": 6627,
      "société": 6628,
      "sociale": 6629,
      "instructions": 6630,
      "torrents": 6631,
      "rapporta": 6632,
      "terreurs": 6633,
      "Saraï": 6634,
      "rassasiés": 6635,
      "affermi": 6636,
      "ramener": 6637,
      "fondement": 6638,
      "réservé": 6639,
      "gagner": 6640,
      "Écritures": 6641,
      "cherchait": 6642,
      "Tels": 6643,
      "favoris": 6644,
      "étein": 6645,
      "éteint": 6646,
      "techni": 6647,
      "Éthiopi": 6648,
      "différentes": 6649,
      "tiendront": 6650,
      "ministres": 6651,
      "cuisine": 6652,
      "ivro": 6653,
      "fatigué": 6654,
      "théorie": 6655,
      "chêne": 6656,
      "Préparez": 6657,
      "impudicité": 6658,
      "promptement": 6659,
      "sidère": 6660,
      "Tobija": 6661,
      "associ": 6662,
      "Horeb": 6663,
      "Considérez": 6664,
      "vœux": 6665,
      "quotidi": 6666,
      ".)": 6667,
      "34": 6668,
      "44": 6669,
      "Agar": 6670,
      "Bani": 6671,
      "Heth": 6672,
      "Ki": 6673,
      "Men": 6674,
      "Sham": 6675,
      "Zimri": 6676,
      "dî": 6677,
      "ias": 6678,
      "ivre": 6679,
      "meurs": 6680,
      "nons": 6681,
      "ry": 6682,
      "she": 6683,
      "usement": 6684,
      "xès": 6685,
      "éach": 6686,
      "ër": 6687,
      "rem": 6688,
      "relig": 6689,
      "revenez": 6690,
      "relati": 6691,
      "ernes": 6692,
      "erxès": 6693,
      "quée": 6694,
      "illons": 6695,
      "aur": 6696,
      "prouver": 6697,
      "inrent": 6698,
      "tim": 6699,
      "luth": 6700,
      "rideaux": 6701,
      "als": 6702,
      "commettent": 6703,
      "cie": 6704,
      "respi": 6705,
      "mesch": 6706,
      "dirons": 6707,
      "voeux": 6708,
      "dédi": 6709,
      "moin": 6710,
      "apais": 6711,
      "veillant": 6712,
      "phib": 6713,
      "garant": 6714,
      "garnis": 6715,
      "excit": 6716,
      "voyag": 6717,
      "chéri": 6718,
      "chagrin": 6719,
      "soupir": 6720,
      "posés": 6721,
      "intendant": 6722,
      "boute": 6723,
      "vise": 6724,
      "visite": 6725,
      "jetez": 6726,
      "merai": 6727,
      "centen": 6728,
      "colo": 6729,
      "laissèrent": 6730,
      "Abed": 6731,
      "Parlez": 6732,
      "céens": 6733,
      "doulou": 6734,
      "modifi": 6735,
      "sortant": 6736,
      "sortait": 6737,
      "restes": 6738,
      "fondé": 6739,
      "offense": 6740,
      "traditions": 6741,
      "assemblèrent": 6742,
      "assemblées": 6743,
      "chacune": 6744,
      "pots": 6745,
      "affam": 6746,
      "loué": 6747,
      "seuls": 6748,
      "approchent": 6749,
      "poussé": 6750,
      "effac": 6751,
      "demeurer": 6752,
      "ernation": 6753,
      "mariée": 6754,
      "Rehob": 6755,
      "production": 6756,
      "observent": 6757,
      "otal": 6758,
      "règle": 6759,
      "Artax": 6760,
      "Éliab": 6761,
      "marchepied": 6762,
      "continue": 6763,
      "purifier": 6764,
      "appellera": 6765,
      "attus": 6766,
      "attendu": 6767,
      "univers": 6768,
      "palmier": 6769,
      "Ammonites": 6770,
      "quitta": 6771,
      "entendront": 6772,
      "ouvrier": 6773,
      "élevèrent": 6774,
      "Mephib": 6775,
      "invoqué": 6776,
      "renverse": 6777,
      "poursuivre": 6778,
      "condamné": 6779,
      "arraché": 6780,
      "Certains": 6781,
      "Guéba": 6782,
      "reurs": 6783,
      "librement": 6784,
      "officier": 6785,
      "Haran": 6786,
      "dépouille": 6787,
      "renvoya": 6788,
      "Sauve": 6789,
      "magnifique": 6790,
      "Uzza": 6791,
      "Ziph": 6792,
      "effrayés": 6793,
      "Tsiba": 6794,
      "Éphèse": 6795,
      "aneel": 6796,
      "Jerub": 6797,
      "demeurez": 6798,
      "satisfait": 6799,
      "soudainement": 6800,
      "enterrer": 6801,
      "tonnerres": 6802,
      "éclairs": 6803,
      "persua": 6804,
      "flat": 6805,
      "Athalie": 6806,
      "entourent": 6807,
      "ministre": 6808,
      "dispute": 6809,
      "popu": 6810,
      "chimiques": 6811,
      "triomph": 6812,
      "Akisch": 6813,
      "chevreau": 6814,
      "Aroër": 6815,
      "planète": 6816,
      "malice": 6817,
      "alentour": 6818,
      "meilleure": 6819,
      "bijoux": 6820,
      "klag": 6821,
      "Artaxerxès": 6822,
      "Cons": 6823,
      "Gos": 6824,
      "Héthiens": 6825,
      "Oph": 6826,
      "Pet": 6827,
      "Priez": 6828,
      "Vi": 6829,
      "Veux": 6830,
      "ades": 6831,
      "cui": 6832,
      "cali": 6833,
      "effi": 6834,
      "fas": 6835,
      "mos": 6836,
      "pt": 6837,
      "sante": 6838,
      "tants": 6839,
      "xy": 6840,
      "xes": 6841,
      "Étant": 6842,
      "çais": 6843,
      "ôts": 6844,
      "nth": 6845,
      "reprit": 6846,
      "revinrent": 6847,
      "relations": 6848,
      "aile": 6849,
      "illon": 6850,
      "eusement": 6851,
      "urim": 6852,
      "parut": 6853,
      "pardonnés": 6854,
      "étou": 6855,
      "étour": 6856,
      "poursuit": 6857,
      "ducéens": 6858,
      "silen": 6859,
      "ressemble": 6860,
      "atom": 6861,
      "geait": 6862,
      "gement": 6863,
      "défi": 6864,
      "prochez": 6865,
      "contient": 6866,
      "contribu": 6867,
      "toires": 6868,
      "vitesse": 6869,
      "plut": 6870,
      "empru": 6871,
      "pén": 6872,
      "misère": 6873,
      "guerres": 6874,
      "existe": 6875,
      "forger": 6876,
      "forcé": 6877,
      "obe": 6878,
      "obst": 6879,
      "porche": 6880,
      "chameau": 6881,
      "correction": 6882,
      "placés": 6883,
      "malgré": 6884,
      "habiles": 6885,
      "menu": 6886,
      "habitèrent": 6887,
      "arrivent": 6888,
      "feuille": 6889,
      "moquer": 6890,
      "Jah": 6891,
      "porteurs": 6892,
      "facile": 6893,
      "résul": 6894,
      "Amminadab": 6895,
      "bala": 6896,
      "entendues": 6897,
      "prêté": 6898,
      "levai": 6899,
      "mangeaient": 6900,
      "besoins": 6901,
      "accomplit": 6902,
      "porteras": 6903,
      "cultures": 6904,
      "Héber": 6905,
      "Regardez": 6906,
      "honoré": 6907,
      "regarderez": 6908,
      "consume": 6909,
      "jura": 6910,
      "vêtus": 6911,
      "vaincu": 6912,
      "Nebuzar": 6913,
      "fondament": 6914,
      "chassera": 6915,
      "ologique": 6916,
      "consacrés": 6917,
      "humilité": 6918,
      "lèveras": 6919,
      "étendrai": 6920,
      "ravagé": 6921,
      "ophel": 6922,
      "planche": 6923,
      "Achimélec": 6924,
      "Thir": 6925,
      "102": 6926,
      "Silas": 6927,
      "Rabs": 6928,
      "punirai": 6929,
      "flûte": 6930,
      "languis": 6931,
      "gardiens": 6932,
      "séparés": 6933,
      "traditionnels": 6934,
      "oppresseurs": 6935,
      "génisse": 6936,
      "guerriers": 6937,
      "célestes": 6938,
      "aspersion": 6939,
      "troublés": 6940,
      "chapit": 6941,
      "exhorte": 6942,
      "mérite": 6943,
      "frayeur": 6944,
      "scorpi": 6945,
      "hautes": 6946,
      "grenouilles": 6947,
      "Hetsron": 6948,
      "aurore": 6949,
      "Eh": 6950,
      "Fest": 6951,
      "Hos": 6952,
      "akim": 6953,
      "bos": 6954,
      "bed": 6955,
      "cant": 6956,
      "drin": 6957,
      "foie": 6958,
      "izième": 6959,
      "ly": 6960,
      "masse": 6961,
      "structure": 6962,
      "vendre": 6963,
      "épreuve": 6964,
      "esch": 6965,
      "lapide": 6966,
      "enchante": 6967,
      "itaire": 6968,
      "chit": 6969,
      "ash": 6970,
      "ornements": 6971,
      "dessein": 6972,
      "involontairement": 6973,
      "parles": 6974,
      "pardon": 6975,
      "lumin": 6976,
      "passez": 6977,
      "passant": 6978,
      "comprenez": 6979,
      "lia": 6980,
      "tueux": 6981,
      "surtout": 6982,
      "surveillance": 6983,
      "réuni": 6984,
      "menteur": 6985,
      "volé": 6986,
      "déposé": 6987,
      "couchera": 6988,
      "matiques": 6989,
      "mim": 6990,
      "disons": 6991,
      "phot": 6992,
      "actu": 6993,
      "téra": 6994,
      "télé": 6995,
      "perdre": 6996,
      "crient": 6997,
      "erah": 6998,
      "rendant": 6999,
      "soufre": 7000,
      "quoique": 7001,
      "thi": 7002,
      "internation": 7003,
      "sanhé": 7004,
      "comptant": 7005,
      "Phéré": 7006,
      "atha": 7007,
      "jouer": 7008,
      "tombes": 7009,
      "offenses": 7010,
      "traî": 7011,
      "connaissons": 7012,
      "appelèrent": 7013,
      "iniens": 7014,
      "Astar": 7015,
      "ouvertes": 7016,
      "tifiez": 7017,
      "ruse": 7018,
      "rugis": 7019,
      "anique": 7020,
      "égorge": 7021,
      "échange": 7022,
      "traitement": 7023,
      "mule": 7024,
      "tabernacles": 7025,
      "imagin": 7026,
      "péris": 7027,
      "Jonadab": 7028,
      "recevez": 7029,
      "Baals": 7030,
      "éloignés": 7031,
      "vraie": 7032,
      "couvriras": 7033,
      "multiplier": 7034,
      "écria": 7035,
      "emmenèrent": 7036,
      "hébreu": 7037,
      "Appe": 7038,
      "fortifiées": 7039,
      "allumé": 7040,
      "jardins": 7041,
      "désirs": 7042,
      "accès": 7043,
      "Guézer": 7044,
      "Guéhazi": 7045,
      "communion": 7046,
      "faiblesse": 7047,
      "Uziel": 7048,
      "croissance": 7049,
      "écart": 7050,
      "choisit": 7051,
      "manifesté": 7052,
      "Gardez": 7053,
      "faussement": 7054,
      "Nachor": 7055,
      "Gadites": 7056,
      "fraîche": 7057,
      "Entre": 7058,
      "entoure": 7059,
      "diversité": 7060,
      "piscine": 7061,
      "bassins": 7062,
      "réussi": 7063,
      "projets": 7064,
      "Hittite": 7065,
      "rédemption": 7066,
      "paternelles": 7067,
      "créature": 7068,
      "Barak": 7069,
      "proverbe": 7070,
      "malfaiteurs": 7071,
      "Frères": 7072,
      "Afrique": 7073,
      "Festus": 7074,
      "sanhédrin": 7075,
      "Phéréziens": 7076,
      "Dont": 7077,
      "Dagon": 7078,
      "Fem": 7079,
      "Ko": 7080,
      "Néth": 7081,
      "Su": 7082,
      "Trois": 7083,
      "bir": 7084,
      "ctement": 7085,
      "coin": 7086,
      "canne": 7087,
      "danger": 7088,
      "fauc": 7089,
      "fassent": 7090,
      "glon": 7091,
      "giti": 7092,
      "hos": 7093,
      "ivres": 7094,
      "mand": 7095,
      "mante": 7096,
      "mite": 7097,
      "put": 7098,
      "tunique": 7099,
      "êts": 7100,
      "esh": 7101,
      "remb": 7102,
      "reviennent": 7103,
      "aimes": 7104,
      "nerez": 7105,
      "anie": 7106,
      "arrête": 7107,
      "auté": 7108,
      "entendant": 7109,
      "orce": 7110,
      "tive": 7111,
      "étroi": 7112,
      "seraient": 7113,
      "lien": 7114,
      "sonna": 7115,
      "abia": 7116,
      "touchant": 7117,
      "amie": 7118,
      "réparé": 7119,
      "respec": 7120,
      "chemise": 7121,
      "verser": 7122,
      "dément": 7123,
      "coutu": 7124,
      "mia": 7125,
      "reni": 7126,
      "enfon": 7127,
      "acles": 7128,
      "nomin": 7129,
      "nommée": 7130,
      "montent": 7131,
      "montez": 7132,
      "idol": 7133,
      "gerbes": 7134,
      "exil": 7135,
      "excep": 7136,
      "entreprises": 7137,
      "voyait": 7138,
      "souiller": 7139,
      "intro": 7140,
      "agité": 7141,
      "consent": 7142,
      "lèmes": 7143,
      "tentation": 7144,
      "habiterez": 7145,
      "saura": 7146,
      "imit": 7147,
      "imna": 7148,
      "donnait": 7149,
      "restée": 7150,
      "offrent": 7151,
      "royal": 7152,
      "hua": 7153,
      "suivent": 7154,
      "tisser": 7155,
      "baï": 7156,
      "plaire": 7157,
      "plomb": 7158,
      "bâtons": 7159,
      "brûlée": 7160,
      "ouverture": 7161,
      "établie": 7162,
      "aïl": 7163,
      "soeurs": 7164,
      "boivent": 7165,
      "trompeu": 7166,
      "poussent": 7167,
      "engag": 7168,
      "roue": 7169,
      "routes": 7170,
      "emporte": 7171,
      "allant": 7172,
      "supérieure": 7173,
      "Regarde": 7174,
      "ramè": 7175,
      "détournez": 7176,
      "établirent": 7177,
      "Bethlée": 7178,
      "obéir": 7179,
      "solitude": 7180,
      "descendez": 7181,
      "Miz": 7182,
      "Mical": 7183,
      "prostituées": 7184,
      "Béla": 7185,
      "prophétiser": 7186,
      "tremblant": 7187,
      "accomplies": 7188,
      "mâch": 7189,
      "descendait": 7190,
      "gouvernement": 7191,
      "neurs": 7192,
      "fixés": 7193,
      "Quelqu": 7194,
      "Approchez": 7195,
      "guérie": 7196,
      "Schémesch": 7197,
      "manifes": 7198,
      "accus": 7199,
      "considérez": 7200,
      "différence": 7201,
      "rangées": 7202,
      "cannes": 7203,
      "propriétés": 7204,
      "dormir": 7205,
      "taillées": 7206,
      "salue": 7207,
      "répandue": 7208,
      "meurtriers": 7209,
      "enfermé": 7210,
      "Zérach": 7211,
      "flammes": 7212,
      "succès": 7213,
      "eunuque": 7214,
      "Kehathites": 7215,
      "stupide": 7216,
      "pleuvoir": 7217,
      "oppresseur": 7218,
      "exauce": 7219,
      "Achitophel": 7220,
      "Gog": 7221,
      "spécifi": 7222,
      "problèmes": 7223,
      "énig": 7224,
      "prouvé": 7225,
      "réseaux": 7226,
      "Rephaïm": 7227,
      "technologie": 7228,
      "normes": 7229,
      "buisson": 7230,
      "contrôle": 7231,
      "caractéris": 7232,
      "scand": 7233,
      "Jerubbaal": 7234,
      "étouff": 7235,
      "Néthiniens": 7236,
      "introdu": 7237,
      "!\"": 7238,
      ",)": 7239,
      "38": 7240,
      "60": 7241,
      "?...": 7242,
      "Bath": 7243,
      "Hada": 7244,
      "Hinnom": 7245,
      "It": 7246,
      "Iddo": 7247,
      "Matt": 7248,
      "Suis": 7249,
      "Vou": 7250,
      "bol": 7251,
      "clo": 7252,
      "gs": 7253,
      "ibles": 7254,
      "lourd": 7255,
      "pav": 7256,
      "pétrie": 7257,
      "sen": 7258,
      "tendu": 7259,
      "édu": 7260,
      "élar": 7261,
      "ïr": 7262,
      "nthe": 7263,
      "lera": 7264,
      "reth": 7265,
      "représent": 7266,
      "aigre": 7267,
      "enn": 7268,
      "eniv": 7269,
      "archers": 7270,
      "ittim": 7271,
      "invest": 7272,
      "tifs": 7273,
      "simp": 7274,
      "rire": 7275,
      "algor": 7276,
      "jecti": 7277,
      "abatta": 7278,
      "cire": 7279,
      "répar": 7280,
      "réparer": 7281,
      "verse": 7282,
      "fique": 7283,
      "voire": 7284,
      "contra": 7285,
      "médite": 7286,
      "perdra": 7287,
      "pidité": 7288,
      "monteront": 7289,
      "puiser": 7290,
      "apprend": 7291,
      "cherai": 7292,
      "expéri": 7293,
      "voyons": 7294,
      "voyaient": 7295,
      "marqué": 7296,
      "soula": 7297,
      "souliers": 7298,
      "sorci": 7299,
      "Jozabad": 7300,
      "parleront": 7301,
      "sentence": 7302,
      "sentier": 7303,
      "compl": 7304,
      "tourte": 7305,
      "tournés": 7306,
      "troubles": 7307,
      "venues": 7308,
      "errer": 7309,
      "imm": 7310,
      "sortiras": 7311,
      "océ": 7312,
      "itement": 7313,
      "famil": 7314,
      "servirez": 7315,
      "offrait": 7316,
      "écoutera": 7317,
      "demment": 7318,
      "nombreuse": 7319,
      "direction": 7320,
      "livrée": 7321,
      "hub": 7322,
      "humaine": 7323,
      "Ammi": 7324,
      "Mahan": 7325,
      "Assi": 7326,
      "prescrite": 7327,
      "psy": 7328,
      "creux": 7329,
      "gira": 7330,
      "blessés": 7331,
      "trompe": 7332,
      "créer": 7333,
      "confient": 7334,
      "échelle": 7335,
      "Héno": 7336,
      "œufs": 7337,
      "bâtira": 7338,
      "bâtiments": 7339,
      "solaire": 7340,
      "regardaient": 7341,
      "rendue": 7342,
      "Hamor": 7343,
      "méprisent": 7344,
      "Éliézer": 7345,
      "Bén": 7346,
      "Béré": 7347,
      "orientale": 7348,
      "châtie": 7349,
      "Marthe": 7350,
      "prononça": 7351,
      "répandre": 7352,
      "répandra": 7353,
      "malédictions": 7354,
      "statues": 7355,
      "cède": 7356,
      "trouveras": 7357,
      "accrois": 7358,
      "invoquent": 7359,
      "retranchée": 7360,
      "ajoute": 7361,
      "volontaires": 7362,
      "détruisez": 7363,
      "réduit": 7364,
      "saluent": 7365,
      "Rabba": 7366,
      "punis": 7367,
      "attentivement": 7368,
      "flétri": 7369,
      "élévation": 7370,
      "Jojakin": 7371,
      "exterminerai": 7372,
      "Yahvé": 7373,
      "excellence": 7374,
      "effrayé": 7375,
      "blasphème": 7376,
      "Peor": 7377,
      "réconfort": 7378,
      "pureté": 7379,
      "Teko": 7380,
      "explorer": 7381,
      "amènera": 7382,
      "rappelle": 7383,
      "apprennent": 7384,
      "spéci": 7385,
      "bassin": 7386,
      "invités": 7387,
      "redoutable": 7388,
      "Shime": 7389,
      "cendres": 7390,
      "réfugi": 7391,
      "immobile": 7392,
      "réparations": 7393,
      "Abigaïl": 7394,
      "Mèdes": 7395,
      "intègre": 7396,
      "médicaments": 7397,
      "dédicace": 7398,
      "chérib": 7399,
      "Gosen": 7400,
      "Ophir": 7401,
      "faucille": 7402,
      "Bethléem": 7403,
      "algorith": 7404,
      "abattage": 7405,
      "Mahanaïm": 7406,
      "51": 7407,
      "55": 7408,
      "Agag": 7409,
      "Cé": 7410,
      "Do": 7411,
      "Gilgal": 7412,
      "Mam": 7413,
      "Rép": 7414,
      "Rassemblez": 7415,
      "Sont": 7416,
      "Veille": 7417,
      "Voyant": 7418,
      "beur": 7419,
      "cure": 7420,
      "dort": 7421,
      "dèrent": 7422,
      "dad": 7423,
      "dducéens": 7424,
      "hys": 7425,
      "ivoire": 7426,
      "joth": 7427,
      "my": 7428,
      "pèrent": 7429,
      "ument": 7430,
      "Ékron": 7431,
      "ôta": 7432,
      "relève": 7433,
      "illis": 7434,
      "laï": 7435,
      "lave": 7436,
      "labour": 7437,
      "auriez": 7438,
      "sev": 7439,
      "injustes": 7440,
      "radio": 7441,
      "étoff": 7442,
      "sadducéens": 7443,
      "pasteurs": 7444,
      "libres": 7445,
      "songes": 7446,
      "abe": 7447,
      "dier": 7448,
      "verges": 7449,
      "conne": 7450,
      "fièvre": 7451,
      "dissi": 7452,
      "pha": 7453,
      "rende": 7454,
      "jusque": 7455,
      "toits": 7456,
      "tées": 7457,
      "pers": 7458,
      "vendus": 7459,
      "monterai": 7460,
      "ezer": 7461,
      "appuy": 7462,
      "geront": 7463,
      "exi": 7464,
      "exige": 7465,
      "exemple": 7466,
      "examine": 7467,
      "fermes": 7468,
      "fermées": 7469,
      "ulaire": 7470,
      "visité": 7471,
      "répondis": 7472,
      "jettera": 7473,
      "habitez": 7474,
      "habitation": 7475,
      "privé": 7476,
      "autrement": 7477,
      "tournera": 7478,
      "sauras": 7479,
      "rapporté": 7480,
      "impôts": 7481,
      "cadeau": 7482,
      "cadeaux": 7483,
      "porterez": 7484,
      "donnai": 7485,
      "doute": 7486,
      "doucement": 7487,
      "Jach": 7488,
      "fondu": 7489,
      "vivrez": 7490,
      "petites": 7491,
      "connaissaient": 7492,
      "saisirent": 7493,
      "Asdod": 7494,
      "royauté": 7495,
      "ayons": 7496,
      "louent": 7497,
      "gardait": 7498,
      "brisées": 7499,
      "boiras": 7500,
      "boiront": 7501,
      "lutter": 7502,
      "commencèrent": 7503,
      "échappe": 7504,
      "conduira": 7505,
      "servait": 7506,
      "établira": 7507,
      "utilisent": 7508,
      "citoy": 7509,
      "regardait": 7510,
      "abominables": 7511,
      "environs": 7512,
      "Sélah": 7513,
      "souris": 7514,
      "Assyrien": 7515,
      "ignit": 7516,
      "possédé": 7517,
      "pleurèrent": 7518,
      "prononce": 7519,
      "capitale": 7520,
      "Barz": 7521,
      "élevait": 7522,
      "chassa": 7523,
      "bords": 7524,
      "ologiques": 7525,
      "Édomites": 7526,
      "issements": 7527,
      "rassemblera": 7528,
      "Béthanie": 7529,
      "avança": 7530,
      "Toutefois": 7531,
      "miracle": 7532,
      "profondément": 7533,
      "ajouta": 7534,
      "endurcit": 7535,
      "recevrez": 7536,
      "emportés": 7537,
      "dépouil": 7538,
      "extérieure": 7539,
      "provoqué": 7540,
      "magnificence": 7541,
      "ressuscitera": 7542,
      "écarla": 7543,
      "empêché": 7544,
      "Araba": 7545,
      "aimeras": 7546,
      "Sidoniens": 7547,
      "découvriras": 7548,
      "interrogea": 7549,
      "chettes": 7550,
      "trembleront": 7551,
      "danse": 7552,
      "déserte": 7553,
      "averti": 7554,
      "suffit": 7555,
      "désiré": 7556,
      "Plusieurs": 7557,
      "espions": 7558,
      "métho": 7559,
      "produisent": 7560,
      "osheth": 7561,
      "Rendez": 7562,
      "irréprochable": 7563,
      "Karéach": 7564,
      "Éliphaz": 7565,
      "protection": 7566,
      "vôtre": 7567,
      "Abinadab": 7568,
      "réconcili": 7569,
      "pêcheurs": 7570,
      "balay": 7571,
      "Thirtsa": 7572,
      "hysope": 7573,
      "49": 7574,
      "Ale": 7575,
      "Big": 7576,
      "Dedan": 7577,
      "Hag": 7578,
      "Inter": 7579,
      "Mara": 7580,
      "Osée": 7581,
      "Ro": 7582,
      "Sous": 7583,
      "Tah": 7584,
      "ak": 7585,
      "bure": 7586,
      "brace": 7587,
      "hel": 7588,
      "mori": 7589,
      "rs": 7590,
      "ty": 7591,
      "vil": 7592,
      "vel": 7593,
      "vains": 7594,
      "Écris": 7595,
      "éen": 7596,
      "essent": 7597,
      "dek": 7598,
      "deviennent": 7599,
      "lente": 7600,
      "reviens": 7601,
      "reviendront": 7602,
      "retomber": 7603,
      "aib": 7604,
      "one": 7605,
      "quait": 7606,
      "quèrent": 7607,
      "quête": 7608,
      "anna": 7609,
      "aud": 7610,
      "chatsar": 7611,
      "ormais": 7612,
      "dessé": 7613,
      "infr": 7614,
      "parcour": 7615,
      "tirant": 7616,
      "lunes": 7617,
      "étin": 7618,
      "unes": 7619,
      "pourront": 7620,
      "sachent": 7621,
      "passée": 7622,
      "trist": 7623,
      "sign": 7624,
      "rier": 7625,
      "surveille": 7626,
      "référence": 7627,
      "message": 7628,
      "attrist": 7629,
      "dion": 7630,
      "dign": 7631,
      "vertu": 7632,
      "hommage": 7633,
      "dépl": 7634,
      "dézer": 7635,
      "auxquels": 7636,
      "conf": 7637,
      "copie": 7638,
      "vex": 7639,
      "Israélites": 7640,
      "pleurent": 7641,
      "phath": 7642,
      "contenir": 7643,
      "fraude": 7644,
      "perles": 7645,
      "crier": 7646,
      "pigeons": 7647,
      "ffre": 7648,
      "mises": 7649,
      "gué": 7650,
      "geras": 7651,
      "excès": 7652,
      "répli": 7653,
      "souviendrai": 7654,
      "fermer": 7655,
      "mettant": 7656,
      "poste": 7657,
      "posée": 7658,
      "Che": 7659,
      "usage": 7660,
      "parlerez": 7661,
      "vinaigre": 7662,
      "bédée": 7663,
      "tournèrent": 7664,
      "Nebo": 7665,
      "garderai": 7666,
      "vention": 7667,
      "mode": 7668,
      "molé": 7669,
      "Jaïr": 7670,
      "portèrent": 7671,
      "sombre": 7672,
      "érija": 7673,
      "gnit": 7674,
      "gnant": 7675,
      "humain": 7676,
      "humains": 7677,
      "achè": 7678,
      "tissu": 7679,
      "déta": 7680,
      "affaib": 7681,
      "Asch": 7682,
      "trompeur": 7683,
      "pousser": 7684,
      "réjouisse": 7685,
      "réjouiront": 7686,
      "foules": 7687,
      "offriront": 7688,
      "heures": 7689,
      "supérieur": 7690,
      "apportent": 7691,
      "couvrent": 7692,
      "regardera": 7693,
      "bâtiment": 7694,
      "clôt": 7695,
      "demandent": 7696,
      "regardèrent": 7697,
      "éternelles": 7698,
      "construite": 7699,
      "oindras": 7700,
      "Mich": 7701,
      "Galaa": 7702,
      "continué": 7703,
      "entendrez": 7704,
      "vaincra": 7705,
      "chaume": 7706,
      "Apol": 7707,
      "dulité": 7708,
      "répandirent": 7709,
      "dressa": 7710,
      "Schéol": 7711,
      "révélation": 7712,
      "instrument": 7713,
      "cachées": 7714,
      "André": 7715,
      "ânesse": 7716,
      "avancé": 7717,
      "croyant": 7718,
      "durée": 7719,
      "répondrai": 7720,
      "accepté": 7721,
      "complète": 7722,
      "chandeliers": 7723,
      "justifiés": 7724,
      "réduis": 7725,
      "rencontra": 7726,
      "lamentations": 7727,
      "emporta": 7728,
      "emportèrent": 7729,
      "dépouillé": 7730,
      "renvoyé": 7731,
      "membre": 7732,
      "provoquer": 7733,
      "fléaux": 7734,
      "ibla": 7735,
      "moqueurs": 7736,
      "Zébédée": 7737,
      "physi": 7738,
      "sentiments": 7739,
      "sauterelle": 7740,
      "Tsiklag": 7741,
      "résolution": 7742,
      "instruit": 7743,
      "corruptible": 7744,
      "Huram": 7745,
      "éprouvé": 7746,
      "scientifiques": 7747,
      "attendent": 7748,
      "munna": 7749,
      "mélangé": 7750,
      "Remalia": 7751,
      "espion": 7752,
      "publicains": 7753,
      "Tsoba": 7754,
      "mathé": 7755,
      "incrédulité": 7756,
      "libérateur": 7757,
      "paniers": 7758,
      "prédication": 7759,
      "profession": 7760,
      "école": 7761,
      "conception": 7762,
      "consternés": 7763,
      "couronnes": 7764,
      "flux": 7765,
      "inonda": 7766,
      "centenier": 7767,
      "silencieux": 7768,
      "résult": 7769,
      "Nebuzaradan": 7770,
      "manifeste": 7771,
      "Hadadézer": 7772,
      "écarlate": 7773,
      "essentiel": 7774,
      "AD": 7775,
      "Aie": 7776,
      "Adul": 7777,
      "Bap": 7778,
      "Dor": 7779,
      "Er": 7780,
      "Eléazar": 7781,
      "Ekron": 7782,
      "Pai": 7783,
      "Pis": 7784,
      "Sar": 7785,
      "Sais": 7786,
      "Scha": 7787,
      "Tite": 7788,
      "Uri": 7789,
      "affr": 7790,
      "achev": 7791,
      "balla": 7792,
      "ciles": 7793,
      "dili": 7794,
      "eb": 7795,
      "gères": 7796,
      "jo": 7797,
      "mô": 7798,
      "pant": 7799,
      "range": 7800,
      "sti": 7801,
      "uyez": 7802,
      "vom": 7803,
      "yx": 7804,
      "çà": 7805,
      "éens": 7806,
      "devienne": 7807,
      "demandes": 7808,
      "leront": 7809,
      "aidé": 7810,
      "onie": 7811,
      "lables": 7812,
      "arrach": 7813,
      "aube": 7814,
      "aumô": 7815,
      "chat": 7816,
      "assa": 7817,
      "astre": 7818,
      "assou": 7819,
      "teintes": 7820,
      "inim": 7821,
      "aissent": 7822,
      "poursuivi": 7823,
      "rienne": 7824,
      "composé": 7825,
      "usure": 7826,
      "abbas": 7827,
      "rébel": 7828,
      "atmos": 7829,
      "verre": 7830,
      "homer": 7831,
      "fiez": 7832,
      "mondi": 7833,
      "couchée": 7834,
      "provisions": 7835,
      "naï": 7836,
      "mémori": 7837,
      "nie": 7838,
      "longues": 7839,
      "permettent": 7840,
      "crut": 7841,
      "criait": 7842,
      "empar": 7843,
      "empres": 7844,
      "vengé": 7845,
      "financi": 7846,
      "puisses": 7847,
      "biologie": 7848,
      "adop": 7849,
      "adresse": 7850,
      "formes": 7851,
      "inscri": 7852,
      "inspi": 7853,
      "souci": 7854,
      "soutenir": 7855,
      "vague": 7856,
      "plage": 7857,
      "plats": 7858,
      "placée": 7859,
      "ferment": 7860,
      "véri": 7861,
      "réponds": 7862,
      "mercen": 7863,
      "bienveillance": 7864,
      "préci": 7865,
      "tournez": 7866,
      "imoth": 7867,
      "immor": 7868,
      "laisserez": 7869,
      "Abdias": 7870,
      "cuve": 7871,
      "impo": 7872,
      "Paran": 7873,
      "serviras": 7874,
      "Debir": 7875,
      "porta": 7876,
      "somme": 7877,
      "moururent": 7878,
      "titudes": 7879,
      "suivez": 7880,
      "tiste": 7881,
      "chacals": 7882,
      "badia": 7883,
      "prospère": 7884,
      "méchante": 7885,
      "retourneront": 7886,
      "héritiers": 7887,
      "présenté": 7888,
      "brisa": 7889,
      "anias": 7890,
      "lumine": 7891,
      "réjoui": 7892,
      "heureuse": 7893,
      "créateur": 7894,
      "igno": 7895,
      "Abihu": 7896,
      "ramène": 7897,
      "détournent": 7898,
      "honorer": 7899,
      "clair": 7900,
      "monterons": 7901,
      "attacher": 7902,
      "saphir": 7903,
      "trembler": 7904,
      "détruites": 7905,
      "passées": 7906,
      "attendre": 7907,
      "élevées": 7908,
      "Ammonite": 7909,
      "descends": 7910,
      "quitter": 7911,
      "informer": 7912,
      "traits": 7913,
      "publie": 7914,
      "Ornan": 7915,
      "pharisien": 7916,
      "dressé": 7917,
      "penser": 7918,
      "ctive": 7919,
      "céléb": 7920,
      "sauverai": 7921,
      "retranche": 7922,
      "écrite": 7923,
      "Madianites": 7924,
      "précipité": 7925,
      "tellement": 7926,
      "volontaire": 7927,
      "endurcis": 7928,
      "savane": 7929,
      "rangée": 7930,
      "affermis": 7931,
      "libéré": 7932,
      "approcheront": 7933,
      "souillure": 7934,
      "transporta": 7935,
      "mesuré": 7936,
      "eussent": 7937,
      "Nethaneel": 7938,
      "entouraient": 7939,
      "orphelins": 7940,
      "révolte": 7941,
      "zarma": 7942,
      "outrages": 7943,
      "destinés": 7944,
      "perverse": 7945,
      "tructures": 7946,
      "manquera": 7947,
      "désertes": 7948,
      "fric": 7949,
      "spiritu": 7950,
      "rivières": 7951,
      "égarés": 7952,
      "Achithub": 7953,
      "violents": 7954,
      "adorent": 7955,
      "emporter": 7956,
      "Immédiatement": 7957,
      "paisible": 7958,
      "Machli": 7959,
      "réseau": 7960,
      "déborde": 7961,
      "difficiles": 7962,
      "régnait": 7963,
      "équipe": 7964,
      "Hatsor": 7965,
      "restitution": 7966,
      "musicien": 7967,
      "sexu": 7968,
      "légumes": 7969,
      "Enseigne": 7970,
      "dîner": 7971,
      "enchantements": 7972,
      "Appelez": 7973,
      "manteaux": 7974,
      "idolâ": 7975,
      "psych": 7976,
      "type": 7977,
      "ADN": 7978,
      "Baptiste": 7979,
      "mémorial": 7980,
      "--": 7981,
      "45": 7982,
      "59": 7983,
      "64": 7984,
      "80": 7985,
      "Agri": 7986,
      "Bi": 7987,
      "Ephraïm": 7988,
      "Ge": 7989,
      "Hu": 7990,
      "Héthi": 7991,
      "Nim": 7992,
      "Peu": 7993,
      "Rom": 7994,
      "Rends": 7995,
      "Sui": 7996,
      "Soph": 7997,
      "Thom": 7998,
      "cration": 7999,
      "drap": 8000,
      "dro": 8001,
      "hir": 8002,
      "nai": 8003,
      "noy": 8004,
      "pap": 8005,
      "sors": 8006,
      "splen": 8007,
      "vap": 8008,
      "vac": 8009,
      "xe": 8010,
      "xte": 8011,
      "outres": 8012,
      "reprendre": 8013,
      "retraite": 8014,
      "recommand": 8015,
      "reposera": 8016,
      "ettes": 8017,
      "arch": 8018,
      "issu": 8019,
      "omer": 8020,
      "astr": 8021,
      "secourir": 8022,
      "meel": 8023,
      "prét": 8024,
      "ingles": 8025,
      "partez": 8026,
      "parlaient": 8027,
      "saï": 8028,
      "trui": 8029,
      "treizième": 8030,
      "alth": 8031,
      "compar": 8032,
      "commerci": 8033,
      "elom": 8034,
      "abou": 8035,
      "absent": 8036,
      "viennes": 8037,
      "amènerai": 8038,
      "réflé": 8039,
      "attes": 8040,
      "déguis": 8041,
      "considère": 8042,
      "Iscar": 8043,
      "Lequel": 8044,
      "devins": 8045,
      "devinrent": 8046,
      "contemple": 8047,
      "carcasse": 8048,
      "enfante": 8049,
      "cruel": 8050,
      "bier": 8051,
      "adap": 8052,
      "Sept": 8053,
      "bril": 8054,
      "bruy": 8055,
      "entreprise": 8056,
      "objecti": 8057,
      "marchés": 8058,
      "souper": 8059,
      "soutien": 8060,
      "tha": 8061,
      "théra": 8062,
      "mettait": 8063,
      "désastre": 8064,
      "peint": 8065,
      "jetant": 8066,
      "épaisse": 8067,
      "battants": 8068,
      "tournerai": 8069,
      "envoyez": 8070,
      "laisseras": 8071,
      "sortirez": 8072,
      "chantez": 8073,
      "iah": 8074,
      "faci": 8075,
      "écoutait": 8076,
      "sombres": 8077,
      "resteront": 8078,
      "trahi": 8079,
      "connaissant": 8080,
      "connaissances": 8081,
      "arachi": 8082,
      "ensevel": 8083,
      "huel": 8084,
      "bateau": 8085,
      "hautains": 8086,
      "origine": 8087,
      "plainte": 8088,
      "pressé": 8089,
      "voudra": 8090,
      "voulaient": 8091,
      "illaï": 8092,
      "boirez": 8093,
      "rempla": 8094,
      "hib": 8095,
      "effort": 8096,
      "effets": 8097,
      "reçut": 8098,
      "ignomin": 8099,
      "Abiram": 8100,
      "viendrez": 8101,
      "Hélas": 8102,
      "trônes": 8103,
      "chama": 8104,
      "Isaïe": 8105,
      "regardent": 8106,
      "observez": 8107,
      "péril": 8108,
      "descende": 8109,
      "règles": 8110,
      "rêves": 8111,
      "Arpa": 8112,
      "purifie": 8113,
      "fidèlement": 8114,
      "possessions": 8115,
      "pareil": 8116,
      "traités": 8117,
      "publier": 8118,
      "hardi": 8119,
      "dévorent": 8120,
      "marcherai": 8121,
      "consécration": 8122,
      "Barabbas": 8123,
      "enterrèrent": 8124,
      "commises": 8125,
      "quantique": 8126,
      "rassemblent": 8127,
      "Hanani": 8128,
      "sociales": 8129,
      "sociétés": 8130,
      "multiplient": 8131,
      "Récab": 8132,
      "condamne": 8133,
      "condamnation": 8134,
      "éclai": 8135,
      "inférieur": 8136,
      "éprouve": 8137,
      "opprimés": 8138,
      "réprimandé": 8139,
      "précipite": 8140,
      "hanan": 8141,
      "rançon": 8142,
      "histoires": 8143,
      "affermit": 8144,
      "punir": 8145,
      "épargne": 8146,
      "éléments": 8147,
      "moqueur": 8148,
      "suivait": 8149,
      "grandit": 8150,
      "preuves": 8151,
      "climatique": 8152,
      "briques": 8153,
      "possédera": 8154,
      "particules": 8155,
      "chette": 8156,
      "nett": 8157,
      "accuser": 8158,
      "traditionnelles": 8159,
      "préserver": 8160,
      "flamb": 8161,
      "prospérera": 8162,
      "consoler": 8163,
      "ordinateur": 8164,
      "ignorance": 8165,
      "agriculture": 8166,
      "chimique": 8167,
      "Grâ": 8168,
      "arracherai": 8169,
      "comprennent": 8170,
      "solide": 8171,
      "Tourne": 8172,
      "méridion": 8173,
      "Micaël": 8174,
      "trempé": 8175,
      "Réveillez": 8176,
      "Demandez": 8177,
      "violé": 8178,
      "destructeur": 8179,
      "persuadé": 8180,
      "coutumes": 8181,
      "expérience": 8182,
      "Bénissez": 8183,
      "Cédron": 8184,
      "Barzillaï": 8185,
      "dignité": 8186,
      "clôtur": 8187,
      "Paix": 8188,
      "ballat": 8189,
      "rébellion": 8190,
      "Agrippa": 8191,
      "Thomas": 8192,
      "ignominie": 8193,
      "\".": 8194,
      "23": 8195,
      "77": 8196,
      "Acha": 8197,
      "Elis": 8198,
      "Fuyez": 8199,
      "IA": 8200,
      "Ins": 8201,
      "Jam": 8202,
      "Jeth": 8203,
      "Pub": 8204,
      "Reu": 8205,
      "Rien": 8206,
      "Ribla": 8207,
      "Seth": 8208,
      "afric": 8209,
      "bite": 8210,
      "cton": 8211,
      "dam": 8212,
      "hite": 8213,
      "ime": 8214,
      "los": 8215,
      "mens": 8216,
      "plon": 8217,
      "saine": 8218,
      "vèle": 8219,
      "évit": 8220,
      "relever": 8221,
      "remè": 8222,
      "aiguis": 8223,
      "ondes": 8224,
      "lateur": 8225,
      "enleva": 8226,
      "arit": 8227,
      "arque": 8228,
      "ascen": 8229,
      "aveth": 8230,
      "terr": 8231,
      "duis": 8232,
      "durera": 8233,
      "sat": 8234,
      "sacrés": 8235,
      "tras": 8236,
      "sibles": 8237,
      "treillis": 8238,
      "sers": 8239,
      "comb": 8240,
      "liée": 8241,
      "abattus": 8242,
      "amèrement": 8243,
      "révèle": 8244,
      "resplen": 8245,
      "chec": 8246,
      "verte": 8247,
      "versa": 8248,
      "découvre": 8249,
      "dédai": 8250,
      "condition": 8251,
      "appréci": 8252,
      "éréthiens": 8253,
      "phil": 8254,
      "phins": 8255,
      "phim": 8256,
      "gris": 8257,
      "grès": 8258,
      "grot": 8259,
      "renouve": 8260,
      "niel": 8261,
      "léger": 8262,
      "légère": 8263,
      "térébi": 8264,
      "montra": 8265,
      "bie": 8266,
      "excite": 8267,
      "fortement": 8268,
      "raille": 8269,
      "Six": 8270,
      "soutient": 8271,
      "ferais": 8272,
      "Char": 8273,
      "Cham": 8274,
      "désormais": 8275,
      "répondez": 8276,
      "habites": 8277,
      "centur": 8278,
      "vieille": 8279,
      "battage": 8280,
      "impa": 8281,
      "grandement": 8282,
      "chanter": 8283,
      "tenus": 8284,
      "servirent": 8285,
      "sortaient": 8286,
      "mourrons": 8287,
      "allai": 8288,
      "humaines": 8289,
      "prêchant": 8290,
      "Samarit": 8291,
      "ouvertement": 8292,
      "engagé": 8293,
      "poutres": 8294,
      "commencer": 8295,
      "assirent": 8296,
      "marié": 8297,
      "couvertes": 8298,
      "attachés": 8299,
      "attachée": 8300,
      "abominable": 8301,
      "bénie": 8302,
      "glorifierai": 8303,
      "choisie": 8304,
      "reçurent": 8305,
      "appelleront": 8306,
      "attends": 8307,
      "uniques": 8308,
      "sièges": 8309,
      "remplies": 8310,
      "marcheront": 8311,
      "rassemblez": 8312,
      "appartiendra": 8313,
      "révélée": 8314,
      "hache": 8315,
      "arrêté": 8316,
      "étendait": 8317,
      "Anne": 8318,
      "Ananias": 8319,
      "éclater": 8320,
      "invoque": 8321,
      "énergé": 8322,
      "profondeur": 8323,
      "durable": 8324,
      "racontèrent": 8325,
      "infe": 8326,
      "taroth": 8327,
      "apporteront": 8328,
      "lamentation": 8329,
      "coupera": 8330,
      "attentifs": 8331,
      "joyeuse": 8332,
      "médecin": 8333,
      "apporterez": 8334,
      "cyprès": 8335,
      "souillés": 8336,
      "Uzzi": 8337,
      "Zicri": 8338,
      "environne": 8339,
      "exterminer": 8340,
      "sentiment": 8341,
      "traverse": 8342,
      "chisé": 8343,
      "Éphron": 8344,
      "fauss": 8345,
      "séduis": 8346,
      "vieillard": 8347,
      "persécuté": 8348,
      "stupé": 8349,
      "dévorant": 8350,
      "soudain": 8351,
      "enveloppé": 8352,
      "Dibon": 8353,
      "impossible": 8354,
      "murmures": 8355,
      "glorieuse": 8356,
      "colombes": 8357,
      "chancellent": 8358,
      "trébucher": 8359,
      "disputes": 8360,
      "écailles": 8361,
      "Sanballat": 8362,
      "embû": 8363,
      "Rahab": 8364,
      "honorable": 8365,
      "mélange": 8366,
      "Milca": 8367,
      "principalement": 8368,
      "incrédu": 8369,
      "Kenaz": 8370,
      "féconds": 8371,
      "Magda": 8372,
      "magasin": 8373,
      "magasins": 8374,
      "outils": 8375,
      "pâture": 8376,
      "remercie": 8377,
      "individus": 8378,
      "chaussures": 8379,
      "terrestre": 8380,
      "rebellés": 8381,
      "Aggée": 8382,
      "idiot": 8383,
      "politique": 8384,
      "Melchisé": 8385,
      "vestibule": 8386,
      "Jetez": 8387,
      "impressionnant": 8388,
      "Bérékia": 8389,
      "Veillez": 8390,
      "beurre": 8391,
      "étoffes": 8392,
      "Adullam": 8393,
      "atmosph": 8394,
      "splendeur": 8395,
      "Achaïe": 8396,
      "Ari": 8397,
      "Amots": 8398,
      "Dathan": 8399,
      "Hon": 8400,
      "Hav": 8401,
      "Hab": 8402,
      "Jes": 8403,
      "Ly": 8404,
      "Mus": 8405,
      "Mets": 8406,
      "Reste": 8407,
      "Sab": 8408,
      "Sortez": 8409,
      "Tal": 8410,
      "Total": 8411,
      "aël": 8412,
      "cail": 8413,
      "effr": 8414,
      "fallait": 8415,
      "hari": 8416,
      "jav": 8417,
      "lît": 8418,
      "maveth": 8419,
      "pétr": 8420,
      "pore": 8421,
      "tais": 8422,
      "toiles": 8423,
      "vait": 8424,
      "xand": 8425,
      "Ébed": 8426,
      "émis": 8427,
      "înt": 8428,
      "remu": 8429,
      "onyx": 8430,
      "ertes": 8431,
      "qués": 8432,
      "quaient": 8433,
      "enou": 8434,
      "anni": 8435,
      "autrui": 8436,
      "chans": 8437,
      "isme": 8438,
      "secs": 8439,
      "ava": 8440,
      "anti": 8441,
      "invent": 8442,
      "invité": 8443,
      "infidélité": 8444,
      "quirent": 8445,
      "parure": 8446,
      "lutions": 8447,
      "unis": 8448,
      "sation": 8449,
      "trent": 8450,
      "rive": 8451,
      "lire": 8452,
      "liqui": 8453,
      "osyst": 8454,
      "abhor": 8455,
      "cielle": 8456,
      "amère": 8457,
      "menteurs": 8458,
      "atti": 8459,
      "geon": 8460,
      "diel": 8461,
      "dions": 8462,
      "voler": 8463,
      "volent": 8464,
      "verts": 8465,
      "décrit": 8466,
      "détermin": 8467,
      "appart": 8468,
      "monument": 8469,
      "proposition": 8470,
      "érés": 8471,
      "mah": 8472,
      "veilla": 8473,
      "mangée": 8474,
      "nié": 8475,
      "taches": 8476,
      "percé": 8477,
      "crist": 8478,
      "crimi": 8479,
      "crieront": 8480,
      "pières": 8481,
      "montrez": 8482,
      "rasera": 8483,
      "excessi": 8484,
      "nesse": 8485,
      "forni": 8486,
      "obtient": 8487,
      "sacrifier": 8488,
      "souvient": 8489,
      "souvint": 8490,
      "soupire": 8491,
      "corpore": 8492,
      "désolés": 8493,
      "meras": 8494,
      "habiterai": 8495,
      "préparez": 8496,
      "sauveur": 8497,
      "collè": 8498,
      "coupée": 8499,
      "laissée": 8500,
      "cateur": 8501,
      "cupidité": 8502,
      "impuni": 8503,
      "livreras": 8504,
      "livreront": 8505,
      "Parole": 8506,
      "iteaux": 8507,
      "livrez": 8508,
      "déserts": 8509,
      "achète": 8510,
      "poseras": 8511,
      "déteste": 8512,
      "plaide": 8513,
      "retournez": 8514,
      "tribulation": 8515,
      "hériteront": 8516,
      "voulons": 8517,
      "Jébus": 8518,
      "discipline": 8519,
      "boira": 8520,
      "connaîtra": 8521,
      "hibou": 8522,
      "reçus": 8523,
      "porterai": 8524,
      "assiég": 8525,
      "assiéra": 8526,
      "traiterai": 8527,
      "généralement": 8528,
      "paupières": 8529,
      "Moabite": 8530,
      "marchèrent": 8531,
      "hono": 8532,
      "bâtirent": 8533,
      "Shallum": 8534,
      "clairement": 8535,
      "quart": 8536,
      "périsse": 8537,
      "utilisés": 8538,
      "retient": 8539,
      "défendu": 8540,
      "vivantes": 8541,
      "Arba": 8542,
      "meurtre": 8543,
      "trembla": 8544,
      "arib": 8545,
      "purifiera": 8546,
      "appellent": 8547,
      "moments": 8548,
      "colonia": 8549,
      "chercherai": 8550,
      "rompit": 8551,
      "traita": 8552,
      "dernières": 8553,
      "descendue": 8554,
      "principes": 8555,
      "statue": 8556,
      "délivra": 8557,
      "Hanun": 8558,
      "fortifie": 8559,
      "Asaël": 8560,
      "étends": 8561,
      "décidé": 8562,
      "repentir": 8563,
      "avancer": 8564,
      "Beéroth": 8565,
      "retranchés": 8566,
      "retrancherai": 8567,
      "revêtus": 8568,
      "gratu": 8569,
      "jalon": 8570,
      "conçut": 8571,
      "enseignera": 8572,
      "achetez": 8573,
      "Sheba": 8574,
      "organisation": 8575,
      "accepte": 8576,
      "détruisit": 8577,
      "réduire": 8578,
      "espèces": 8579,
      "rangs": 8580,
      "dévast": 8581,
      "renvoyer": 8582,
      "préparèrent": 8583,
      "observeras": 8584,
      "roseaux": 8585,
      "consolé": 8586,
      "moquaient": 8587,
      "humiliés": 8588,
      "récoltes": 8589,
      "perdue": 8590,
      "arriveront": 8591,
      "Kéni": 8592,
      "Kédar": 8593,
      "baisa": 8594,
      "abandonnent": 8595,
      "Adoni": 8596,
      "Nachs": 8597,
      "retentir": 8598,
      "atteindra": 8599,
      "Anak": 8600,
      "protéger": 8601,
      "grandir": 8602,
      "activité": 8603,
      "écosyst": 8604,
      "gazelle": 8605,
      "brèches": 8606,
      "englouti": 8607,
      "adorez": 8608,
      "emportera": 8609,
      "chapiteaux": 8610,
      "endormis": 8611,
      "obscurci": 8612,
      "Pék": 8613,
      "Pérets": 8614,
      "meule": 8615,
      "Millo": 8616,
      "égorgera": 8617,
      "Bilha": 8618,
      "Tournez": 8619,
      "solennelle": 8620,
      "craindrez": 8621,
      "panier": 8622,
      "éclairer": 8623,
      "Bethuel": 8624,
      "améliorer": 8625,
      "perçu": 8626,
      "sévère": 8627,
      "Mahala": 8628,
      "profane": 8629,
      "cérémon": 8630,
      "recherches": 8631,
      "charpentiers": 8632,
      "sheba": 8633,
      "religion": 8634,
      "cantiques": 8635,
      "excepté": 8636,
      "ramènera": 8637,
      "énigme": 8638,
      "accroissement": 8639,
      "Tekoa": 8640,
      "Alexand": 8641,
      "bracelets": 8642,
      "mathématiques": 8643,
      "inondations": 8644,
      "diligent": 8645,
      "Iscariot": 8646,
      "arachide": 8647,
      "centurion": 8648,
      "javel": 8649,
      "36": 8650,
      "48": 8651,
      "83": 8652,
      "88": 8653,
      "Bou": 8654,
      "Cré": 8655,
      "Del": 8656,
      "ES": 8657,
      "Elie": 8658,
      "Fati": 8659,
      "Gam": 8660,
      "Gers": 8661,
      "Nérija": 8662,
      "Pous": 8663,
      "Rome": 8664,
      "Tro": 8665,
      "Tsal": 8666,
      "Tenez": 8667,
      "Toph": 8668,
      "clu": 8669,
      "gel": 8670,
      "gissent": 8671,
      "henne": 8672,
      "jui": 8673,
      "lème": 8674,
      "loth": 8675,
      "lobe": 8676,
      "opi": 8677,
      "ographie": 8678,
      "pin": 8679,
      "pend": 8680,
      "user": 8681,
      "val": 8682,
      "vrez": 8683,
      "ye": 8684,
      "ym": 8685,
      "Êtes": 8686,
      "îte": 8687,
      "ôté": 8688,
      "essenti": 8689,
      "oudre": 8690,
      "reconnaître": 8691,
      "revenue": 8692,
      "annu": 8693,
      "arrose": 8694,
      "entrant": 8695,
      "ura": 8696,
      "orf": 8697,
      "ores": 8698,
      "avène": 8699,
      "terras": 8700,
      "pardonnerai": 8701,
      "tiez": 8702,
      "pourriez": 8703,
      "passaient": 8704,
      "pasteur": 8705,
      "rivage": 8706,
      "tueras": 8707,
      "vions": 8708,
      "vigou": 8709,
      "amères": 8710,
      "révo": 8711,
      "mesh": 8712,
      "diad": 8713,
      "dépen": 8714,
      "conven": 8715,
      "fication": 8716,
      "apparaîtra": 8717,
      "page": 8718,
      "pagne": 8719,
      "procure": 8720,
      "Ish": 8721,
      "érant": 8722,
      "maats": 8723,
      "mique": 8724,
      "naître": 8725,
      "naquirent": 8726,
      "distri": 8727,
      "phé": 8728,
      "renouv": 8729,
      "carré": 8730,
      "manquer": 8731,
      "criant": 8732,
      "emmè": 8733,
      "montaient": 8734,
      "soigne": 8735,
      "appes": 8736,
      "cherchèrent": 8737,
      "addan": 8738,
      "exemp": 8739,
      "bro": 8740,
      "bru": 8741,
      "brillant": 8742,
      "Sib": 8743,
      "cordon": 8744,
      "Tubal": 8745,
      "fermera": 8746,
      "ulc": 8747,
      "mette": 8748,
      "intend": 8749,
      "désign": 8750,
      "agenou": 8751,
      "tempéra": 8752,
      "trice": 8753,
      "consolés": 8754,
      "habitée": 8755,
      "habitations": 8756,
      "olée": 8757,
      "étrange": 8758,
      "prévalu": 8759,
      "tournant": 8760,
      "tournait": 8761,
      "rapes": 8762,
      "minuit": 8763,
      "coupèrent": 8764,
      "laissent": 8765,
      "laissant": 8766,
      "charger": 8767,
      "jouent": 8768,
      "Envoyez": 8769,
      "moder": 8770,
      "servile": 8771,
      "opport": 8772,
      "porteur": 8773,
      "restèrent": 8774,
      "fondre": 8775,
      "trame": 8776,
      "résistance": 8777,
      "numéri": 8778,
      "nuclé": 8779,
      "livrèrent": 8780,
      "aillent": 8781,
      "inier": 8782,
      "Maon": 8783,
      "travailla": 8784,
      "presque": 8785,
      "prêche": 8786,
      "brûlure": 8787,
      "tifie": 8788,
      "poussa": 8789,
      "connaîtront": 8790,
      "abandonner": 8791,
      "abandonnez": 8792,
      "foudre": 8793,
      "camps": 8794,
      "campaient": 8795,
      "créés": 8796,
      "égal": 8797,
      "rouille": 8798,
      "angles": 8799,
      "souffler": 8800,
      "Baana": 8801,
      "Benjamites": 8802,
      "lettes": 8803,
      "pensait": 8804,
      "demandera": 8805,
      "périrez": 8806,
      "consumées": 8807,
      "compare": 8808,
      "fontaine": 8809,
      "prosterné": 8810,
      "continuait": 8811,
      "violemment": 8812,
      "châtiments": 8813,
      "pareils": 8814,
      "multiplie": 8815,
      "moissonneurs": 8816,
      "maléfique": 8817,
      "séjourné": 8818,
      "séjourner": 8819,
      "délivrez": 8820,
      "brûleront": 8821,
      "mouches": 8822,
      "humilie": 8823,
      "frappaient": 8824,
      "étendront": 8825,
      "ravag": 8826,
      "ravage": 8827,
      "éclate": 8828,
      "rassasier": 8829,
      "tinrent": 8830,
      "Achimaats": 8831,
      "changea": 8832,
      "remplissait": 8833,
      "écrou": 8834,
      "bordure": 8835,
      "exerce": 8836,
      "occupe": 8837,
      "chassèrent": 8838,
      "pollution": 8839,
      "gravité": 8840,
      "gaspillé": 8841,
      "préparation": 8842,
      "précepte": 8843,
      "épargner": 8844,
      "gagné": 8845,
      "sentinelle": 8846,
      "Peda": 8847,
      "attendait": 8848,
      "écrasés": 8849,
      "aînesse": 8850,
      "dévoué": 8851,
      "campagnes": 8852,
      "prêtez": 8853,
      "rôti": 8854,
      "étrangère": 8855,
      "différents": 8856,
      "Gaal": 8857,
      "Proph": 8858,
      "lapidé": 8859,
      "persécuteurs": 8860,
      "ignorants": 8861,
      "Homme": 8862,
      "équili": 8863,
      "humble": 8864,
      "agrico": 8865,
      "groupes": 8866,
      "problème": 8867,
      "grince": 8868,
      "artisan": 8869,
      "chênes": 8870,
      "conspiration": 8871,
      "discerner": 8872,
      "préférable": 8873,
      "généalogie": 8874,
      "généalogies": 8875,
      "pollué": 8876,
      "renversés": 8877,
      "décision": 8878,
      "nigérien": 8879,
      "exploits": 8880,
      "événements": 8881,
      "réguli": 8882,
      "misérables": 8883,
      "incline": 8884,
      "négli": 8885,
      "répandent": 8886,
      "technique": 8887,
      "Éthiopiens": 8888,
      "soupirs": 8889,
      "Astarté": 8890,
      "Femme": 8891,
      "éducation": 8892,
      "Mamré": 8893,
      "sevré": 8894,
      "Apollos": 8895,
      "affran": 8896,
      "Héthien": 8897,
      "Sophonie": 8898,
      "althiel": 8899,
      "satrapes": 8900,
      "embûches": 8901,
      "javelot": 8902,
      "avènement": 8903,
      "convenable": 8904,
      "Aut": 8905,
      "Amenez": 8906,
      "Cou": 8907,
      "Cin": 8908,
      "Crai": 8909,
      "Décla": 8910,
      "Eph": 8911,
      "Hel": 8912,
      "Hez": 8913,
      "Nob": 8914,
      "Oli": 8915,
      "Oth": 8916,
      "Pasch": 8917,
      "Res": 8918,
      "Shu": 8919,
      "Tsur": 8920,
      "Tsin": 8921,
      "amenez": 8922,
      "beth": 8923,
      "cos": 8924,
      "crép": 8925,
      "dain": 8926,
      "drez": 8927,
      "dange": 8928,
      "fusa": 8929,
      "gation": 8930,
      "grap": 8931,
      "gnées": 8932,
      "hô": 8933,
      "him": 8934,
      "lits": 8935,
      "odi": 8936,
      "pelles": 8937,
      "rusé": 8938,
      "saut": 8939,
      "site": 8940,
      "ud": 8941,
      "vons": 8942,
      "yo": 8943,
      "zones": 8944,
      "émo": 8945,
      "écut": 8946,
      "écolo": 8947,
      "espèrent": 8948,
      "recommande": 8949,
      "relation": 8950,
      "reuse": 8951,
      "refusa": 8952,
      "onite": 8953,
      "err": 8954,
      "laja": 8955,
      "labor": 8956,
      "seau": 8957,
      "seaux": 8958,
      "ora": 8959,
      "ornement": 8960,
      "oracles": 8961,
      "incen": 8962,
      "rath": 8963,
      "rapides": 8964,
      "tiges": 8965,
      "salle": 8966,
      "passerai": 8967,
      "siers": 8968,
      "serre": 8969,
      "rient": 8970,
      "els": 8971,
      "lies": 8972,
      "licit": 8973,
      "tuent": 8974,
      "abeth": 8975,
      "vivez": 8976,
      "amitié": 8977,
      "réveil": 8978,
      "atures": 8979,
      "diez": 8980,
      "découverte": 8981,
      "déterminé": 8982,
      "congé": 8983,
      "concentre": 8984,
      "fig": 8985,
      "procès": 8986,
      "progrès": 8987,
      "naquit": 8988,
      "cession": 8989,
      "discu": 8990,
      "discus": 8991,
      "contenu": 8992,
      "lémia": 8993,
      "perce": 8994,
      "perfor": 8995,
      "criez": 8996,
      "séparer": 8997,
      "appu": 8998,
      "adrac": 8999,
      "exac": 9000,
      "expé": 9001,
      "extra": 9002,
      "exposé": 9003,
      "exécut": 9004,
      "ouvrent": 9005,
      "forment": 9006,
      "forma": 9007,
      "formant": 9008,
      "forêts": 9009,
      "obal": 9010,
      "rendait": 9011,
      "chaké": 9012,
      "valeurs": 9013,
      "ferait": 9014,
      "ferma": 9015,
      "suffi": 9016,
      "mortalité": 9017,
      "boucher": 9018,
      "jetée": 9019,
      "agnos": 9020,
      "complo": 9021,
      "prévu": 9022,
      "tournent": 9023,
      "Phar": 9024,
      "courant": 9025,
      "fugiti": 9026,
      "chia": 9027,
      "chib": 9028,
      "chions": 9029,
      "chija": 9030,
      "chimie": 9031,
      "cales": 9032,
      "douces": 9033,
      "servirons": 9034,
      "opti": 9035,
      "portées": 9036,
      "vivront": 9037,
      "réside": 9038,
      "tissent": 9039,
      "baobab": 9040,
      "entendus": 9041,
      "Asher": 9042,
      "multitudes": 9043,
      "plain": 9044,
      "retournent": 9045,
      "paiera": 9046,
      "mangerai": 9047,
      "certitude": 9048,
      "transforme": 9049,
      "aniques": 9050,
      "levait": 9051,
      "mangeant": 9052,
      "mangeait": 9053,
      "approchait": 9054,
      "abandonnerai": 9055,
      "créatures": 9056,
      "égale": 9057,
      "logi": 9058,
      "poutre": 9059,
      "confié": 9060,
      "nourr": 9061,
      "ronces": 9062,
      "ctur": 9063,
      "combattez": 9064,
      "marier": 9065,
      "Héman": 9066,
      "pesant": 9067,
      "ramas": 9068,
      "couvraient": 9069,
      "cruci": 9070,
      "Baala": 9071,
      "Benjamite": 9072,
      "bâtiras": 9073,
      "quartier": 9074,
      "attaque": 9075,
      "attachera": 9076,
      "Nico": 9077,
      "retirez": 9078,
      "Guér": 9079,
      "Schim": 9080,
      "Éliakim": 9081,
      "reposé": 9082,
      "aride": 9083,
      "Malkija": 9084,
      "continuer": 9085,
      "purifiés": 9086,
      "violente": 9087,
      "apparition": 9088,
      "chercheront": 9089,
      "éloigna": 9090,
      "planter": 9091,
      "informé": 9092,
      "égarent": 9093,
      "Azmaveth": 9094,
      "ouvrira": 9095,
      "principal": 9096,
      "dominera": 9097,
      "consacrée": 9098,
      "aveug": 9099,
      "Chaldée": 9100,
      "trouveront": 9101,
      "arrêter": 9102,
      "accorder": 9103,
      "accordée": 9104,
      "ânesses": 9105,
      "considérable": 9106,
      "Adar": 9107,
      "Beor": 9108,
      "revêti": 9109,
      "profondes": 9110,
      "gracieuse": 9111,
      "croyons": 9112,
      "Thessa": 9113,
      "Thimna": 9114,
      "agitera": 9115,
      "changements": 9116,
      "conçoit": 9117,
      "électrom": 9118,
      "cavalier": 9119,
      "innocence": 9120,
      "obéissants": 9121,
      "Jobab": 9122,
      "abattre": 9123,
      "organisme": 9124,
      "consulta": 9125,
      "dormi": 9126,
      "dormait": 9127,
      "étonné": 9128,
      "éthique": 9129,
      "communaut": 9130,
      "pilo": 9131,
      "épine": 9132,
      "incirconcision": 9133,
      "Harim": 9134,
      "embrassé": 9135,
      "ramena": 9136,
      "couperai": 9137,
      "flétr": 9138,
      "explique": 9139,
      "réunion": 9140,
      "célébrerai": 9141,
      "interprète": 9142,
      "entouré": 9143,
      "merveilleux": 9144,
      "économique": 9145,
      "imputé": 9146,
      "conservé": 9147,
      "glace": 9148,
      "affec": 9149,
      "baiser": 9150,
      "absence": 9151,
      "maîtresse": 9152,
      "joints": 9153,
      "électrique": 9154,
      "tiendrai": 9155,
      "avertis": 9156,
      "persuad": 9157,
      "manquait": 9158,
      "Méscha": 9159,
      "persécutent": 9160,
      "Caïphe": 9161,
      "exalté": 9162,
      "consommation": 9163,
      "calebasse": 9164,
      "causé": 9165,
      "inquié": 9166,
      "Sanc": 9167,
      "pendus": 9168,
      "Immer": 9169,
      "triomphe": 9170,
      "bouillir": 9171,
      "échappés": 9172,
      "conspiré": 9173,
[...]
