{
  "version": "1.0",
  "truncation": null,
  "padding": null,
  "added_tokens": [
    {
      "id": 0,
      "content": "[PAD]",
      "single_word": false,
      "lstrip": false,
      "rstrip": false,
      "normalized": false,
      "special": true
    },
    {
      "id": 1,
      "content": "[UNK]",
      "single_word": false,
      "lstrip": false,
      "rstrip": false,
      "normalized": false,
      "special": true
    },
    {
      "id": 2,
      "content": "[CLS]",
      "single_word": false,
      "lstrip": false,
      "rstrip": false,
      "normalized": false,
      "special": true
    },
    {
      "id": 3,
      "content": "[SEP]",
      "single_word": false,
      "lstrip": false,
      "rstrip": false,
      "normalized": false,
      "special": true
    },
    {
      "id": 4,
      "content": "[MASK]",
      "single_word": false,
      "lstrip": false,
      "rstrip": false,
      "normalized": false,
      "special": true
    },
    {
      "id": 5,
      "content": "[BOS]",
      "single_word": false,
      "lstrip": false,
      "rstrip": false,
      "normalized": false,
      "special": true
    },
    {
      "id": 6,
      "content": "[EOS]",
      "single_word": false,
      "lstrip": false,
      "rstrip": false,
      "normalized": false,
      "special": true
    }
  ],
  "normalizer": {
    "type": "Sequence",
    "normalizers": [
      {
        "type": "NFC"
      }
    ]
  },
  "pre_tokenizer": {
    "type": "Sequence",
    "pretokenizers": [
      {
        "type": "Whitespace"
      },
      {
        "type": "Digits",
        "individual_digits": false
      }
    ]
  },
  "post_processor": {
    "type": "TemplateProcessing",
    "single": [
      {
        "SpecialToken": {
          "id": "[CLS]",
          "type_id": 0
        }
      },
      {
        "Sequence": {
          "id": "A",
          "type_id": 0
        }
      },
      {
        "SpecialToken": {
          "id": "[SEP]",
          "type_id": 0
        }
      }
    ],
    "pair": [
      {
        "SpecialToken": {
          "id": "[CLS]",
          "type_id": 0
        }
      },
      {
        "Sequence": {
          "id": "A",
          "type_id": 0
        }
      },
      {
        "SpecialToken": {
          "id": "[SEP]",
          "type_id": 0
        }
      },
      {
        "Sequence": {
          "id": "B",
          "type_id": 1
        }
      },
      {
        "SpecialToken": {
          "id": "[SEP]",
          "type_id": 1
        }
      }
    ],
    "special_tokens": {
      "[CLS]": {
        "id": "[CLS]",
        "ids": [
          2
        ],
        "tokens": [
          "[CLS]"
        ]
      },
      "[SEP]": {
        "id": "[SEP]",
        "ids": [
          3
        ],
        "tokens": [
          "[SEP]"
        ]
      }
    }
  },
  "decoder": {
    "type": "BPEDecoder",
    "suffix": ""
  },
  "model": {
    "type": "BPE",
    "dropout": null,
    "unk_token": "[UNK]",
    "continuing_subword_prefix": null,
    "end_of_word_suffix": null,
    "fuse_unk": false,
    "byte_fallback": false,
    "ignore_merges": false,
    "vocab": {
      "[PAD]": 0,
      "[UNK]": 1,
      "[CLS]": 2,
      "[SEP]": 3,
      "[MASK]": 4,
      "[BOS]": 5,
      "[EOS]": 6,
      "!": 7,
      "\"": 8,
      "'": 9,
      "(": 10,
      ")": 11,
      ",": 12,
      "-": 13,
      ".": 14,
      "0": 15,
      "1": 16,
      "2": 17,
      "3": 18,
      "4": 19,
      "5": 20,
      "6": 21,
      "7": 22,
      "8": 23,
      "9": 24,
      ":": 25,
      ";": 26,
      "?": 27,
      "A": 28,
      "B": 29,
      "C": 30,
      "D": 31,
      "E": 32,
      "F": 33,
      "G": 34,
      "H": 35,
      "I": 36,
      "J": 37,
      "K": 38,
      "L": 39,
      "M": 40,
      "N": 41,
      "O": 42,
      "P": 43,
      "Q": 44,
      "R": 45,
      "S": 46,
      "T": 47,
      "U": 48,
      "V": 49,
      "W": 50,
      "Y": 51,
      "Z": 52,
      "[": 53,
      "]": 54,
      "a": 55,
      "b": 56,
      "c": 57,
      "d": 58,
      "e": 59,
      "f": 60,
      "g": 61,
      "h": 62,
      "i": 63,
      "j": 64,
      "k": 65,
      "l": 66,
      "m": 67,
      "n": 68,
      "o": 69,
      "p": 70,
      "q": 71,
      "r": 72,
      "s": 73,
      "t": 74,
      "u": 75,
      "v": 76,
      "w": 77,
      "x": 78,
      "y": 79,
      "z": 80,
      "«": 81,
      "»": 82,
      "À": 83,
      "Ç": 84,
      "É": 85,
      "à": 86,
      "â": 87,
      "ç": 88,
      "è": 89,
      "é": 90,
      "ê": 91,
      "ë": 92,
      "î": 93,
      "ï": 94,
      "ô": 95,
      "ù": 96,
      "ú": 97,
      "û": 98,
      "ü": 99,
      "œ": 100,
      "‘": 101,
      "’": 102,
      "es": 103,
      "en": 104,
      "on": 105,
      "ou": 106,
      "de": 107,
      "er": 108,
      "le": 109,
      "ai": 110,
      "an": 111,
      "qu": 112,
      "et": 113,
      "re": 114,
      "il": 115,
      "ne": 116,
      "ent": 117,
      "la": 118,
      "oi": 119,
      "eu": 120,
      "ar": 121,
      "les": 122,
      "it": 123,
      "au": 124,
      "ch": 125,
      "ur": 126,
      "ous": 127,
      "se": 128,
      "our": 129,
      "te": 130,
      "is": 131,
      "as": 132,
      "ce": 133,
      "om": 134,
      "or": 135,
      "que": 136,
      "pr": 137,
      "des": 138,
      "me": 139,
      "ter": 140,
      "in": 141,
      "ont": 142,
      "av": 143,
      "ant": 144,
      "qui": 145,
      "par": 146,
      "ra": 147,
      "ait": 148,
      "ais": 149,
      "lu": 150,
      "est": 151,
      "ils": 152,
      "ans": 153,
      "sa": 154,
      "ti": 155,
      "du": 156,
      "un": 157,
      "tr": 158,
      "nel": 159,
      "ternel": 160,
      "ieu": 161,
      "Éternel": 162,
      "pour": 163,
      "dans": 164,
      "ser": 165,
      "vous": 166,
      "Et": 167,
      "ét": 168,
      "lui": 169,
      "ri": 170,
      "si": 171,
      "tu": 172,
      "pas": 173,
      "ain": 174,
      "és": 175,
      "Il": 176,
      "dit": 177,
      "el": 178,
      "li": 179,
      "leur": 180,
      "us": 181,
      "rent": 182,
      "je": 183,
      "eur": 184,
      "al": 185,
      "omme": 186,
      "ons": 187,
      "tre": 188,
      "ab": 189,
      "tes": 190,
      "tou": 191,
      "son": 192,
      "res": 193,
      "sur": 194,
      "ré": 195,
      "am": 196,
      "dé": 197,
      "os": 198,
      "vi": 199,
      "che": 200,
      "eux": 201,
      "at": 202,
      "Dieu": 203,
      "mes": 204,
      "ave": 205,
      "une": 206,
      "end": 207,
      "ci": 208,
      "ée": 209,
      "roi": 210,
      "fils": 211,
      "onn": 212,
      "ère": 213,
      "ment": 214,
      "ver": 215,
      "fi": 216,
      "ses": 217,
      "di": 218,
      "ge": 219,
      "mais": 220,
      "avec": 221,
      "aux": 222,
      "moi": 223,
      "mon": 224,
      "aient": 225,
      "nous": 226,
      "oin": 227,
      "ap": 228,
      "jour": 229,
      "uis": 230,
      "co": 231,
      "Je": 232,
      "ens": 233,
      "ér": 234,
      "pa": 235,
      "ël": 236,
      "Is": 237,
      "gne": 238,
      "cou": 239,
      "Qu": 240,
      "Isra": 241,
      "Israël": 242,
      "mi": 243,
      "vo": 244,
      "èrent": 245,
      "peu": 246,
      "ma": 247,
      "ces": 248,
      "comme": 249,
      "and": 250,
      "ille": 251,
      "ès": 252,
      "pro": 253,
      "oint": 254,
      "ez": 255,
      "toi": 256,
      "elle": 257,
      "ta": 258,
      "mp": 259,
      "dis": 260,
      "point": 261,
      "voi": 262,
      "con": 263,
      "ants": 264,
      "ton": 265,
      "ph": 266,
      "tous": 267,
      "com": 268,
      "gr": 269,
      "sont": 270,
      "ir": 271,
      "dev": 272,
      "era": 273,
      "donn": 274,
      "ang": 275,
      "ort": 276,
      "ple": 277,
      "main": 278,
      "ac": 279,
      "ors": 280,
      "tout": 281,
      "ve": 282,
      "cri": 283,
      "fr": 284,
      "Le": 285,
      "maison": 286,
      "leurs": 287,
      "ati": 288,
      "enf": 289,
      "jus": 290,
      "gn": 291,
      "cont": 292,
      "ui": 293,
      "cr": 294,
      "avait": 295,
      "ys": 296,
      "ité": 297,
      "Ils": 298,
      "fait": 299,
      "pays": 300,
      "homme": 301,
      "était": 302,
      "près": 303,
      "peuple": 304,
      "ut": 305,
      "ois": 306,
      "lus": 307,
      "car": 308,
      "em": 309,
      "vit": 310,
      "mé": 311,
      "plus": 312,
      "Les": 313,
      "sera": 314,
      "Car": 315,
      "devant": 316,
      "nom": 317,
      "per": 318,
      "lon": 319,
      "ceux": 320,
      "ance": 321,
      "pi": 322,
      "ommes": 323,
      "uit": 324,
      "sé": 325,
      "ux": 326,
      "igne": 327,
      "té": 328,
      "ouv": 329,
      "contre": 330,
      "Mais": 331,
      "lé": 332,
      "ex": 333,
      "ras": 334,
      "aire": 335,
      "rép": 336,
      "id": 337,
      "lle": 338,
      "Tu": 339,
      "eurs": 340,
      "ni": 341,
      "ad": 342,
      "erai": 343,
      "sacri": 344,
      "sacrifi": 345,
      "igneur": 346,
      "gar": 347,
      "ff": 348,
      "soi": 349,
      "ères": 350,
      "paro": 351,
      "cet": 352,
      "terre": 353,
      "ande": 354,
      "mê": 355,
      "aus": 356,
      "por": 357,
      "bre": 358,
      "fin": 359,
      "vers": 360,
      "ins": 361,
      "puis": 362,
      "Jés": 363,
      "Jésus": 364,
      "ers": 365,
      "pé": 366,
      "Si": 367,
      "illes": 368,
      "bi": 369,
      "hommes": 370,
      "enfants": 371,
      "celui": 372,
      "mb": 373,
      "La": 374,
      "Se": 375,
      "mont": 376,
      "ob": 377,
      "don": 378,
      "cher": 379,
      "loi": 380,
      "là": 381,
      "mis": 382,
      "été": 383,
      "Seigneur": 384,
      "pe": 385,
      "vin": 386,
      "fem": 387,
      "da": 388,
      "prit": 389,
      "liv": 390,
      "Dav": 391,
      "David": 392,
      "ven": 393,
      "gu": 394,
      "ieux": 395,
      "même": 396,
      "Mo": 397,
      "for": 398,
      "jusqu": 399,
      "ête": 400,
      "quel": 401,
      "br": 402,
      "ante": 403,
      "temp": 404,
      "pri": 405,
      "cor": 406,
      "cha": 407,
      "répon": 408,
      "mar": 409,
      "où": 410,
      "toutes": 411,
      "servit": 412,
      "fs": 413,
      "ist": 414,
      "fut": 415,
      "Ce": 416,
      "voy": 417,
      "quoi": 418,
      "sou": 419,
      "tion": 420,
      "met": 421,
      "th": 422,
      "jours": 423,
      "mil": 424,
      "suis": 425,
      "deux": 426,
      "ché": 427,
      "ges": 428,
      "lors": 429,
      "ence": 430,
      "ul": 431,
      "tres": 432,
      "ret": 433,
      "Ju": 434,
      "semb": 435,
      "ation": 436,
      "aut": 437,
      "lev": 438,
      "toute": 439,
      "rai": 440,
      "Jér": 441,
      "étaient": 442,
      "mal": 443,
      "jet": 444,
      "afin": 445,
      "ler": 446,
      "age": 447,
      "père": 448,
      "pos": 449,
      "hab": 450,
      "oy": 451,
      "pl": 452,
      "Que": 453,
      "mort": 454,
      "Jo": 455,
      "conn": 456,
      "vos": 457,
      "fit": 458,
      "be": 459,
      "usa": 460,
      "cette": 461,
      "aussi": 462,
      "Ch": 463,
      "Ég": 464,
      "ten": 465,
      "tent": 466,
      "entre": 467,
      "cat": 468,
      "Voi": 469,
      "tri": 470,
      "Voici": 471,
      "ïse": 472,
      "Moïse": 473,
      "su": 474,
      "sacrificat": 475,
      "lem": 476,
      "Juda": 477,
      "né": 478,
      "bou": 479,
      "coeur": 480,
      "Jérusa": 481,
      "Jérusalem": 482,
      "ville": 483,
      "ront": 484,
      "femme": 485,
      "ag": 486,
      "sent": 487,
      "ème": 488,
      "no": 489,
      "ments": 490,
      "vis": 491,
      "ép": 492,
      "ren": 493,
      "parole": 494,
      "dem": 495,
      "habit": 496,
      "faire": 497,
      "tel": 498,
      "yp": 499,
      "cent": 500,
      "vie": 501,
      "ol": 502,
      "autre": 503,
      "selon": 504,
      "milieu": 505,
      "ts": 506,
      "app": 507,
      "Ne": 508,
      "temps": 509,
      "lè": 510,
      "votre": 511,
      "pre": 512,
      "ations": 513,
      "rez": 514,
      "bat": 515,
      "Égyp": 516,
      "arri": 517,
      "après": 518,
      "Pour": 519,
      "ani": 520,
      "sor": 521,
      "monta": 522,
      "elles": 523,
      "trou": 524,
      "fer": 525,
      "mer": 526,
      "bien": 527,
      "sep": 528,
      "prend": 529,
      "oses": 530,
      "rap": 531,
      "ainsi": 532,
      "ause": 533,
      "choses": 534,
      "core": 535,
      "ail": 536,
      "Ph": 537,
      "seront": 538,
      "sans": 539,
      "cour": 540,
      "yeux": 541,
      "encore": 542,
      "notre": 543,
      "soit": 544,
      "pré": 545,
      "avez": 546,
      "proph": 547,
      "ue": 548,
      "amp": 549,
      "endant": 550,
      "Vous": 551,
      "nes": 552,
      "lieu": 553,
      "donné": 554,
      "pla": 555,
      "col": 556,
      "mains": 557,
      "pris": 558,
      "Ab": 559,
      "sau": 560,
      "enne": 561,
      "bé": 562,
      "eure": 563,
      "ach": 564,
      "répondit": 565,
      "bu": 566,
      "ath": 567,
      "Sa": 568,
      "oc": 569,
      "chi": 570,
      "urent": 571,
      "cause": 572,
      "ds": 573,
      "gent": 574,
      "non": 575,
      "Qui": 576,
      "Égypte": 577,
      "être": 578,
      "cela": 579,
      "cin": 580,
      "bon": 581,
      "tit": 582,
      "erre": 583,
      "grand": 584,
      "oeu": 585,
      "ître": 586,
      "parce": 587,
      "donc": 588,
      "cons": 589,
      "ie": 590,
      "parmi": 591,
      "ju": 592,
      "De": 593,
      "En": 594,
      "fu": 595,
      "mang": 596,
      "parle": 597,
      "men": 598,
      "envoy": 599,
      "ffr": 600,
      "ord": 601,
      "quand": 602,
      "mit": 603,
      "Chr": 604,
      "dirent": 605,
      "air": 606,
      "voici": 607,
      "prés": 608,
      "imp": 609,
      "frères": 610,
      "Alors": 611,
      "anc": 612,
      "tions": 613,
      "lée": 614,
      "oir": 615,
      "droi": 616,
      "min": 617,
      "feu": 618,
      "mour": 619,
      "ange": 620,
      "Es": 621,
      "Elle": 622,
      "fais": 623,
      "seu": 624,
      "insi": 625,
      "nombre": 626,
      "Ainsi": 627,
      "Christ": 628,
      "ourn": 629,
      "paroles": 630,
      "vre": 631,
      "eut": 632,
      "chez": 633,
      "coup": 634,
      "rend": 635,
      "tenant": 636,
      "ples": 637,
      "va": 638,
      "ja": 639,
      "qua": 640,
      "On": 641,
      "Quand": 642,
      "villes": 643,
      "tom": 644,
      "able": 645,
      "porte": 646,
      "premi": 647,
      "pendant": 648,
      "sorti": 649,
      "eront": 650,
      "garde": 651,
      "sus": 652,
      "char": 653,
      "Ja": 654,
      "fam": 655,
      "mille": 656,
      "sous": 657,
      "Par": 658,
      "sain": 659,
      "parti": 660,
      "nations": 661,
      "autres": 662,
      "hui": 663,
      "desc": 664,
      "avaient": 665,
      "cô": 666,
      "dont": 667,
      "avons": 668,
      "vent": 669,
      "ble": 670,
      "gé": 671,
      "êtes": 672,
      "pères": 673,
      "vé": 674,
      "Lors": 675,
      "ches": 676,
      "justi": 677,
      "jou": 678,
      "pourquoi": 679,
      "grande": 680,
      "prophè": 681,
      "sais": 682,
      "sort": 683,
      "cé": 684,
      "dou": 685,
      "trois": 686,
      "lais": 687,
      "argent": 688,
      "servi": 689,
      "rit": 690,
      "serviteur": 691,
      "écou": 692,
      "trouv": 693,
      "érité": 694,
      "sept": 695,
      "chant": 696,
      "endra": 697,
      "frap": 698,
      "person": 699,
      "sacrificateur": 700,
      "ace": 701,
      "ine": 702,
      "endu": 703,
      "sez": 704,
      "serviteurs": 705,
      "avoir": 706,
      "Fils": 707,
      "comm": 708,
      "crit": 709,
      "Nous": 710,
      "offr": 711,
      "autel": 712,
      "fon": 713,
      "pie": 714,
      "ques": 715,
      "auc": 716,
      "rien": 717,
      "vres": 718,
      "voix": 719,
      "grâ": 720,
      "sang": 721,
      "aura": 722,
      "chefs": 723,
      "Comme": 724,
      "sui": 725,
      "gens": 726,
      "mo": 727,
      "eau": 728,
      "so": 729,
      "dix": 730,
      "cla": 731,
      "ro": 732,
      "Lé": 733,
      "ifi": 734,
      "ion": 735,
      "eras": 736,
      "ées": 737,
      "justice": 738,
      "loire": 739,
      "Tou": 740,
      "po": 741,
      "pli": 742,
      "cieux": 743,
      "nos": 744,
      "gloire": 745,
      "off": 746,
      "montagne": 747,
      "livr": 748,
      "eth": 749,
      "donne": 750,
      "bâ": 751,
      "tez": 752,
      "jeu": 753,
      "rois": 754,
      "ül": 755,
      "Saül": 756,
      "viv": 757,
      "furent": 758,
      "auprès": 759,
      "int": 760,
      "pet": 761,
      "roy": 762,
      "côté": 763,
      "ction": 764,
      "jam": 765,
      "érit": 766,
      "chac": 767,
      "sert": 768,
      "pros": 769,
      "op": 770,
      "tête": 771,
      "ub": 772,
      "mois": 773,
      "face": 774,
      "gt": 775,
      "lis": 776,
      "ara": 777,
      "cob": 778,
      "présent": 779,
      "Jacob": 780,
      "mée": 781,
      "Au": 782,
      "Celui": 783,
      "disant": 784,
      "beau": 785,
      "vou": 786,
      "appel": 787,
      "ass": 788,
      "frère": 789,
      "esprit": 790,
      "chef": 791,
      "donna": 792,
      "assemb": 793,
      "tomb": 794,
      "ay": 795,
      "dire": 796,
      "quatre": 797,
      "épée": 798,
      "im": 799,
      "connais": 800,
      "Am": 801,
      "pain": 802,
      "ini": 803,
      "livre": 804,
      "Puis": 805,
      "cer": 806,
      "ciel": 807,
      "sacrificateurs": 808,
      "trav": 809,
      "étab": 810,
      "tra": 811,
      "aron": 812,
      "puiss": 813,
      "ure": 814,
      "personne": 815,
      "éri": 816,
      "part": 817,
      "gnes": 818,
      "na": 819,
      "pur": 820,
      "onne": 821,
      "champ": 822,
      "désert": 823,
      "bouche": 824,
      "fille": 825,
      "vingt": 826,
      "ca": 827,
      "port": 828,
      "Aaron": 829,
      "péché": 830,
      "fois": 831,
      "all": 832,
      "enfant": 833,
      "nuit": 834,
      "vête": 835,
      "As": 836,
      "Ma": 837,
      "cho": 838,
      "détr": 839,
      "voir": 840,
      "colère": 841,
      "oie": 842,
      "gard": 843,
      "entend": 844,
      "alli": 845,
      "pai": 846,
      "chacun": 847,
      "depuis": 848,
      "nu": 849,
      "née": 850,
      "ué": 851,
      "âme": 852,
      "crain": 853,
      "rée": 854,
      "mées": 855,
      "entr": 856,
      "ite": 857,
      "Mon": 858,
      "royau": 859,
      "dom": 860,
      "Phil": 861,
      "Sal": 862,
      "cu": 863,
      "ze": 864,
      "haut": 865,
      "lent": 866,
      "ala": 867,
      "ense": 868,
      "sages": 869,
      "bres": 870,
      "Sam": 871,
      "Tous": 872,
      "vu": 873,
      "uite": 874,
      "mère": 875,
      "sanc": 876,
      "tribu": 877,
      "fou": 878,
      "lement": 879,
      "ps": 880,
      "chair": 881,
      "tera": 882,
      "cinq": 883,
      "dessus": 884,
      "Abra": 885,
      "appro": 886,
      "prin": 887,
      "lut": 888,
      "ayant": 889,
      "tis": 890,
      "alliance": 891,
      "tente": 892,
      "sion": 893,
      "dent": 894,
      "toujours": 895,
      "ore": 896,
      "accom": 897,
      "mur": 898,
      "ture": 899,
      "descend": 900,
      "lie": 901,
      "vient": 902,
      "der": 903,
      "pres": 904,
      "..": 905,
      "Pourquoi": 906,
      "eaux": 907,
      "iens": 908,
      "oire": 909,
      "vera": 910,
      "maintenant": 911,
      "seul": 912,
      "heur": 913,
      "méch": 914,
      "témoi": 915,
      "morts": 916,
      "lier": 917,
      "voie": 918,
      "ia": 919,
      "lles": 920,
      "armées": 921,
      "titu": 922,
      "Salom": 923,
      "hu": 924,
      "pous": 925,
      "ferai": 926,
      "mul": 927,
      "étr": 928,
      "femmes": 929,
      "corps": 930,
      "place": 931,
      "Salomon": 932,
      "Bab": 933,
      "leva": 934,
      "ger": 935,
      "ylon": 936,
      "conna": 937,
      "premier": 938,
      "Babylon": 939,
      "Babylone": 940,
      "gl": 941,
      "Jé": 942,
      "yri": 943,
      "année": 944,
      "serv": 945,
      "habitants": 946,
      "aï": 947,
      "aff": 948,
      "juge": 949,
      "camp": 950,
      "nent": 951,
      "Lévit": 952,
      "fera": 953,
      "chemin": 954,
      "venir": 955,
      "Philist": 956,
      "hol": 957,
      "écrit": 958,
      "ocaus": 959,
      "holocaus": 960,
      "Lorsque": 961,
      "az": 962,
      "iniqu": 963,
      "cap": 964,
      "joie": 965,
      "vais": 966,
      "oisi": 967,
      "alla": 968,
      "disci": 969,
      "assi": 970,
      "chés": 971,
      "ites": 972,
      "emp": 973,
      "rest": 974,
      "jourd": 975,
      "Phara": 976,
      "Pharaon": 977,
      "heure": 978,
      "erez": 979,
      "illa": 980,
      "ennemis": 981,
      "rou": 982,
      "beaucoup": 983,
      "étrang": 984,
      "Jui": 985,
      "cris": 986,
      "adres": 987,
      "Un": 988,
      "ham": 989,
      "hérit": 990,
      "ici": 991,
      "paix": 992,
      "Ben": 993,
      "seph": 994,
      "vint": 995,
      "aine": 996,
      "chose": 997,
      "vérité": 998,
      "andes": 999,
      "ième": 1000,
      "pér": 1001,
      "avant": 1002,
      "eng": 1003,
      "ieur": 1004,
      "force": 1005,
      "filles": 1006,
      "rir": 1007,
      "ordre": 1008,
      "fai": 1009,
      "monde": 1010,
      "troupe": 1011,
      "pieds": 1012,
      "grâce": 1013,
      "remp": 1014,
      "tifi": 1015,
      "royaume": 1016,
      "Joseph": 1017,
      "Lévites": 1018,
      "Jos": 1019,
      "dieux": 1020,
      "ouver": 1021,
      "anci": 1022,
      "iles": 1023,
      "Père": 1024,
      "lang": 1025,
      "uel": 1026,
      "régn": 1027,
      "chev": 1028,
      "vol": 1029,
      "peuples": 1030,
      "ba": 1031,
      "reste": 1032,
      "Philistins": 1033,
      "eff": 1034,
      "irent": 1035,
      "mau": 1036,
      "porter": 1037,
      "asse": 1038,
      "ets": 1039,
      "aujourd": 1040,
      "aucun": 1041,
      "disciples": 1042,
      "ier": 1043,
      "sacrifice": 1044,
      "brû": 1045,
      "assemblée": 1046,
      "mat": 1047,
      "Après": 1048,
      "bois": 1049,
      "sant": 1050,
      "reç": 1051,
      "arie": 1052,
      "coudé": 1053,
      "commande": 1054,
      "Abraham": 1055,
      "armée": 1056,
      "Josué": 1057,
      "ances": 1058,
      "ill": 1059,
      "Hé": 1060,
      "ira": 1061,
      "sujet": 1062,
      "cles": 1063,
      "ît": 1064,
      "foi": 1065,
      "hon": 1066,
      "bis": 1067,
      "aille": 1068,
      "aller": 1069,
      "demeure": 1070,
      "vêtements": 1071,
      "dét": 1072,
      "ru": 1073,
      "Éph": 1074,
      "ines": 1075,
      "ban": 1076,
      "its": 1077,
      "condu": 1078,
      "prophètes": 1079,
      "Juifs": 1080,
      "ût": 1081,
      "annon": 1082,
      "liers": 1083,
      "chaque": 1084,
      "Sch": 1085,
      "ign": 1086,
      "rais": 1087,
      "ennent": 1088,
      "atta": 1089,
      "brebis": 1090,
      "travail": 1091,
      "bles": 1092,
      "offrande": 1093,
      "corde": 1094,
      "ente": 1095,
      "arche": 1096,
      "serai": 1097,
      "seras": 1098,
      "juste": 1099,
      "rés": 1100,
      "onté": 1101,
      "prophète": 1102,
      "sagesse": 1103,
      "matin": 1104,
      "sommes": 1105,
      "six": 1106,
      "envoya": 1107,
      "Des": 1108,
      "fruit": 1109,
      "Re": 1110,
      "ça": 1111,
      "para": 1112,
      "Tout": 1113,
      "sait": 1114,
      "trom": 1115,
      "cré": 1116,
      "do": 1117,
      "firent": 1118,
      "Esprit": 1119,
      "lou": 1120,
      "pit": 1121,
      "uns": 1122,
      "couv": 1123,
      "doi": 1124,
      "dain": 1125,
      "pou": 1126,
      "assé": 1127,
      "peut": 1128,
      "retourn": 1129,
      "élev": 1130,
      "Dans": 1131,
      "lit": 1132,
      "mani": 1133,
      "entendu": 1134,
      "soient": 1135,
      "guerre": 1136,
      "ïm": 1137,
      "ori": 1138,
      "expi": 1139,
      "lait": 1140,
      "maître": 1141,
      "arriv": 1142,
      "lam": 1143,
      "rach": 1144,
      "alors": 1145,
      "réjou": 1146,
      "capti": 1147,
      "héritage": 1148,
      "droite": 1149,
      "tant": 1150,
      "dév": 1151,
      "quelqu": 1152,
      "oeuvres": 1153,
      "fle": 1154,
      "hors": 1155,
      "ions": 1156,
      "jeune": 1157,
      "aul": 1158,
      "combat": 1159,
      "venu": 1160,
      "sortir": 1161,
      "bâti": 1162,
      "champs": 1163,
      "dre": 1164,
      "tour": 1165,
      "ves": 1166,
      "actions": 1167,
      "cents": 1168,
      "allé": 1169,
      "maisons": 1170,
      "seigneur": 1171,
      "conque": 1172,
      "huile": 1173,
      "foule": 1174,
      "établi": 1175,
      "coudées": 1176,
      "impur": 1177,
      "bes": 1178,
      "oth": 1179,
      "ouve": 1180,
      "reur": 1181,
      "intel": 1182,
      "oyez": 1183,
      "intelli": 1184,
      "ié": 1185,
      "erres": 1186,
      "viens": 1187,
      "donner": 1188,
      "famille": 1189,
      "boeu": 1190,
      "ôt": 1191,
      "gue": 1192,
      "droit": 1193,
      "iniquité": 1194,
      "anciens": 1195,
      "endit": 1196,
      "loin": 1197,
      "bris": 1198,
      "lève": 1199,
      "proster": 1200,
      "man": 1201,
      "éth": 1202,
      "Jour": 1203,
      "mourir": 1204,
      "lar": 1205,
      "parler": 1206,
      "aband": 1207,
      "fleu": 1208,
      "lumi": 1209,
      "trai": 1210,
      "temple": 1211,
      "glor": 1212,
      "Abi": 1213,
      "cre": 1214,
      "gres": 1215,
      "sée": 1216,
      "aie": 1217,
      "confi": 1218,
      "Moab": 1219,
      "feras": 1220,
      "Jourdain": 1221,
      "bar": 1222,
      "éch": 1223,
      "ende": 1224,
      "sal": 1225,
      "étant": 1226,
      "cond": 1227,
      "cours": 1228,
      "mange": 1229,
      "pes": 1230,
      "let": 1231,
      "tru": 1232,
      "ables": 1233,
      "viend": 1234,
      "Éphra": 1235,
      "veux": 1236,
      "très": 1237,
      "quelque": 1238,
      "sembla": 1239,
      "trib": 1240,
      "comp": 1241,
      "trô": 1242,
      "monter": 1243,
      "yrie": 1244,
      "jur": 1245,
      "lez": 1246,
      "péchés": 1247,
      "lorsqu": 1248,
      "quer": 1249,
      "ido": 1250,
      "march": 1251,
      "bén": 1252,
      "athan": 1253,
      "sanctu": 1254,
      "engendra": 1255,
      "Ba": 1256,
      "Beth": 1257,
      "sance": 1258,
      "isse": 1259,
      "issent": 1260,
      "prendre": 1261,
      "douze": 1262,
      "jamais": 1263,
      "agne": 1264,
      "dè": 1265,
      "ané": 1266,
      "délivr": 1267,
      "mie": 1268,
      "portes": 1269,
      "bouc": 1270,
      "Lorsqu": 1271,
      "service": 1272,
      "témoign": 1273,
      "oré": 1274,
      "prom": 1275,
      "Paul": 1276,
      "ég": 1277,
      "châ": 1278,
      "méchants": 1279,
      "lumière": 1280,
      "Sur": 1281,
      "cit": 1282,
      "Éli": 1283,
      "éternel": 1284,
      "aime": 1285,
      "quelle": 1286,
      "prê": 1287,
      "mêmes": 1288,
      "nour": 1289,
      "peur": 1290,
      "cham": 1291,
      "marche": 1292,
      "offri": 1293,
      "pens": 1294,
      "rait": 1295,
      "sacrifices": 1296,
      "miséri": 1297,
      "Th": 1298,
      "lieux": 1299,
      "pent": 1300,
      "ordonné": 1301,
      "trans": 1302,
      "obser": 1303,
      "jeunes": 1304,
      "Benjam": 1305,
      "Isa": 1306,
      "arr": 1307,
      "trente": 1308,
      "saint": 1309,
      "sanctuaire": 1310,
      "leil": 1311,
      "ram": 1312,
      "montagnes": 1313,
      "connaître": 1314,
      "Éphraïm": 1315,
      "trône": 1316,
      "parla": 1317,
      "dési": 1318,
      "soleil": 1319,
      "rè": 1320,
      "quar": 1321,
      "appe": 1322,
      "consu": 1323,
      "omin": 1324,
      "irai": 1325,
      "pierres": 1326,
      "familles": 1327,
      "Parce": 1328,
      "orient": 1329,
      "Main": 1330,
      "Pi": 1331,
      "bras": 1332,
      "fus": 1333,
      "entrée": 1334,
      "assis": 1335,
      "Maintenant": 1336,
      "nouv": 1337,
      "ron": 1338,
      "déf": 1339,
      "grâces": 1340,
      "régna": 1341,
      "puissance": 1342,
      "lera": 1343,
      "aires": 1344,
      "ordonn": 1345,
      "témoignage": 1346,
      "Ach": 1347,
      "tor": 1348,
      "éc": 1349,
      "aisse": 1350,
      "commandements": 1351,
      "Man": 1352,
      "regarde": 1353,
      "vinrent": 1354,
      "avais": 1355,
      "faites": 1356,
      "souff": 1357,
      "suiv": 1358,
      "vivant": 1359,
      "glorifi": 1360,
      "ber": 1361,
      "ner": 1362,
      "châti": 1363,
      "Ceux": 1364,
      "Ésa": 1365,
      "soir": 1366,
      "lorsque": 1367,
      "autour": 1368,
      "oam": 1369,
      "xante": 1370,
      "chée": 1371,
      "pierre": 1372,
      "post": 1373,
      "envoyé": 1374,
      "Pierre": 1375,
      "Ses": 1376,
      "cad": 1377,
      "nouve": 1378,
      "allée": 1379,
      "deven": 1380,
      "prirent": 1381,
      "cinqu": 1382,
      "manger": 1383,
      "Can": 1384,
      "Jon": 1385,
      "Or": 1386,
      "pau": 1387,
      "regar": 1388,
      "parlé": 1389,
      "sab": 1390,
      "salut": 1391,
      "répand": 1392,
      "holocauste": 1393,
      "ale": 1394,
      "dés": 1395,
      "sol": 1396,
      "fidè": 1397,
      "appar": 1398,
      "soixante": 1399,
      "postérité": 1400,
      "vê": 1401,
      "pren": 1402,
      "viendra": 1403,
      "Sion": 1404,
      "cinquante": 1405,
      "Ar": 1406,
      "éloi": 1407,
      "cep": 1408,
      "serez": 1409,
      "objet": 1410,
      "crainte": 1411,
      "ns": 1412,
      "donnerai": 1413,
      "idoles": 1414,
      "miséricorde": 1415,
      "ât": 1416,
      "mettre": 1417,
      "airain": 1418,
      "Benjamin": 1419,
      "dès": 1420,
      "nè": 1421,
      "zé": 1422,
      "titude": 1423,
      "abandonn": 1424,
      "ration": 1425,
      "viol": 1426,
      "cir": 1427,
      "long": 1428,
      "présence": 1429,
      "intellig": 1430,
      "huit": 1431,
      "tiens": 1432,
      "voies": 1433,
      "conc": 1434,
      "cation": 1435,
      "repos": 1436,
      "celle": 1437,
      "amen": 1438,
      "oboam": 1439,
      "langue": 1440,
      "sabbat": 1441,
      "prati": 1442,
      "inter": 1443,
      "abomin": 1444,
      "Gu": 1445,
      "vain": 1446,
      "uni": 1447,
      "produ": 1448,
      "quarante": 1449,
      "nouveau": 1450,
      "intelligence": 1451,
      "Com": 1452,
      "Gala": 1453,
      "Sé": 1454,
      "mu": 1455,
      "més": 1456,
      "saph": 1457,
      "midi": 1458,
      "comment": 1459,
      "mari": 1460,
      "oeuvre": 1461,
      "sortit": 1462,
      "Ass": 1463,
      "Une": 1464,
      "ière": 1465,
      "envers": 1466,
      "eté": 1467,
      "obé": 1468,
      "semble": 1469,
      "bonne": 1470,
      "ieurs": 1471,
      "Elles": 1472,
      "vallée": 1473,
      "couver": 1474,
      "Est": 1475,
      "géné": 1476,
      "fleuve": 1477,
      "cur": 1478,
      "maux": 1479,
      "trait": 1480,
      "gnation": 1481,
      "nées": 1482,
      "demeur": 1483,
      "expiation": 1484,
      "regard": 1485,
      "rémie": 1486,
      "multitude": 1487,
      "Jérémie": 1488,
      "Mi": 1489,
      "dres": 1490,
      "troisi": 1491,
      "livré": 1492,
      "appela": 1493,
      "Mal": 1494,
      "ourne": 1495,
      "onnes": 1496,
      "Joab": 1497,
      "Manassé": 1498,
      "troisième": 1499,
      "bas": 1500,
      "sons": 1501,
      "oise": 1502,
      "riches": 1503,
      "aint": 1504,
      "cru": 1505,
      "demande": 1506,
      "grands": 1507,
      "...": 1508,
      "Ham": 1509,
      "aure": 1510,
      "terai": 1511,
      "pul": 1512,
      "fum": 1513,
      "Samuel": 1514,
      "heureux": 1515,
      "cité": 1516,
      "ile": 1517,
      "veu": 1518,
      "Jean": 1519,
      "crai": 1520,
      "méchant": 1521,
      "assignation": 1522,
      "Saint": 1523,
      "nation": 1524,
      "pleur": 1525,
      "table": 1526,
      "esse": 1527,
      "séjour": 1528,
      "sépul": 1529,
      "ténè": 1530,
      "étranger": 1531,
      "ténèbres": 1532,
      "iers": 1533,
      "use": 1534,
      "malheur": 1535,
      "aucune": 1536,
      "Où": 1537,
      "taure": 1538,
      "êt": 1539,
      "insens": 1540,
      "purifi": 1541,
      "font": 1542,
      "tab": 1543,
      "tourn": 1544,
      "cle": 1545,
      "dra": 1546,
      "deur": 1547,
      "parfum": 1548,
      "tième": 1549,
      "rendu": 1550,
      "rends": 1551,
      "accompli": 1552,
      "Cet": 1553,
      "oub": 1554,
      "tir": 1555,
      "tré": 1556,
      "pied": 1557,
      "lin": 1558,
      "trés": 1559,
      "mala": 1560,
      "bran": 1561,
      "sanctifi": 1562,
      "adressée": 1563,
      "boeufs": 1564,
      "semblable": 1565,
      "Jus": 1566,
      "Sche": 1567,
      "ct": 1568,
      "pub": 1569,
      "entour": 1570,
      "abon": 1571,
      "songe": 1572,
      "mets": 1573,
      "aill": 1574,
      "prostitu": 1575,
      "Bé": 1576,
      "Sché": 1577,
      "cul": 1578,
      "ot": 1579,
      "Ézé": 1580,
      "sein": 1581,
      "anges": 1582,
      "Isaac": 1583,
      "Ézéchi": 1584,
      "bl": 1585,
      "ctions": 1586,
      "nac": 1587,
      "sour": 1588,
      "quit": 1589,
      "ard": 1590,
      "vois": 1591,
      "persé": 1592,
      "rassemb": 1593,
      "agré": 1594,
      "frapp": 1595,
      "Dit": 1596,
      "boi": 1597,
      "fav": 1598,
      "souv": 1599,
      "écri": 1600,
      "égard": 1601,
      "espér": 1602,
      "choisi": 1603,
      "pron": 1604,
      "dites": 1605,
      "tremb": 1606,
      "cherch": 1607,
      "enseign": 1608,
      "Galaad": 1609,
      "bonté": 1610,
      "meur": 1611,
      "rom": 1612,
      "Édom": 1613,
      "ernac": 1614,
      "voyant": 1615,
      "mots": 1616,
      "entrer": 1617,
      "trompet": 1618,
      "Ézéchias": 1619,
      "boire": 1620,
      "croi": 1621,
      "ima": 1622,
      "sas": 1623,
      "rece": 1624,
      "atte": 1625,
      "seulement": 1626,
      "tabernac": 1627,
      "pè": 1628,
      "rons": 1629,
      "sois": 1630,
      "Écou": 1631,
      "ari": 1632,
      "passer": 1633,
      "amour": 1634,
      "sup": 1635,
      "sorte": 1636,
      "prends": 1637,
      "pronon": 1638,
      "sage": 1639,
      "dira": 1640,
      "donnera": 1641,
      "répan": 1642,
      "visage": 1643,
      "trouve": 1644,
      "septième": 1645,
      "ennemi": 1646,
      "mourut": 1647,
      "sainte": 1648,
      "Baal": 1649,
      "règne": 1650,
      "cav": 1651,
      "mor": 1652,
      "lequel": 1653,
      "années": 1654,
      "cip": 1655,
      "disait": 1656,
      "rassas": 1657,
      "trouvé": 1658,
      "Assyrie": 1659,
      "Afin": 1660,
      "Tes": 1661,
      "gers": 1662,
      "lois": 1663,
      "escla": 1664,
      "rejet": 1665,
      "entra": 1666,
      "apparti": 1667,
      "proch": 1668,
      "animaux": 1669,
      "fureur": 1670,
      "ordonnances": 1671,
      "Bala": 1672,
      "Va": 1673,
      "ire": 1674,
      "extré": 1675,
      "accompl": 1676,
      "chevaux": 1677,
      "manière": 1678,
      "tés": 1679,
      "tend": 1680,
      "vas": 1681,
      "nourrit": 1682,
      "nouvelle": 1683,
      "Mes": 1684,
      "Élis": 1685,
      "étais": 1686,
      "ats": 1687,
      "consa": 1688,
      "répondirent": 1689,
      "célé": 1690,
      "entendre": 1691,
      "holocaustes": 1692,
      "suite": 1693,
      "issez": 1694,
      "quiconque": 1695,
      "dée": 1696,
      "justes": 1697,
      "chercher": 1698,
      "chars": 1699,
      "appelé": 1700,
      "éloign": 1701,
      "âmes": 1702,
      "siè": 1703,
      "virent": 1704,
      "Quel": 1705,
      "posses": 1706,
      "prépar": 1707,
      "petit": 1708,
      "Ammon": 1709,
      "torrent": 1710,
      "étendu": 1711,
      "diras": 1712,
      "disent": 1713,
      "devint": 1714,
      "plusieurs": 1715,
      "chaz": 1716,
      "arrivé": 1717,
      "Samarie": 1718,
      "princes": 1719,
      "tabernacle": 1720,
      "lèrent": 1721,
      "étu": 1722,
      "vigne": 1723,
      "gueur": 1724,
      "saints": 1725,
      "faite": 1726,
      "dévor": 1727,
      "ents": 1728,
      "eurent": 1729,
      "termin": 1730,
      "dénombre": 1731,
      "conse": 1732,
      "phar": 1733,
      "forte": 1734,
      "tresse": 1735,
      "frappa": 1736,
      "abond": 1737,
      "dénombrement": 1738,
      "yr": 1739,
      "ène": 1740,
      "neu": 1741,
      "auras": 1742,
      "ouvra": 1743,
      "prie": 1744,
      "connu": 1745,
      "soeur": 1746,
      "captifs": 1747,
      "Jonathan": 1748,
      "nourriture": 1749,
      "lité": 1750,
      "soyez": 1751,
      "vant": 1752,
      "aute": 1753,
      "sions": 1754,
      "lion": 1755,
      "détourn": 1756,
      "pal": 1757,
      "sis": 1758,
      "éti": 1759,
      "élè": 1760,
      "lec": 1761,
      "enter": 1762,
      "décla": 1763,
      "viennent": 1764,
      "irrit": 1765,
      "arriva": 1766,
      "petits": 1767,
      "troupeaux": 1768,
      "Aus": 1769,
      "ali": 1770,
      "belle": 1771,
      "sèrent": 1772,
      "dehors": 1773,
      "iller": 1774,
      "tipli": 1775,
      "rière": 1776,
      "abat": 1777,
      "aph": 1778,
      "perp": 1779,
      "venus": 1780,
      "poussi": 1781,
      "mauvais": 1782,
      "pratique": 1783,
      "10": 1784,
      "Fais": 1785,
      "épr": 1786,
      "enir": 1787,
      "invo": 1788,
      "pare": 1789,
      "instru": 1790,
      "demand": 1791,
      "tribus": 1792,
      "circonc": 1793,
      "poussière": 1794,
      "circoncis": 1795,
      "An": 1796,
      "villa": 1797,
      "refu": 1798,
      "ités": 1799,
      "second": 1800,
      "anti": 1801,
      "rion": 1802,
      "mira": 1803,
      "mirent": 1804,
      "oreilles": 1805,
      "multipli": 1806,
      "pitié": 1807,
      "fort": 1808,
      "pouv": 1809,
      "tin": 1810,
      "envi": 1811,
      "ray": 1812,
      "prof": 1813,
      "quels": 1814,
      "quelques": 1815,
      "prière": 1816,
      "sub": 1817,
      "approch": 1818,
      "possession": 1819,
      "vaill": 1820,
      "Élie": 1821,
      "èn": 1822,
      "commis": 1823,
      "uire": 1824,
      "bout": 1825,
      "pains": 1826,
      "oreille": 1827,
      "No": 1828,
      "ures": 1829,
      "antes": 1830,
      "parta": 1831,
      "sicles": 1832,
      "ressus": 1833,
      "coupe": 1834,
      "grandes": 1835,
      "mettr": 1836,
      "Nebu": 1837,
      "trouver": 1838,
      "moisson": 1839,
      "rempli": 1840,
      "fest": 1841,
      "pu": 1842,
      "rav": 1843,
      "ensemble": 1844,
      "revê": 1845,
      "ilà": 1846,
      "détresse": 1847,
      "honte": 1848,
      "banlieu": 1849,
      "gresse": 1850,
      "Li": 1851,
      "cas": 1852,
      "cue": 1853,
      "geur": 1854,
      "poi": 1855,
      "plui": 1856,
      "sit": 1857,
      "parvis": 1858,
      "étend": 1859,
      "attent": 1860,
      "emmen": 1861,
      "biens": 1862,
      "plaie": 1863,
      "lèvres": 1864,
      "effet": 1865,
      "reçu": 1866,
      "allégresse": 1867,
      "bêtes": 1868,
      "éph": 1869,
      "écla": 1870,
      "secr": 1871,
      "orgue": 1872,
      "fidé": 1873,
      "diction": 1874,
      "possé": 1875,
      "écoute": 1876,
      "offrandes": 1877,
      "allèrent": 1878,
      "ran": 1879,
      "tens": 1880,
      "âte": 1881,
      "arde": 1882,
      "chan": 1883,
      "oment": 1884,
      "ustens": 1885,
      "messa": 1886,
      "prendra": 1887,
      "Absal": 1888,
      "publi": 1889,
      "prochain": 1890,
      "ustensiles": 1891,
      "Absalom": 1892,
      "Ton": 1893,
      "ffi": 1894,
      "jà": 1895,
      "sè": 1896,
      "dure": 1897,
      "cident": 1898,
      "appris": 1899,
      "gnifi": 1900,
      "piè": 1901,
      "prophét": 1902,
      "azar": 1903,
      "Ésaü": 1904,
      "Bar": 1905,
      "aan": 1906,
      "but": 1907,
      "honne": 1908,
      "auront": 1909,
      "inu": 1910,
      "vic": 1911,
      "iront": 1912,
      "vec": 1913,
      "souver": 1914,
      "tentrion": 1915,
      "rendit": 1916,
      "septentrion": 1917,
      "troupeau": 1918,
      "doit": 1919,
      "honneur": 1920,
      "Avec": 1921,
      "fasse": 1922,
      "iez": 1923,
      "ola": 1924,
      "vue": 1925,
      "ève": 1926,
      "illé": 1927,
      "mépris": 1928,
      "bruit": 1929,
      "Jéroboam": 1930,
      "prison": 1931,
      "fond": 1932,
      "détruit": 1933,
      "Az": 1934,
      "Son": 1935,
      "blé": 1936,
      "entière": 1937,
      "disaient": 1938,
      "péri": 1939,
      "agit": 1940,
      "espérance": 1941,
      "Ces": 1942,
      "Mar": 1943,
      "fête": 1944,
      "chas": 1945,
      "iras": 1946,
      "apport": 1947,
      "occident": 1948,
      "partirent": 1949,
      "servir": 1950,
      "Toute": 1951,
      "humil": 1952,
      "aise": 1953,
      "anne": 1954,
      "ancet": 1955,
      "méchancet": 1956,
      "affer": 1957,
      "volonté": 1958,
      "génération": 1959,
      "12": 1960,
      "bap": 1961,
      "cè": 1962,
      "ien": 1963,
      "chem": 1964,
      "andis": 1965,
      "Égyptiens": 1966,
      "béni": 1967,
      "nombreux": 1968,
      "connaissance": 1969,
      "vêtement": 1970,
      "domin": 1971,
      "derrière": 1972,
      "jugement": 1973,
      "viendront": 1974,
      "regards": 1975,
      "qué": 1976,
      "secours": 1977,
      "passé": 1978,
      "déjà": 1979,
      "osse": 1980,
      "derni": 1981,
      "Achab": 1982,
      "oiseaux": 1983,
      "pharis": 1984,
      "pluie": 1985,
      "fidélité": 1986,
      "Moi": 1987,
      "ache": 1988,
      "vrai": 1989,
      "zième": 1990,
      "arbre": 1991,
      "fix": 1992,
      "levé": 1993,
      "famine": 1994,
      "rocher": 1995,
      "agneau": 1996,
      "prophétis": 1997,
      "souverain": 1998,
      "méchanceté": 1999,
      "Per": 2000,
      "Schi": 2001,
      "ages": 2002,
      "gle": 2003,
      "tran": 2004,
      "moins": 2005,
      "érieur": 2006,
      "pagn": 2007,
      "porta": 2008,
      "ania": 2009,
      "Du": 2010,
      "Me": 2011,
      "Ta": 2012,
      "Vo": 2013,
      "gouver": 2014,
      "nés": 2015,
      "armes": 2016,
      "ensuite": 2017,
      "accor": 2018,
      "partie": 2019,
      "célébr": 2020,
      "bét": 2021,
      "nets": 2022,
      "od": 2023,
      "aimé": 2024,
      "indi": 2025,
      "mélec": 2026,
      "plan": 2027,
      "cadnets": 2028,
      "Nebucadnets": 2029,
      "bétail": 2030,
      "Nebucadnetsar": 2031,
      "Ke": 2032,
      "Lève": 2033,
      "oli": 2034,
      "som": 2035,
      "saient": 2036,
      "laquelle": 2037,
      "sac": 2038,
      "limit": 2039,
      "vienne": 2040,
      "propre": 2041,
      "cherche": 2042,
      "première": 2043,
      "puissant": 2044,
      "étrangers": 2045,
      "longtemps": 2046,
      "fût": 2047,
      "hor": 2048,
      "âge": 2049,
      "neur": 2050,
      "meaux": 2051,
      "extermin": 2052,
      "allait": 2053,
      "Comment": 2054,
      "sépulcre": 2055,
      "banlieue": 2056,
      "Donne": 2057,
      "lo": 2058,
      "asch": 2059,
      "amas": 2060,
      "cience": 2061,
      "couche": 2062,
      "disper": 2063,
      "tenait": 2064,
      "prince": 2065,
      "route": 2066,
      "Canaan": 2067,
      "Élisée": 2068,
      "cam": 2069,
      "mâ": 2070,
      "ith": 2071,
      "territ": 2072,
      "aveu": 2073,
      "diri": 2074,
      "commen": 2075,
      "noms": 2076,
      "Chal": 2077,
      "sauver": 2078,
      "crains": 2079,
      "muraille": 2080,
      "insensé": 2081,
      "victi": 2082,
      "Achi": 2083,
      "faut": 2084,
      "ies": 2085,
      "lerai": 2086,
      "oe": 2087,
      "sta": 2088,
      "ânes": 2089,
      "arbres": 2090,
      "partit": 2091,
      "tris": 2092,
      "continu": 2093,
      "périr": 2094,
      "prix": 2095,
      "plais": 2096,
      "consul": 2097,
      "descendit": 2098,
      "trouva": 2099,
      "fruits": 2100,
      "largeur": 2101,
      "agréable": 2102,
      "fleur": 2103,
      "ija": 2104,
      "chér": 2105,
      "ceau": 2106,
      "gues": 2107,
      "marcher": 2108,
      "bélier": 2109,
      "chantres": 2110,
      "personnes": 2111,
      "nuée": 2112,
      "hauts": 2113,
      "servante": 2114,
      "craign": 2115,
      "taureau": 2116,
      "oeil": 2117,
      "Béth": 2118,
      "Prends": 2119,
      "gés": 2120,
      "éra": 2121,
      "enver": 2122,
      "poursui": 2123,
      "veille": 2124,
      "front": 2125,
      "guéri": 2126,
      "prise": 2127,
      "Josaph": 2128,
      "vision": 2129,
      "colonnes": 2130,
      "conduis": 2131,
      "pouvoir": 2132,
      "observer": 2133,
      "pauvre": 2134,
      "violence": 2135,
      "ouvrage": 2136,
      "territoire": 2137,
      "Josaphat": 2138,
      "Ap": 2139,
      "Asa": 2140,
      "sin": 2141,
      "ude": 2142,
      "aurez": 2143,
      "tement": 2144,
      "conde": 2145,
      "ordres": 2146,
      "faisant": 2147,
      "bâtit": 2148,
      "princip": 2149,
      "égor": 2150,
      "fidèle": 2151,
      "sitôt": 2152,
      "14": 2153,
      "Achaz": 2154,
      "Pendant": 2155,
      "her": 2156,
      "ert": 2157,
      "parlait": 2158,
      "dité": 2159,
      "phth": 2160,
      "ouvri": 2161,
      "exer": 2162,
      "souffr": 2163,
      "renver": 2164,
      "mangerez": 2165,
      "premiers": 2166,
      "Amoré": 2167,
      "yriens": 2168,
      "agneaux": 2169,
      "Jusqu": 2170,
      "vaillants": 2171,
      "pharisiens": 2172,
      "Dis": 2173,
      "Gad": 2174,
      "Na": 2175,
      "Ni": 2176,
      "bord": 2177,
      "dieu": 2178,
      "veut": 2179,
      "chera": 2180,
      "apô": 2181,
      "bron": 2182,
      "fonde": 2183,
      "perpétu": 2184,
      "Ram": 2185,
      "belles": 2186,
      "haute": 2187,
      "rer": 2188,
      "sés": 2189,
      "él": 2190,
      "oux": 2191,
      "lever": 2192,
      "entrai": 2193,
      "train": 2194,
      "déci": 2195,
      "gea": 2196,
      "aper": 2197,
      "mag": 2198,
      "peau": 2199,
      "rencontre": 2200,
      "sauv": 2201,
      "Malheur": 2202,
      "Cette": 2203,
      "chérub": 2204,
      "principaux": 2205,
      "are": 2206,
      "vité": 2207,
      "repo": 2208,
      "auche": 2209,
      "dul": 2210,
      "uine": 2211,
      "répond": 2212,
      "levain": 2213,
      "plain": 2214,
      "visions": 2215,
      "arrive": 2216,
      "vivants": 2217,
      "oubli": 2218,
      "faveur": 2219,
      "trompette": 2220,
      "refuge": 2221,
      "attenti": 2222,
      "Gui": 2223,
      "Han": 2224,
      "Là": 2225,
      "Oui": 2226,
      "Pâ": 2227,
      "Toi": 2228,
      "ruine": 2229,
      "vend": 2230,
      "vang": 2231,
      "serait": 2232,
      "tué": 2233,
      "prodi": 2234,
      "emb": 2235,
      "nommé": 2236,
      "retran": 2237,
      "écouter": 2238,
      "établit": 2239,
      "éternelle": 2240,
      "abominations": 2241,
      "Amoréens": 2242,
      "entrailles": 2243,
      "Pâque": 2244,
      "Dani": 2245,
      "bor": 2246,
      "har": 2247,
      "espè": 2248,
      "seconde": 2249,
      "signe": 2250,
      "miel": 2251,
      "pleine": 2252,
      "fortifi": 2253,
      "malheureux": 2254,
      "plaça": 2255,
      "faisait": 2256,
      "Toutes": 2257,
      "offrir": 2258,
      "enfanta": 2259,
      "iniquités": 2260,
      "besoin": 2261,
      "chambre": 2262,
      "pensées": 2263,
      "curité": 2264,
      "richesses": 2265,
      "esclave": 2266,
      "Daniel": 2267,
      "18": 2268,
      "Gué": 2269,
      "zi": 2270,
      "zer": 2271,
      "îme": 2272,
      "chau": 2273,
      "voit": 2274,
      "enflam": 2275,
      "faits": 2276,
      "ada": 2277,
      "appelle": 2278,
      "recev": 2279,
      "sommet": 2280,
      "Dan": 2281,
      "ila": 2282,
      "sem": 2283,
      "alil": 2284,
      "dépou": 2285,
      "puisque": 2286,
      "Simon": 2287,
      "posé": 2288,
      "ferez": 2289,
      "rendre": 2290,
      "Lévi": 2291,
      "Écoutez": 2292,
      "abondance": 2293,
      "mettras": 2294,
      "Chaldé": 2295,
      "Galil": 2296,
      "cach": 2297,
      "dur": 2298,
      "gauche": 2299,
      "lés": 2300,
      "sy": 2301,
      "ailes": 2302,
      "vier": 2303,
      "Jeh": 2304,
      "paï": 2305,
      "sépar": 2306,
      "advers": 2307,
      "form": 2308,
      "forme": 2309,
      "prophéti": 2310,
      "mités": 2311,
      "oppro": 2312,
      "anéant": 2313,
      "transgres": 2314,
      "défaut": 2315,
      "Ad": 2316,
      "cal": 2317,
      "fosse": 2318,
      "gui": 2319,
      "haï": 2320,
      "jard": 2321,
      "lâ": 2322,
      "pen": 2323,
      "Évang": 2324,
      "las": 2325,
      "arc": 2326,
      "chang": 2327,
      "chance": 2328,
      "ombre": 2329,
      "aver": 2330,
      "restera": 2331,
      "déli": 2332,
      "commet": 2333,
      "graisse": 2334,
      "acc": 2335,
      "longueur": 2336,
      "obs": 2337,
      "quelles": 2338,
      "thi": 2339,
      "paraître": 2340,
      "arrivèrent": 2341,
      "condam": 2342,
      "antique": 2343,
      "messagers": 2344,
      "Chaldéens": 2345,
      "Évangile": 2346,
      "Syriens": 2347,
      "lons": 2348,
      "udi": 2349,
      "ïe": 2350,
      "repent": 2351,
      "isch": 2352,
      "mettrai": 2353,
      "trième": 2354,
      "quatrième": 2355,
      "tomber": 2356,
      "resta": 2357,
      "illar": 2358,
      "remplis": 2359,
      "élevé": 2360,
      "dévas": 2361,
      "trésors": 2362,
      "Balaam": 2363,
      "palais": 2364,
      "subsis": 2365,
      "gouverneur": 2366,
      "opprobre": 2367,
      "Be": 2368,
      "Heure": 2369,
      "cra": 2370,
      "ole": 2371,
      "soin": 2372,
      "scri": 2373,
      "savez": 2374,
      "Élé": 2375,
      "ceaux": 2376,
      "inte": 2377,
      "race": 2378,
      "concer": 2379,
      "peine": 2380,
      "lèver": 2381,
      "coupable": 2382,
      "écoutez": 2383,
      "commence": 2384,
      "Hébron": 2385,
      "couvri": 2386,
      "païens": 2387,
      "Éléazar": 2388,
      "Dé": 2389,
      "Marie": 2390,
      "Rub": 2391,
      "far": 2392,
      "nav": 2393,
      "nag": 2394,
      "savoir": 2395,
      "tal": 2396,
      "âne": 2397,
      "eus": 2398,
      "tié": 2399,
      "sidé": 2400,
      "lise": 2401,
      "déchi": 2402,
      "béné": 2403,
      "droiture": 2404,
      "tombe": 2405,
      "frapper": 2406,
      "reçoi": 2407,
      "confiance": 2408,
      "butin": 2409,
      "entièrement": 2410,
      "Ruben": 2411,
      "Al": 2412,
      "Leurs": 2413,
      "Pause": 2414,
      "cut": 2415,
      "gles": 2416,
      "pir": 2417,
      "van": 2418,
      "envoie": 2419,
      "allu": 2420,
      "moitié": 2421,
      "autor": 2422,
      "tentes": 2423,
      "sortira": 2424,
      "connaît": 2425,
      "empor": 2426,
      "prostern": 2427,
      "arrê": 2428,
      "produit": 2429,
      "suppli": 2430,
      "répandu": 2431,
      "Aussi": 2432,
      "Ji": 2433,
      "Ou": 2434,
      "So": 2435,
      "Zab": 2436,
      "cend": 2437,
      "fes": 2438,
      "flé": 2439,
      "mité": 2440,
      "moment": 2441,
      "avan": 2442,
      "tiers": 2443,
      "tus": 2444,
      "ains": 2445,
      "jeû": 2446,
      "proche": 2447,
      "contr": 2448,
      "montèrent": 2449,
      "Église": 2450,
      "épouv": 2451,
      "détruire": 2452,
      "juré": 2453,
      "orgueil": 2454,
      "Voilà": 2455,
      "Béthel": 2456,
      "Heureux": 2457,
      "Dès": 2458,
      "Job": 2459,
      "Mer": 2460,
      "nul": 2461,
      "rob": 2462,
      "vel": 2463,
      "ême": 2464,
      "enez": 2465,
      "dedans": 2466,
      "erne": 2467,
      "teras": 2468,
      "inno": 2469,
      "rédu": 2470,
      "verge": 2471,
      "coeurs": 2472,
      "expli": 2473,
      "terreur": 2474,
      "livra": 2475,
      "retour": 2476,
      "feront": 2477,
      "béliers": 2478,
      "échap": 2479,
      "issement": 2480,
      "désir": 2481,
      "écl": 2482,
      "herbe": 2483,
      "farine": 2484,
      "Fait": 2485,
      "ajou": 2486,
      "ga": 2487,
      "go": 2488,
      "oiles": 2489,
      "enc": 2490,
      "outra": 2491,
      "ardent": 2492,
      "ition": 2493,
      "révé": 2494,
      "donnée": 2495,
      "veill": 2496,
      "chaî": 2497,
      "oppri": 2498,
      "campèrent": 2499,
      "retourna": 2500,
      "boeuf": 2501,
      "miracles": 2502,
      "Liban": 2503,
      "El": 2504,
      "Non": 2505,
      "bête": 2506,
      "dras": 2507,
      "jal": 2508,
      "lende": 2509,
      "raient": 2510,
      "tère": 2511,
      "recue": 2512,
      "lamp": 2513,
      "lib": 2514,
      "gnez": 2515,
      "phel": 2516,
      "Sichem": 2517,
      "marché": 2518,
      "mettra": 2519,
      "prendras": 2520,
      "rapport": 2521,
      "précep": 2522,
      "tomba": 2523,
      "caché": 2524,
      "Jéhu": 2525,
      "captivité": 2526,
      "statu": 2527,
      "prodiges": 2528,
      "commencement": 2529,
      "lendemain": 2530,
      "Ré": 2531,
      "cée": 2532,
      "kim": 2533,
      "vez": 2534,
      "chande": 2535,
      "ami": 2536,
      "couvre": 2537,
      "arriver": 2538,
      "Abram": 2539,
      "annoncé": 2540,
      "réso": 2541,
      "rassasi": 2542,
      "espèce": 2543,
      "11": 2544,
      "21": 2545,
      "Alle": 2546,
      "adul": 2547,
      "mons": 2548,
      "teur": 2549,
      "égar": 2550,
      "reins": 2551,
      "telle": 2552,
      "amis": 2553,
      "atoire": 2554,
      "dian": 2555,
      "devait": 2556,
      "gardes": 2557,
      "reti": 2558,
      "retent": 2559,
      "malé": 2560,
      "Joas": 2561,
      "brisé": 2562,
      "Abimélec": 2563,
      "salaire": 2564,
      "souffle": 2565,
      "Canané": 2566,
      "chérubins": 2567,
      "Allez": 2568,
      "Bas": 2569,
      "Had": 2570,
      "Sil": 2571,
      "bri": 2572,
      "bal": 2573,
      "gen": 2574,
      "oram": 2575,
      "esti": 2576,
      "trop": 2577,
      "sias": 2578,
      "dite": 2579,
      "mise": 2580,
      "adab": 2581,
      "jeta": 2582,
      "suc": 2583,
      "côtés": 2584,
      "Madian": 2585,
      "descendre": 2586,
      "combattre": 2587,
      "barres": 2588,
      "lettre": 2589,
      "branches": 2590,
      "extrémités": 2591,
      "baptis": 2592,
      "plaisir": 2593,
      "Galilée": 2594,
      "synag": 2595,
      "synago": 2596,
      "Ay": 2597,
      "Lou": 2598,
      "Oh": 2599,
      "Syrie": 2600,
      "pois": 2601,
      "rité": 2602,
      "aban": 2603,
      "croy": 2604,
      "lées": 2605,
      "péch": 2606,
      "venue": 2607,
      "cornes": 2608,
      "Cependant": 2609,
      "renvoy": 2610,
      "envoyés": 2611,
      "prescrit": 2612,
      "faim": 2613,
      "cadav": 2614,
      "abandonné": 2615,
      "Sédéci": 2616,
      "cava": 2617,
      "neuf": 2618,
      "achevé": 2619,
      "Faites": 2620,
      "Sédécias": 2621,
      "cations": 2622,
      "rès": 2623,
      "issant": 2624,
      "tirent": 2625,
      "vivre": 2626,
      "propri": 2627,
      "irrité": 2628,
      "exau": 2629,
      "venez": 2630,
      "forter": 2631,
      "levèrent": 2632,
      "plaine": 2633,
      "sortirent": 2634,
      "approcher": 2635,
      "volont": 2636,
      "prenez": 2637,
      "bases": 2638,
      "limite": 2639,
      "Sou": 2640,
      "bour": 2641,
      "doc": 2642,
      "four": 2643,
      "gré": 2644,
      "nais": 2645,
      "rang": 2646,
      "âgé": 2647,
      "élève": 2648,
      "îtra": 2649,
      "demain": 2650,
      "orer": 2651,
      "infor": 2652,
      "tient": 2653,
      "rester": 2654,
      "attend": 2655,
      "couché": 2656,
      "compas": 2657,
      "plant": 2658,
      "vieillar": 2659,
      "arrivera": 2660,
      "ailles": 2661,
      "occu": 2662,
      "mangé": 2663,
      "partir": 2664,
      "appelait": 2665,
      "affli": 2666,
      "chambres": 2667,
      "Ésaïe": 2668,
      "devenu": 2669,
      "fidèles": 2670,
      "parfums": 2671,
      "appartient": 2672,
      "apôtres": 2673,
      "jardin": 2674,
      "résolu": 2675,
      "Amen": 2676,
      "Damas": 2677,
      "Gé": 2678,
      "Jéri": 2679,
      "Tel": 2680,
      "eût": 2681,
      "gera": 2682,
      "hér": 2683,
      "mou": 2684,
      "mera": 2685,
      "olie": 2686,
      "odeur": 2687,
      "plut": 2688,
      "tandis": 2689,
      "uil": 2690,
      "éleva": 2691,
      "aurai": 2692,
      "rie": 2693,
      "riez": 2694,
      "lia": 2695,
      "révol": 2696,
      "voile": 2697,
      "gren": 2698,
      "guér": 2699,
      "bed": 2700,
      "tenir": 2701,
      "épau": 2702,
      "bataille": 2703,
      "animal": 2704,
      "achet": 2705,
      "Depuis": 2706,
      "laisse": 2707,
      "laisser": 2708,
      "trouvait": 2709,
      "moth": 2710,
      "hauteur": 2711,
      "couvrit": 2712,
      "arrivée": 2713,
      "souvenir": 2714,
      "Louez": 2715,
      "Jéricho": 2716,
      "Zach": 2717,
      "tait": 2718,
      "outre": 2719,
      "deuil": 2720,
      "teaux": 2721,
      "prennent": 2722,
      "pourra": 2723,
      "mesur": 2724,
      "considé": 2725,
      "plein": 2726,
      "juges": 2727,
      "mangera": 2728,
      "mensonge": 2729,
      "mourra": 2730,
      "Parle": 2731,
      "frappé": 2732,
      "détruis": 2733,
      "témoin": 2734,
      "bénit": 2735,
      "villages": 2736,
      "poids": 2737,
      "Cananéens": 2738,
      "22": 2739,
      "Leur": 2740,
      "Zé": 2741,
      "fati": 2742,
      "lance": 2743,
      "mieux": 2744,
      "tail": 2745,
      "quent": 2746,
      "aria": 2747,
      "cein": 2748,
      "riche": 2749,
      "réun": 2750,
      "délivre": 2751,
      "angois": 2752,
      "enfer": 2753,
      "sédu": 2754,
      "ther": 2755,
      "leront": 2756,
      "ferme": 2757,
      "Abner": 2758,
      "saisit": 2759,
      "murs": 2760,
      "descendants": 2761,
      "offrira": 2762,
      "veuve": 2763,
      "blanc": 2764,
      "extrémité": 2765,
      "étendue": 2766,
      "ènerai": 2767,
      "Schime": 2768,
      "enverrai": 2769,
      "scribes": 2770,
      "encens": 2771,
      "13": 2772,
      "Laban": 2773,
      "Pila": 2774,
      "fuite": 2775,
      "hé": 2776,
      "sens": 2777,
      "science": 2778,
      "tar": 2779,
      "teurs": 2780,
      "écu": 2781,
      "aide": 2782,
      "sement": 2783,
      "assur": 2784,
      "quième": 2785,
      "serve": 2786,
      "passa": 2787,
      "allez": 2788,
      "dévou": 2789,
      "mesure": 2790,
      "diront": 2791,
      "ellement": 2792,
      "discours": 2793,
      "crie": 2794,
      "portera": 2795,
      "forêt": 2796,
      "enceinte": 2797,
      "jeté": 2798,
      "habite": 2799,
      "préci": 2800,
      "cinquième": 2801,
      "bonheur": 2802,
      "descendu": 2803,
      "trouvaient": 2804,
      "établis": 2805,
      "empê": 2806,
      "promesse": 2807,
      "couvert": 2808,
      "ressuscité": 2809,
      "adversaires": 2810,
      "autorité": 2811,
      "Basan": 2812,
      "Pilate": 2813,
      "Pren": 2814,
      "Psau": 2815,
      "Sara": 2816,
      "Très": 2817,
      "Viens": 2818,
      "can": 2819,
      "dons": 2820,
      "mait": 2821,
      "vaut": 2822,
      "delà": 2823,
      "rection": 2824,
      "rebelles": 2825,
      "relâ": 2826,
      "chu": 2827,
      "meil": 2828,
      "avanc": 2829,
      "état": 2830,
      "uses": 2831,
      "donnés": 2832,
      "perdu": 2833,
      "uits": 2834,
      "pect": 2835,
      "agi": 2836,
      "courage": 2837,
      "seule": 2838,
      "écouté": 2839,
      "enseigne": 2840,
      "aïm": 2841,
      "jugements": 2842,
      "rues": 2843,
      "réjouis": 2844,
      "jeunesse": 2845,
      "interdit": 2846,
      "unique": 2847,
      "source": 2848,
      "consacré": 2849,
      "préceptes": 2850,
      "Har": 2851,
      "Joram": 2852,
      "Tsa": 2853,
      "aja": 2854,
      "faux": 2855,
      "hem": 2856,
      "jada": 2857,
      "debout": 2858,
      "illi": 2859,
      "racont": 2860,
      "serpent": 2861,
      "ateur": 2862,
      "cifi": 2863,
      "éro": 2864,
      "coucha": 2865,
      "magnifi": 2866,
      "aca": 2867,
      "portion": 2868,
      "instant": 2869,
      "observ": 2870,
      "retir": 2871,
      "laissé": 2872,
      "livrer": 2873,
      "intérieur": 2874,
      "résis": 2875,
      "dochée": 2876,
      "interro": 2877,
      "Béni": 2878,
      "image": 2879,
      "olation": 2880,
      "Mardochée": 2881,
      "Jeho": 2882,
      "épouvante": 2883,
      "propriété": 2884,
      "Zacharie": 2885,
      "Prenez": 2886,
      "Ah": 2887,
      "Sans": 2888,
      "cieu": 2889,
      "gal": 2890,
      "pun": 2891,
      "vont": 2892,
      "îtr": 2893,
      "îmes": 2894,
      "aimés": 2895,
      "arra": 2896,
      "chants": 2897,
      "destin": 2898,
      "salu": 2899,
      "serment": 2900,
      "monte": 2901,
      "convo": 2902,
      "chaï": 2903,
      "voyez": 2904,
      "Joja": 2905,
      "Josias": 2906,
      "sauve": 2907,
      "occas": 2908,
      "gémis": 2909,
      "justifi": 2910,
      "oppres": 2911,
      "prosterna": 2912,
      "larmes": 2913,
      "malade": 2914,
      "campa": 2915,
      "aperç": 2916,
      "chandelier": 2917,
      "cavaliers": 2918,
      "précipit": 2919,
      "Psaume": 2920,
      "Kir": 2921,
      "Tyr": 2922,
      "dois": 2923,
      "hath": 2924,
      "lant": 2925,
      "sil": 2926,
      "quin": 2927,
      "entende": 2928,
      "lesquelles": 2929,
      "atth": 2930,
      "dirai": 2931,
      "Isma": 2932,
      "provin": 2933,
      "dispar": 2934,
      "voient": 2935,
      "cro": 2936,
      "permis": 2937,
      "soif": 2938,
      "trie": 2939,
      "trine": 2940,
      "courut": 2941,
      "plac": 2942,
      "rendrai": 2943,
      "cheveux": 2944,
      "détourne": 2945,
      "raison": 2946,
      "bâtir": 2947,
      "Schéba": 2948,
      "siècles": 2949,
      "anneaux": 2950,
      "naissance": 2951,
      "occasion": 2952,
      "Avant": 2953,
      "Rab": 2954,
      "Sat": 2955,
      "Tsi": 2956,
      "eja": 2957,
      "tables": 2958,
      "uc": 2959,
      "écr": 2960,
      "aiment": 2961,
      "chers": 2962,
      "assent": 2963,
      "celles": 2964,
      "proie": 2965,
      "lune": 2966,
      "vignes": 2967,
      "ator": 2968,
      "coucher": 2969,
      "crime": 2970,
      "habitaient": 2971,
      "Nephth": 2972,
      "lèvera": 2973,
      "sauvé": 2974,
      "vase": 2975,
      "charité": 2976,
      "saintes": 2977,
      "frappe": 2978,
      "command": 2979,
      "allés": 2980,
      "royaumes": 2981,
      "approcha": 2982,
      "profan": 2983,
      "partage": 2984,
      "ffici": 2985,
      "innocent": 2986,
      "Satan": 2987,
      "Haut": 2988,
      "Plus": 2989,
      "Roboam": 2990,
      "crois": 2991,
      "folie": 2992,
      "mante": 2993,
      "ues": 2994,
      "quator": 2995,
      "reine": 2996,
      "oign": 2997,
      "lesquels": 2998,
      "sec": 2999,
      "sel": 3000,
      "incirconcis": 3001,
      "ontre": 3002,
      "pourpre": 3003,
      "passe": 3004,
      "aba": 3005,
      "endur": 3006,
      "venait": 3007,
      "venge": 3008,
      "retom": 3009,
      "Esther": 3010,
      "charge": 3011,
      "joug": 3012,
      "laissa": 3013,
      "autels": 3014,
      "dixième": 3015,
      "bâtis": 3016,
      "voulu": 3017,
      "nudité": 3018,
      "entrera": 3019,
      "commandement": 3020,
      "arrêt": 3021,
      "prenant": 3022,
      "abomination": 3023,
      "Guil": 3024,
      "conseil": 3025,
      "Noé": 3026,
      "semence": 3027,
      "bénédiction": 3028,
      "Jiz": 3029,
      "velop": 3030,
      "89": 3031,
      "Sid": 3032,
      "flam": 3033,
      "nord": 3034,
      "ventre": 3035,
      "éter": 3036,
      "quant": 3037,
      "chir": 3038,
      "chois": 3039,
      "filet": 3040,
      "enfui": 3041,
      "gner": 3042,
      "méon": 3043,
      "Siméon": 3044,
      "tham": 3045,
      "battit": 3046,
      "troupes": 3047,
      "courir": 3048,
      "Quiconque": 3049,
      "offrit": 3050,
      "ruines": 3051,
      "conduite": 3052,
      "dok": 3053,
      "Bethlé": 3054,
      "éternellement": 3055,
      "offrirez": 3056,
      "taureaux": 3057,
      "boit": 3058,
      "vases": 3059,
      "village": 3060,
      "ravag": 3061,
      "Zabu": 3062,
      "Tsadok": 3063,
      "Jehojada": 3064,
      "Nephthali": 3065,
      "Bo": 3066,
      "Pr": 3067,
      "kija": 3068,
      "tam": 3069,
      "envelop": 3070,
      "rep": 3071,
      "reu": 3072,
      "entier": 3073,
      "cel": 3074,
      "ceci": 3075,
      "étoiles": 3076,
      "osée": 3077,
      "gros": 3078,
      "pleins": 3079,
      "exécu": 3080,
      "fortes": 3081,
      "position": 3082,
      "faisaient": 3083,
      "saisis": 3084,
      "sortis": 3085,
      "présents": 3086,
      "cert": 3087,
      "dents": 3088,
      "manifest": 3089,
      "pauvres": 3090,
      "huitième": 3091,
      "prostituée": 3092,
      "culp": 3093,
      "cherchent": 3094,
      "victime": 3095,
      "éclair": 3096,
      "malédiction": 3097,
      "Zabulon": 3098,
      "39": 3099,
      "Garde": 3100,
      "Mits": 3101,
      "Nathan": 3102,
      "bonnes": 3103,
      "flè": 3104,
      "savons": 3105,
      "vaise": 3106,
      "Écrit": 3107,
      "élé": 3108,
      "ébran": 3109,
      "revint": 3110,
      "parab": 3111,
      "ramen": 3112,
      "siens": 3113,
      "tume": 3114,
      "abord": 3115,
      "déon": 3116,
      "délivré": 3117,
      "Issa": 3118,
      "mices": 3119,
      "prières": 3120,
      "voyage": 3121,
      "épines": 3122,
      "demeu": 3123,
      "autrefois": 3124,
      "prémices": 3125,
      "saisi": 3126,
      "fonctions": 3127,
      "moqu": 3128,
      "appelés": 3129,
      "tomberont": 3130,
      "connaissent": 3131,
      "détru": 3132,
      "témoins": 3133,
      "aza": 3134,
      "ouvert": 3135,
      "mauvaise": 3136,
      "intelligent": 3137,
      "bouclier": 3138,
      "Écoute": 3139,
      "éprouv": 3140,
      "environ": 3141,
      "éphod": 3142,
      "Azaria": 3143,
      "Guibe": 3144,
      "talents": 3145,
      "Gédéon": 3146,
      "Jer": 3147,
      "Laisse": 3148,
      "Sin": 3149,
      "nité": 3150,
      "uy": 3151,
      "êtres": 3152,
      "ilité": 3153,
      "entendit": 3154,
      "lavera": 3155,
      "assez": 3156,
      "sacer": 3157,
      "amin": 3158,
      "osch": 3159,
      "propres": 3160,
      "confus": 3161,
      "compagn": 3162,
      "contrée": 3163,
      "exc": 3164,
      "tenu": 3165,
      "bath": 3166,
      "posa": 3167,
      "glai": 3168,
      "emport": 3169,
      "fleuves": 3170,
      "peste": 3171,
      "boucs": 3172,
      "consumé": 3173,
      "crucifi": 3174,
      "Haman": 3175,
      "meurtri": 3176,
      "trompettes": 3177,
      "élèvera": 3178,
      "festin": 3179,
      "haïs": 3180,
      "ardente": 3181,
      "poissons": 3182,
      "héros": 3183,
      "guéris": 3184,
      "ceinture": 3185,
      "silence": 3186,
      "Sidon": 3187,
      "Bethléhem": 3188,
      "sacerdo": 3189,
      "40": 3190,
      "Gath": 3191,
      "Héro": 3192,
      "Ret": 3193,
      "lines": 3194,
      "vieux": 3195,
      "enlevé": 3196,
      "andé": 3197,
      "etés": 3198,
      "aupar": 3199,
      "seins": 3200,
      "signifi": 3201,
      "atsi": 3202,
      "paître": 3203,
      "embras": 3204,
      "chameaux": 3205,
      "the": 3206,
      "retourne": 3207,
      "agis": 3208,
      "battu": 3209,
      "sauter": 3210,
      "rendra": 3211,
      "suivi": 3212,
      "voud": 3213,
      "annoncer": 3214,
      "nouvelles": 3215,
      "traité": 3216,
      "maladi": 3217,
      "cèdre": 3218,
      "Guibea": 3219,
      "auparavant": 3220,
      "Aux": 3221,
      "Con": 3222,
      "Contre": 3223,
      "Héth": 3224,
      "Rach": 3225,
      "Sau": 3226,
      "puits": 3227,
      "èvre": 3228,
      "oni": 3229,
      "oure": 3230,
      "lets": 3231,
      "reel": 3232,
      "lapi": 3233,
      "eunu": 3234,
      "change": 3235,
      "ressort": 3236,
      "démons": 3237,
      "vive": 3238,
      "apprit": 3239,
      "peuvent": 3240,
      "marcha": 3241,
      "istra": 3242,
      "souillé": 3243,
      "habitent": 3244,
      "collines": 3245,
      "sauront": 3246,
      "douleur": 3247,
      "esprits": 3248,
      "portent": 3249,
      "dome": 3250,
      "pensée": 3251,
      "sold": 3252,
      "objets": 3253,
      "éclat": 3254,
      "posséde": 3255,
      "frontière": 3256,
      "conduisit": 3257,
      "navi": 3258,
      "reçoit": 3259,
      "Sodome": 3260,
      "échapper": 3261,
      "compassion": 3262,
      "Schimeï": 3263,
      "Ismaël": 3264,
      "manteau": 3265,
      "Ac": 3266,
      "Gue": 3267,
      "Hor": 3268,
      "Nab": 3269,
      "Nach": 3270,
      "Neth": 3271,
      "he": 3272,
      "hâte": 3273,
      "ip": 3274,
      "tèrent": 3275,
      "têtes": 3276,
      "demi": 3277,
      "chassé": 3278,
      "tuer": 3279,
      "line": 3280,
      "libre": 3281,
      "abel": 3282,
      "viande": 3283,
      "verront": 3284,
      "digne": 3285,
      "donneras": 3286,
      "ouvre": 3287,
      "pécher": 3288,
      "souil": 3289,
      "autant": 3290,
      "plai": 3291,
      "lèpre": 3292,
      "mangeras": 3293,
      "entendis": 3294,
      "accompagn": 3295,
      "effray": 3296,
      "brûlera": 3297,
      "sixième": 3298,
      "barque": 3299,
      "délivrer": 3300,
      "Isaï": 3301,
      "craignez": 3302,
      "insensés": 3303,
      "favor": 3304,
      "déclaré": 3305,
      "demanda": 3306,
      "approchèrent": 3307,
      "tranqu": 3308,
      "chute": 3309,
      "Jizreel": 3310,
      "Rachel": 3311,
      "Asaph": 3312,
      "Cés": 3313,
      "Di": 3314,
      "Ké": 3315,
      "Koré": 3316,
      "bais": 3317,
      "dan": 3318,
      "fa": 3319,
      "fe": 3320,
      "jath": 3321,
      "pend": 3322,
      "écar": 3323,
      "degr": 3324,
      "nez": 3325,
      "chon": 3326,
      "chass": 3327,
      "pardonne": 3328,
      "tien": 3329,
      "étendit": 3330,
      "verrez": 3331,
      "Quelle": 3332,
      "voeu": 3333,
      "maî": 3334,
      "conç": 3335,
      "convoi": 3336,
      "donnèrent": 3337,
      "sécurité": 3338,
      "impudi": 3339,
      "trouvèrent": 3340,
      "Puissant": 3341,
      "louanges": 3342,
      "marchent": 3343,
      "châtiment": 3344,
      "sources": 3345,
      "esclaves": 3346,
      "Balak": 3347,
      "Kehath": 3348,
      "vanité": 3349,
      "supplications": 3350,
      "vieillards": 3351,
      "angoisse": 3352,
      "César": 3353,
      "degrés": 3354,
      "Aser": 3355,
      "Cantique": 3356,
      "Gaba": 3357,
      "bons": 3358,
      "iv": 3359,
      "og": 3360,
      "puni": 3361,
      "tap": 3362,
      "çon": 3363,
      "arro": 3364,
      "aurait": 3365,
      "tein": 3366,
      "orphel": 3367,
      "destru": 3368,
      "tile": 3369,
      "étonn": 3370,
      "sible": 3371,
      "abri": 3372,
      "apporter": 3373,
      "empar": 3374,
      "aussitôt": 3375,
      "monté": 3376,
      "pec": 3377,
      "Judée": 3378,
      "habiter": 3379,
      "rapp": 3380,
      "couronne": 3381,
      "puissante": 3382,
      "Samson": 3383,
      "approche": 3384,
      "retournèrent": 3385,
      "compte": 3386,
      "ramènerai": 3387,
      "croit": 3388,
      "consacr": 3389,
      "fondements": 3390,
      "prophétise": 3391,
      "concerne": 3392,
      "jalous": 3393,
      "fatigu": 3394,
      "éternité": 3395,
      "glaive": 3396,
      "sacerdoce": 3397,
      "Gabaon": 3398,
      "tapis": 3399,
      "Tso": 3400,
      "fl": 3401,
      "faus": 3402,
      "laient": 3403,
      "ette": 3404,
      "chis": 3405,
      "chante": 3406,
      "urrection": 3407,
      "avance": 3408,
      "sachant": 3409,
      "liens": 3410,
      "diff": 3411,
      "moisi": 3412,
      "pay": 3413,
      "pati": 3414,
      "maeja": 3415,
      "profon": 3416,
      "combien": 3417,
      "acqu": 3418,
      "puisse": 3419,
      "formé": 3420,
      "servitude": 3421,
      "milliers": 3422,
      "senti": 3423,
      "mangèrent": 3424,
      "mangeront": 3425,
      "assit": 3426,
      "servantes": 3427,
      "ainement": 3428,
      "brûler": 3429,
      "Guers": 3430,
      "Michée": 3431,
      "oiseau": 3432,
      "persécut": 3433,
      "épha": 3434,
      "aveugle": 3435,
      "perpétuelle": 3436,
      "cramoisi": 3437,
      "contraire": 3438,
      "adultère": 3439,
      "Kirjath": 3440,
      "Issacar": 3441,
      "Ag": 3442,
      "Aï": 3443,
      "Ara": 3444,
      "Ha": 3445,
      "Jab": 3446,
      "Venez": 3447,
      "cs": 3448,
      "dor": 3449,
      "gment": 3450,
      "rera": 3451,
      "somme": 3452,
      "êle": 3453,
      "esses": 3454,
      "lek": 3455,
      "redou": 3456,
      "repous": 3457,
      "lament": 3458,
      "chent": 3459,
      "ordonna": 3460,
      "dessous": 3461,
      "sache": 3462,
      "serais": 3463,
      "songes": 3464,
      "répar": 3465,
      "cesse": 3466,
      "disparaître": 3467,
      "uth": 3468,
      "ouvrit": 3469,
      "gure": 3470,
      "trouvera": 3471,
      "ferons": 3472,
      "livrés": 3473,
      "voulait": 3474,
      "ayez": 3475,
      "porté": 3476,
      "Philip": 3477,
      "illage": 3478,
      "Benaja": 3479,
      "résurrection": 3480,
      "paraît": 3481,
      "arrivés": 3482,
      "manque": 3483,
      "échapp": 3484,
      "suivant": 3485,
      "trésor": 3486,
      "Aussitôt": 3487,
      "abattu": 3488,
      "ressuscit": 3489,
      "secrét": 3490,
      "Achazia": 3491,
      "Hadad": 3492,
      "Silo": 3493,
      "îtront": 3494,
      "Jac": 3495,
      "Matth": 3496,
      "Pe": 3497,
      "bil": 3498,
      "cy": 3499,
      "dos": 3500,
      "fen": 3501,
      "fis": 3502,
      "ize": 3503,
      "ris": 3504,
      "èle": 3505,
      "ète": 3506,
      "ana": 3507,
      "quest": 3508,
      "arom": 3509,
      "aurais": 3510,
      "desseins": 3511,
      "partout": 3512,
      "exhor": 3513,
      "mettez": 3514,
      "tenaient": 3515,
      "jure": 3516,
      "bleu": 3517,
      "vivra": 3518,
      "appeler": 3519,
      "cade": 3520,
      "portant": 3521,
      "entrèrent": 3522,
      "Schaph": 3523,
      "apparut": 3524,
      "secret": 3525,
      "humili": 3526,
      "genoux": 3527,
      "synagogue": 3528,
      "forteresse": 3529,
      "Hérode": 3530,
      "soldats": 3531,
      "favorable": 3532,
      "jalousie": 3533,
      "Jacques": 3534,
      "!...": 3535,
      "19": 3536,
      "Nul": 3537,
      "Sois": 3538,
      "aque": 3539,
      "den": 3540,
      "dîme": 3541,
      "fil": 3542,
      "fourn": 3543,
      "gerai": 3544,
      "ption": 3545,
      "rhe": 3546,
      "Éthi": 3547,
      "étions": 3548,
      "augment": 3549,
      "memb": 3550,
      "ieure": 3551,
      "étonne": 3552,
      "riers": 3553,
      "signes": 3554,
      "tua": 3555,
      "aines": 3556,
      "lions": 3557,
      "dévo": 3558,
      "vide": 3559,
      "verras": 3560,
      "figui": 3561,
      "figure": 3562,
      "dictions": 3563,
      "paternel": 3564,
      "cria": 3565,
      "examin": 3566,
      "cherchez": 3567,
      "guer": 3568,
      "cordes": 3569,
      "retira": 3570,
      "néant": 3571,
      "précieu": 3572,
      "Ensuite": 3573,
      "fumée": 3574,
      "impos": 3575,
      "tombé": 3576,
      "grandeur": 3577,
      "Amatsi": 3578,
      "cheval": 3579,
      "coudée": 3580,
      "doivent": 3581,
      "abandonne": 3582,
      "viendrai": 3583,
      "veulent": 3584,
      "Schemaeja": 3585,
      "instruments": 3586,
      "sèche": 3587,
      "indigent": 3588,
      "explication": 3589,
      "volontaire": 3590,
      "plutôt": 3591,
      "Jojakim": 3592,
      "vengeance": 3593,
      "Guilgal": 3594,
      "Éthio": 3595,
      "membres": 3596,
      "Amatsia": 3597,
      "15": 3598,
      "Urie": 3599,
      "bass": 3600,
      "fé": 3601,
      "fui": 3602,
      "fray": 3603,
      "gre": 3604,
      "gâte": 3605,
      "moy": 3606,
      "stu": 3607,
      "tsa": 3608,
      "dez": 3609,
      "aimer": 3610,
      "ettes": 3611,
      "teront": 3612,
      "parts": 3613,
      "tier": 3614,
      "sicle": 3615,
      "passèrent": 3616,
      "dition": 3617,
      "abîme": 3618,
      "sonn": 3619,
      "récol": 3620,
      "dérob": 3621,
      "vième": 3622,
      "fianc": 3623,
      "cess": 3624,
      "ands": 3625,
      "conser": 3626,
      "irons": 3627,
      "veau": 3628,
      "pire": 3629,
      "plaît": 3630,
      "fuy": 3631,
      "Parmi": 3632,
      "intér": 3633,
      "Auc": 3634,
      "voulut": 3635,
      "assembla": 3636,
      "tombera": 3637,
      "faibles": 3638,
      "obéis": 3639,
      "regardai": 3640,
      "richesse": 3641,
      "Hamath": 3642,
      "recevoir": 3643,
      "attein": 3644,
      "caverne": 3645,
      "neuvième": 3646,
      "mauvaises": 3647,
      "éprouver": 3648,
      "pouvait": 3649,
      "planches": 3650,
      "dirige": 3651,
      "victimes": 3652,
      "perpétuité": 3653,
      "Rama": 3654,
      "transgressions": 3655,
      "Beer": 3656,
      "arrêta": 3657,
      "pécheurs": 3658,
      "épaule": 3659,
      "Mitspa": 3660,
      "Ath": 3661,
      "Cale": 3662,
      "Hes": 3663,
      "Seu": 3664,
      "Uz": 3665,
      "Vos": 3666,
      "bo": 3667,
      "cres": 3668,
      "fra": 3669,
      "ib": 3670,
      "kk": 3671,
      "pât": 3672,
      "tint": 3673,
      "taille": 3674,
      "vérit": 3675,
      "épar": 3676,
      "entré": 3677,
      "secou": 3678,
      "asé": 3679,
      "omph": 3680,
      "orge": 3681,
      "inqui": 3682,
      "sie": 3683,
      "passera": 3684,
      "abais": 3685,
      "réus": 3686,
      "verra": 3687,
      "confu": 3688,
      "gné": 3689,
      "instr": 3690,
      "Cela": 3691,
      "soumis": 3692,
      "Chac": 3693,
      "triomph": 3694,
      "épo": 3695,
      "prendront": 3696,
      "données": 3697,
      "prisonn": 3698,
      "constr": 3699,
      "juger": 3700,
      "envoyèrent": 3701,
      "présenter": 3702,
      "Jébu": 3703,
      "annonce": 3704,
      "louange": 3705,
      "couvrir": 3706,
      "expiatoire": 3707,
      "traite": 3708,
      "Séir": 3709,
      "blan": 3710,
      "répandit": 3711,
      "affermi": 3712,
      "Allons": 3713,
      "Sinaï": 3714,
      "secrétaire": 3715,
      "Caleb": 3716,
      "Adon": 3717,
      "Lui": 3718,
      "Lot": 3719,
      "Mé": 3720,
      "Nos": 3721,
      "Peut": 3722,
      "Soyez": 3723,
      "cence": 3724,
      "iel": 3725,
      "jest": 3726,
      "rosée": 3727,
      "sants": 3728,
      "tonn": 3729,
      "reg": 3730,
      "refus": 3731,
      "seau": 3732,
      "assujet": 3733,
      "orne": 3734,
      "ordonne": 3735,
      "inc": 3736,
      "sable": 3737,
      "passait": 3738,
      "sonne": 3739,
      "amer": 3740,
      "Quoi": 3741,
      "voilà": 3742,
      "majest": 3743,
      "grêle": 3744,
      "montait": 3745,
      "quelconque": 3746,
      "corrom": 3747,
      "sentiers": 3748,
      "rencont": 3749,
      "habits": 3750,
      "sortes": 3751,
      "saurez": 3752,
      "Chroni": 3753,
      "poteaux": 3754,
      "voulez": 3755,
      "travers": 3756,
      "portait": 3757,
      "Maître": 3758,
      "murmur": 3759,
      "descendent": 3760,
      "langues": 3761,
      "paraîtra": 3762,
      "bâtie": 3763,
      "impurs": 3764,
      "semblables": 3765,
      "tribut": 3766,
      "promp": 3767,
      "observe": 3768,
      "châtierai": 3769,
      "regarda": 3770,
      "solit": 3771,
      "Combien": 3772,
      "morceaux": 3773,
      "instruction": 3774,
      "envir": 3775,
      "ènera": 3776,
      "chanan": 3777,
      "horreur": 3778,
      "mâle": 3779,
      "mâles": 3780,
      "sauvés": 3781,
      "enflamma": 3782,
      "libations": 3783,
      "cadavres": 3784,
      "mesura": 3785,
      "navires": 3786,
      "acquis": 3787,
      "Philippe": 3788,
      "Hesbon": 3789,
      "pâtur": 3790,
      "Chroniques": 3791,
      "24": 3792,
      "69": 3793,
      "Ali": 3794,
      "Ama": 3795,
      "Kad": 3796,
      "Mac": 3797,
      "Même": 3798,
      "ates": 3799,
      "sar": 3800,
      "sav": 3801,
      "vesti": 3802,
      "za": 3803,
      "euse": 3804,
      "prenne": 3805,
      "tire": 3806,
      "siez": 3807,
      "récomp": 3808,
      "dise": 3809,
      "accep": 3810,
      "ext": 3811,
      "venant": 3812,
      "vendu": 3813,
      "possè": 3814,
      "supér": 3815,
      "renom": 3816,
      "appli": 3817,
      "moût": 3818,
      "bâton": 3819,
      "Monte": 3820,
      "rachat": 3821,
      "confie": 3822,
      "délivrance": 3823,
      "glorifie": 3824,
      "persév": 3825,
      "dévorera": 3826,
      "enterré": 3827,
      "pareille": 3828,
      "piège": 3829,
      "fixé": 3830,
      "tranchant": 3831,
      "délices": 3832,
      "obscur": 3833,
      "Merari": 3834,
      "veillance": 3835,
      "lampes": 3836,
      "16": 3837,
      "30": 3838,
      "68": 3839,
      "Més": 3840,
      "Ti": 3841,
      "blas": 3842,
      "dai": 3843,
      "joy": 3844,
      "oph": 3845,
      "çait": 3846,
      "ézer": 3847,
      "remis": 3848,
      "sements": 3849,
      "aspect": 3850,
      "prête": 3851,
      "dessé": 3852,
      "parcour": 3853,
      "tique": 3854,
      "duquel": 3855,
      "serons": 3856,
      "alentour": 3857,
      "démon": 3858,
      "ends": 3859,
      "direz": 3860,
      "voleur": 3861,
      "veilles": 3862,
      "placé": 3863,
      "colline": 3864,
      "portez": 3865,
      "garder": 3866,
      "suivre": 3867,
      "livrerai": 3868,
      "traver": 3869,
      "adressa": 3870,
      "avantage": 3871,
      "maudit": 3872,
      "banni": 3873,
      "conduit": 3874,
      "créé": 3875,
      "élevés": 3876,
      "réjouissent": 3877,
      "tribun": 3878,
      "berger": 3879,
      "amena": 3880,
      "demeures": 3881,
      "sépulcres": 3882,
      "oublie": 3883,
      "frappera": 3884,
      "irriter": 3885,
      "orgueille": 3886,
      "dernier": 3887,
      "continuellement": 3888,
      "obscurité": 3889,
      "Souviens": 3890,
      "assurance": 3891,
      "flèches": 3892,
      "meurtrier": 3893,
      "signifie": 3894,
      "aromates": 3895,
      "figuier": 3896,
      "blasph": 3897,
      "Ga": 3898,
      "Hil": 3899,
      "Pro": 3900,
      "Tar": 3901,
      "coin": 3902,
      "cera": 3903,
      "pense": 3904,
      "onction": 3905,
      "remit": 3906,
      "cependant": 3907,
      "pru": 3908,
      "parents": 3909,
      "rameaux": 3910,
      "tiend": 3911,
      "tuèrent": 3912,
      "abas": 3913,
      "abilité": 3914,
      "déser": 3915,
      "déchir": 3916,
      "diable": 3917,
      "disais": 3918,
      "crimes": 3919,
      "froment": 3920,
      "Sihon": 3921,
      "pria": 3922,
      "jette": 3923,
      "posèrent": 3924,
      "Églis": 3925,
      "précieux": 3926,
      "Devant": 3927,
      "rendirent": 3928,
      "sortie": 3929,
      "célè": 3930,
      "Léa": 3931,
      "offert": 3932,
      "présenta": 3933,
      "puissants": 3934,
      "affaire": 3935,
      "faible": 3936,
      "effroi": 3937,
      "tromper": 3938,
      "retourner": 3939,
      "prosterner": 3940,
      "Thé": 3941,
      "désire": 3942,
      "fussent": 3943,
      "bergers": 3944,
      "déshon": 3945,
      "couverture": 3946,
      "Mica": 3947,
      "demander": 3948,
      "deurs": 3949,
      "écrivit": 3950,
      "Quelques": 3951,
      "aveugles": 3952,
      "tristes": 3953,
      "craignent": 3954,
      "souffrances": 3955,
      "chancel": 3956,
      "subsiste": 3957,
      "meilleur": 3958,
      "oppress": 3959,
      "maîtres": 3960,
      "sommeil": 3961,
      "Seulement": 3962,
      "Chacun": 3963,
      "Églises": 3964,
      "20": 3965,
      "Ex": 3966,
      "Mau": 3967,
      "Obed": 3968,
      "Telle": 3969,
      "Vois": 3970,
      "gèrent": 3971,
      "gts": 3972,
      "mérit": 3973,
      "purent": 3974,
      "în": 3975,
      "reconnais": 3976,
      "entret": 3977,
      "entôt": 3978,
      "euses": 3979,
      "arrach": 3980,
      "iste": 3981,
      "invit": 3982,
      "nelle": 3983,
      "poursuiv": 3984,
      "servent": 3985,
      "prolon": 3986,
      "distin": 3987,
      "crurent": 3988,
      "ador": 3989,
      "pétrie": 3990,
      "dalia": 3991,
      "tempête": 3992,
      "levée": 3993,
      "Jochanan": 3994,
      "bec": 3995,
      "Chaque": 3996,
      "habitait": 3997,
      "appui": 3998,
      "battirent": 3999,
      "précé": 4000,
      "coups": 4001,
      "coupes": 4002,
      "chargés": 4003,
      "royale": 4004,
      "présentèrent": 4005,
      "travaux": 4006,
      "portaient": 4007,
      "allons": 4008,
      "détrui": 4009,
      "détruite": 4010,
      "descendirent": 4011,
      "brûla": 4012,
      "brûlé": 4013,
      "Hébre": 4014,
      "creus": 4015,
      "lettres": 4016,
      "consumés": 4017,
      "enseigner": 4018,
      "atteint": 4019,
      "élèvent": 4020,
      "Notre": 4021,
      "apportèrent": 4022,
      "observerez": 4023,
      "sinon": 4024,
      "magistra": 4025,
      "attentif": 4026,
      "harpe": 4027,
      "cendre": 4028,
      "quantité": 4029,
      "choisis": 4030,
      "culpabilité": 4031,
      "détruirai": 4032,
      "étonnement": 4033,
      "Amalek": 4034,
      "vestibu": 4035,
      "Hilkija": 4036,
      "17": 4037,
      "Hat": 4038,
      "Kis": 4039,
      "Nia": 4040,
      "Tser": 4041,
      "das": 4042,
      "fla": 4043,
      "faute": 4044,
      "flo": 4045,
      "gée": 4046,
      "join": 4047,
      "loy": 4048,
      "meure": 4049,
      "nabas": 4050,
      "offici": 4051,
      "pâ": 4052,
      "tiles": 4053,
      "uph": 4054,
      "zèle": 4055,
      "ôter": 4056,
      "orte": 4057,
      "mel": 4058,
      "mey": 4059,
      "terres": 4060,
      "racin": 4061,
      "tue": 4062,
      "touchera": 4063,
      "ressemb": 4064,
      "illez": 4065,
      "enfuit": 4066,
      "croyez": 4067,
      "méprise": 4068,
      "bientôt": 4069,
      "corne": 4070,
      "répondre": 4071,
      "précip": 4072,
      "Abis": 4073,
      "coupables": 4074,
      "laisserai": 4075,
      "rochers": 4076,
      "tombent": 4077,
      "tombèrent": 4078,
      "cache": 4079,
      "enfanté": 4080,
      "Philistin": 4081,
      "Juif": 4082,
      "élevée": 4083,
      "manqu": 4084,
      "éloigne": 4085,
      "sabbats": 4086,
      "accomplir": 4087,
      "accomplissement": 4088,
      "atsar": 4089,
      "préparé": 4090,
      "Barnabas": 4091,
      "célébrer": 4092,
      "anéantis": 4093,
      "lampe": 4094,
      "Ayant": 4095,
      "grena": 4096,
      "quinze": 4097,
      "parabole": 4098,
      "sauterelles": 4099,
      "patience": 4100,
      "époque": 4101,
      "Jébusiens": 4102,
      "Niamey": 4103,
      "flots": 4104,
      "31": 4105,
      "41": 4106,
      "At": 4107,
      "Ana": 4108,
      "Hasch": 4109,
      "Loin": 4110,
      "Mach": 4111,
      "Né": 4112,
      "Te": 4113,
      "aî": 4114,
      "cuis": 4115,
      "cerai": 4116,
      "cantique": 4117,
      "ige": 4118,
      "kam": 4119,
      "mys": 4120,
      "tons": 4121,
      "deviendra": 4122,
      "reconn": 4123,
      "inf": 4124,
      "parfaite": 4125,
      "parlerai": 4126,
      "rations": 4127,
      "lure": 4128,
      "pourras": 4129,
      "viers": 4130,
      "cia": 4131,
      "divis": 4132,
      "mier": 4133,
      "projet": 4134,
      "procla": 4135,
      "Carmel": 4136,
      "perte": 4137,
      "portiers": 4138,
      "insul": 4139,
      "prier": 4140,
      "levés": 4141,
      "épis": 4142,
      "trouble": 4143,
      "places": 4144,
      "impl": 4145,
      "droits": 4146,
      "premières": 4147,
      "chargé": 4148,
      "douleurs": 4149,
      "fonte": 4150,
      "suivit": 4151,
      "offre": 4152,
      "beauté": 4153,
      "Puisque": 4154,
      "portèrent": 4155,
      "murailles": 4156,
      "roues": 4157,
      "endez": 4158,
      "citerne": 4159,
      "devenir": 4160,
      "apparence": 4161,
      "pleura": 4162,
      "malades": 4163,
      "meurt": 4164,
      "domination": 4165,
      "sacs": 4166,
      "ouvriers": 4167,
      "souffrance": 4168,
      "Naam": 4169,
      "embus": 4170,
      "chaînes": 4171,
      "recueilli": 4172,
      "disparu": 4173,
      "Écriture": 4174,
      "voudrais": 4175,
      "Guedalia": 4176,
      "arrog": 4177,
      "orphelin": 4178,
      "dévore": 4179,
      "Aucun": 4180,
      "environn": 4181,
      "récompense": 4182,
      "persévér": 4183,
      "tristesse": 4184,
      "Caï": 4185,
      "Nazar": 4186,
      "Ozi": 4187,
      "Ra": 4188,
      "Sera": 4189,
      "fêtes": 4190,
      "farde": 4191,
      "git": 4192,
      "haine": 4193,
      "suit": 4194,
      "tants": 4195,
      "çons": 4196,
      "îles": 4197,
      "espère": 4198,
      "enu": 4199,
      "eniv": 4200,
      "aigle": 4201,
      "ane": 4202,
      "lation": 4203,
      "asses": 4204,
      "inté": 4205,
      "tira": 4206,
      "étuel": 4207,
      "tumul": 4208,
      "libé": 4209,
      "liber": 4210,
      "abs": 4211,
      "surface": 4212,
      "réb": 4213,
      "rési": 4214,
      "répri": 4215,
      "érus": 4216,
      "distribu": 4217,
      "compar": 4218,
      "grin": 4219,
      "crièrent": 4220,
      "uté": 4221,
      "empara": 4222,
      "exauc": 4223,
      "antez": 4224,
      "corbe": 4225,
      "suérus": 4226,
      "vieilles": 4227,
      "troub": 4228,
      "sauva": 4229,
      "conscience": 4230,
      "minist": 4231,
      "céles": 4232,
      "posera": 4233,
      "Assuérus": 4234,
      "paille": 4235,
      "entrés": 4236,
      "employ": 4237,
      "ancien": 4238,
      "asseoir": 4239,
      "Scham": 4240,
      "raisins": 4241,
      "mangea": 4242,
      "viendras": 4243,
      "jurer": 4244,
      "idole": 4245,
      "sainteté": 4246,
      "Jonas": 4247,
      "circon": 4248,
      "vaines": 4249,
      "otal": 4250,
      "croix": 4251,
      "images": 4252,
      "prononcée": 4253,
      "accomplis": 4254,
      "siège": 4255,
      "ouvrages": 4256,
      "perpétuel": 4257,
      "Lib": 4258,
      "détruits": 4259,
      "commença": 4260,
      "élite": 4261,
      "vierge": 4262,
      "couvriras": 4263,
      "allum": 4264,
      "doctrine": 4265,
      "écras": 4266,
      "flamme": 4267,
      "boiteux": 4268,
      "oscheth": 4269,
      "crucifié": 4270,
      "haïssent": 4271,
      "tranquille": 4272,
      "impudicité": 4273,
      "destruction": 4274,
      "Schaphan": 4275,
      "volontairement": 4276,
      "confusion": 4277,
      "majesté": 4278,
      "promptement": 4279,
      "becca": 4280,
      "embuscade": 4281,
      "Ozias": 4282,
      "liberté": 4283,
      "44": 4284,
      "Hur": 4285,
      "Hommes": 4286,
      "Nun": 4287,
      "San": 4288,
      "cèrent": 4289,
      "loint": 4290,
      "oles": 4291,
      "peux": 4292,
      "pillage": 4293,
      "sû": 4294,
      "taient": 4295,
      "tères": 4296,
      "veur": 4297,
      "éni": 4298,
      "écris": 4299,
      "espa": 4300,
      "rem": 4301,
      "revenir": 4302,
      "eue": 4303,
      "eule": 4304,
      "itu": 4305,
      "omi": 4306,
      "terez": 4307,
      "inées": 4308,
      "réve": 4309,
      "vigueur": 4310,
      "Jephth": 4311,
      "voeux": 4312,
      "voiture": 4313,
      "confon": 4314,
      "compl": 4315,
      "gardé": 4316,
      "montrer": 4317,
      "corru": 4318,
      "Judas": 4319,
      "tels": 4320,
      "athar": 4321,
      "impo": 4322,
      "pose": 4323,
      "petite": 4324,
      "allaient": 4325,
      "Lévite": 4326,
      "disciple": 4327,
      "attaquer": 4328,
      "Rebecca": 4329,
      "tourne": 4330,
      "établir": 4331,
      "établirai": 4332,
      "Abiathar": 4333,
      "bénis": 4334,
      "délivrés": 4335,
      "glorifié": 4336,
      "produits": 4337,
      "générations": 4338,
      "Jusques": 4339,
      "Mesch": 4340,
      "détourner": 4341,
      "enterra": 4342,
      "pouvez": 4343,
      "emmena": 4344,
      "pièces": 4345,
      "derniers": 4346,
      "Personne": 4347,
      "repose": 4348,
      "Hanania": 4349,
      "prosternèrent": 4350,
      "quatorze": 4351,
      "demeura": 4352,
      "eunuques": 4353,
      "Jephthé": 4354,
      "34": 4355,
      "Cert": 4356,
      "Dites": 4357,
      "Gom": 4358,
      "Pré": 4359,
      "Rou": 4360,
      "Saul": 4361,
      "Zi": 4362,
      "fau": 4363,
      "gon": 4364,
      "gile": 4365,
      "iatoire": 4366,
      "Élam": 4367,
      "èmes": 4368,
      "esp": 4369,
      "devient": 4370,
      "repas": 4371,
      "reprit": 4372,
      "arim": 4373,
      "auquel": 4374,
      "chap": 4375,
      "chasse": 4376,
      "infidèles": 4377,
      "avis": 4378,
      "parut": 4379,
      "pardonné": 4380,
      "estima": 4381,
      "tienne": 4382,
      "servis": 4383,
      "étang": 4384,
      "rions": 4385,
      "cine": 4386,
      "apprirent": 4387,
      "colon": 4388,
      "coupé": 4389,
      "propit": 4390,
      "toit": 4391,
      "dispu": 4392,
      "pleu": 4393,
      "accorde": 4394,
      "expl": 4395,
      "excel": 4396,
      "puisqu": 4397,
      "chaleur": 4398,
      "réponse": 4399,
      "répondu": 4400,
      "répondra": 4401,
      "marches": 4402,
      "malh": 4403,
      "jetèrent": 4404,
      "Chantez": 4405,
      "nécess": 4406,
      "agir": 4407,
      "épous": 4408,
      "arrière": 4409,
      "plat": 4410,
      "Salu": 4411,
      "chiens": 4412,
      "consolation": 4413,
      "mangent": 4414,
      "mena": 4415,
      "menu": 4416,
      "mourras": 4417,
      "nombreuses": 4418,
      "double": 4419,
      "entendent": 4420,
      "nuages": 4421,
      "glou": 4422,
      "périssent": 4423,
      "engage": 4424,
      "Schu": 4425,
      "travaillé": 4426,
      "Reph": 4427,
      "manifes": 4428,
      "large": 4429,
      "promis": 4430,
      "prêts": 4431,
      "violent": 4432,
      "rassemblèrent": 4433,
      "frappèrent": 4434,
      "torrents": 4435,
      "102": 4436,
      "revêtu": 4437,
      "messager": 4438,
      "méprisé": 4439,
      "limites": 4440,
      "consulter": 4441,
      "plaines": 4442,
      "plainte": 4443,
      "avertis": 4444,
      "libation": 4445,
      "exauce": 4446,
      "provinces": 4447,
      "enfuirent": 4448,
      "Boaz": 4449,
      "Guerschon": 4450,
      "question": 4451,
      "frayeur": 4452,
      "fiancée": 4453,
      "véritable": 4454,
      "amertume": 4455,
      "magistrats": 4456,
      "libéra": 4457,
      "espace": 4458,
      "propitiatoire": 4459,
      "For": 4460,
      "In": 4461,
      "Ze": 4462,
      "cis": 4463,
      "gi": 4464,
      "han": 4465,
      "nan": 4466,
      "nage": 4467,
      "oach": 4468,
      "ploi": 4469,
      "rô": 4470,
      "savait": 4471,
      "sceau": 4472,
      "spir": 4473,
      "èche": 4474,
      "édi": 4475,
      "ess": 4476,
      "escha": 4477,
      "anmoins": 4478,
      "revinrent": 4479,
      "recommand": 4480,
      "ili": 4481,
      "auro": 4482,
      "teigne": 4483,
      "luth": 4484,
      "pourvu": 4485,
      "alité": 4486,
      "toucher": 4487,
      "dia": 4488,
      "dias": 4489,
      "proté": 4490,
      "devons": 4491,
      "devaient": 4492,
      "donnes": 4493,
      "vement": 4494,
      "emm": 4495,
      "mémoi": 4496,
      "montr": 4497,
      "montés": 4498,
      "miséra": 4499,
      "daï": 4500,
      "livres": 4501,
      "forces": 4502,
      "souviens": 4503,
      "reté": 4504,
      "habité": 4505,
      "oyons": 4506,
      "plante": 4507,
      "époux": 4508,
      "épreu": 4509,
      "lèvent": 4510,
      "merveilles": 4511,
      "colom": 4512,
      "sauvera": 4513,
      "Esdras": 4514,
      "vents": 4515,
      "écouta": 4516,
      "écoutent": 4517,
      "commun": 4518,
      "poil": 4519,
      "présentera": 4520,
      "Amnon": 4521,
      "entendirent": 4522,
      "engend": 4523,
      "remplie": 4524,
      "maudis": 4525,
      "illera": 4526,
      "détour": 4527,
      "Schallum": 4528,
      "doine": 4529,
      "doigt": 4530,
      "rachet": 4531,
      "tourment": 4532,
      "allées": 4533,
      "querelles": 4534,
      "Baescha": 4535,
      "délivrera": 4536,
      "boucliers": 4537,
      "observé": 4538,
      "désolation": 4539,
      "rendus": 4540,
      "prostitutions": 4541,
      "rassemblerai": 4542,
      "frappés": 4543,
      "tremblement": 4544,
      "rassasié": 4545,
      "éloigné": 4546,
      "étiez": 4547,
      "invoqué": 4548,
      "forts": 4549,
      "posséd": 4550,
      "bapt": 4551,
      "dispersés": 4552,
      "chancelle": 4553,
      "cadavre": 4554,
      "acheter": 4555,
      "acacia": 4556,
      "campagne": 4557,
      "paternelles": 4558,
      "Adonija": 4559,
      "Kadès": 4560,
      "bannière": 4561,
      "Tarsis": 4562,
      "Nazareth": 4563,
      "ministère": 4564,
      "Certainement": 4565,
      "colonne": 4566,
      "malheurs": 4567,
      "édifi": 4568,
      "aurore": 4569,
      "Hus": 4570,
      "Haza": 4571,
      "Mieux": 4572,
      "Vers": 4573,
      "cand": 4574,
      "cès": 4575,
      "lan": 4576,
      "myr": 4577,
      "pan": 4578,
      "pais": 4579,
      "sté": 4580,
      "scand": 4581,
      "tunique": 4582,
      "éré": 4583,
      "épuis": 4584,
      "enreg": 4585,
      "englou": 4586,
      "onc": 4587,
      "aimait": 4588,
      "revient": 4589,
      "illis": 4590,
      "illent": 4591,
      "argile": 4592,
      "seaux": 4593,
      "omni": 4594,
      "terme": 4595,
      "parlèrent": 4596,
      "aissez": 4597,
      "rile": 4598,
      "amment": 4599,
      "chemise": 4600,
      "apporta": 4601,
      "tache": 4602,
      "enfan": 4603,
      "pervers": 4604,
      "persu": 4605,
      "longue": 4606,
      "pide": 4607,
      "piété": 4608,
      "exéc": 4609,
      "répudi": 4610,
      "chak": 4611,
      "quoique": 4612,
      "leras": 4613,
      "sure": 4614,
      "ypo": 4615,
      "rapporta": 4616,
      "ailli": 4617,
      "aches": 4618,
      "buv": 4619,
      "saisir": 4620,
      "serviront": 4621,
      "trouvent": 4622,
      "livrera": 4623,
      "appelée": 4624,
      "connaissez": 4625,
      "cacher": 4626,
      "Mak": 4627,
      "nuées": 4628,
      "craint": 4629,
      "prescris": 4630,
      "affaires": 4631,
      "écrites": 4632,
      "porteront": 4633,
      "établirent": 4634,
      "offriras": 4635,
      "regarderez": 4636,
      "obéi": 4637,
      "couverte": 4638,
      "purification": 4639,
      "tirer": 4640,
      "sanctifié": 4641,
      "cteur": 4642,
      "pèche": 4643,
      "prononcé": 4644,
      "rejeté": 4645,
      "profané": 4646,
      "mettront": 4647,
      "chanterai": 4648,
      "Baruc": 4649,
      "périront": 4650,
      "chasser": 4651,
      "Perse": 4652,
      "oliviers": 4653,
      "Ramoth": 4654,
      "oublié": 4655,
      "retranché": 4656,
      "dévast": 4657,
      "dévasté": 4658,
      "déchira": 4659,
      "frapperai": 4660,
      "jeûne": 4661,
      "brise": 4662,
      "renvoya": 4663,
      "planté": 4664,
      "province": 4665,
      "Prête": 4666,
      "Sauveur": 4667,
      "souillée": 4668,
      "solitude": 4669,
      "Macé": 4670,
      "extérieur": 4671,
      "orgueilleux": 4672,
      "coins": 4673,
      "Maudit": 4674,
      "Tseru": 4675,
      "estimation": 4676,
      "Hazaël": 4677,
      "stérile": 4678,
      "38": 4679,
      "?...": 4680,
      "Ak": 4681,
      "Gre": 4682,
      "Ken": 4683,
      "Pé": 4684,
      "Ser": 4685,
      "ales": 4686,
      "bra": 4687,
      "cau": 4688,
      "gaz": 4689,
      "olé": 4690,
      "pure": 4691,
      "renfer": 4692,
      "soyons": 4693,
      "tance": 4694,
      "tard": 4695,
      "vation": 4696,
      "vallées": 4697,
      "çant": 4698,
      "lace": 4699,
      "aude": 4700,
      "chad": 4701,
      "orac": 4702,
      "desquels": 4703,
      "meau": 4704,
      "parlent": 4705,
      "racon": 4706,
      "tiennent": 4707,
      "rées": 4708,
      "réser": 4709,
      "vivres": 4710,
      "mesch": 4711,
      "division": 4712,
      "geait": 4713,
      "mine": 4714,
      "cesser": 4715,
      "tation": 4716,
      "commettre": 4717,
      "grain": 4718,
      "irré": 4719,
      "médit": 4720,
      "excit": 4721,
      "fini": 4722,
      "bienf": 4723,
      "montre": 4724,
      "maria": 4725,
      "mettent": 4726,
      "levant": 4727,
      "Jotham": 4728,
      "centen": 4729,
      "Phinées": 4730,
      "chien": 4731,
      "Esch": 4732,
      "seuil": 4733,
      "rendent": 4734,
      "assemblèrent": 4735,
      "Astar": 4736,
      "Maaca": 4737,
      "craindre": 4738,
      "entreront": 4739,
      "domine": 4740,
      "servaient": 4741,
      "assié": 4742,
      "iram": 4743,
      "impureté": 4744,
      "reurs": 4745,
      "barbe": 4746,
      "marchera": 4747,
      "prêt": 4748,
      "devenus": 4749,
      "vêtu": 4750,
      "amener": 4751,
      "demeurer": 4752,
      "veuves": 4753,
      "sanctifie": 4754,
      "Schémesch": 4755,
      "culti": 4756,
      "quitta": 4757,
      "quitté": 4758,
      "morceau": 4759,
      "appartiennent": 4760,
      "détourna": 4761,
      "invoqu": 4762,
      "invoque": 4763,
      "cèdres": 4764,
      "Naomi": 4765,
      "calomni": 4766,
      "navire": 4767,
      "avança": 4768,
      "occup": 4769,
      "Zérach": 4770,
      "Plusieurs": 4771,
      "maladie": 4772,
      "Héthiens": 4773,
      "rappel": 4774,
      "fournaise": 4775,
      "Abischaï": 4776,
      "tumulte": 4777,
      "vieillesse": 4778,
      "Meschul": 4779,
      "Rouge": 4780,
      "baptême": 4781,
      "Tseruja": 4782,
      "51": 4783,
      "Dari": 4784,
      "Pous": 4785,
      "Ru": 4786,
      "Tam": 4787,
      "Zor": 4788,
      "achaz": 4789,
      "dar": 4790,
      "flu": 4791,
      "froi": 4792,
      "hait": 4793,
      "hais": 4794,
      "hier": 4795,
      "kin": 4796,
      "tarde": 4797,
      "vée": 4798,
      "Ék": 4799,
      "équ": 4800,
      "ôte": 4801,
      "ûte": 4802,
      "aies": 4803,
      "injustice": 4804,
      "avenir": 4805,
      "parlera": 4806,
      "sacr": 4807,
      "dus": 4808,
      "vions": 4809,
      "divers": 4810,
      "journée": 4811,
      "coulent": 4812,
      "dispersé": 4813,
      "conver": 4814,
      "confes": 4815,
      "grité": 4816,
      "donnerez": 4817,
      "veaux": 4818,
      "jusque": 4819,
      "gnée": 4820,
      "contest": 4821,
      "perver": 4822,
      "gardi": 4823,
      "obe": 4824,
      "obabel": 4825,
      "jeter": 4826,
      "habile": 4827,
      "Joachaz": 4828,
      "boue": 4829,
      "sentier": 4830,
      "Nebath": 4831,
      "prendrai": 4832,
      "placer": 4833,
      "acheté": 4834,
      "chiez": 4835,
      "jugé": 4836,
      "envoyer": 4837,
      "impie": 4838,
      "minis": 4839,
      "nombreuse": 4840,
      "suscit": 4841,
      "vécut": 4842,
      "doux": 4843,
      "laissera": 4844,
      "servira": 4845,
      "commandé": 4846,
      "suivirent": 4847,
      "Aujourd": 4848,
      "tombée": 4849,
      "immon": 4850,
      "purs": 4851,
      "royauté": 4852,
      "attacher": 4853,
      "Regarde": 4854,
      "louerai": 4855,
      "Abija": 4856,
      "comptant": 4857,
      "jura": 4858,
      "bénisse": 4859,
      "délivrerai": 4860,
      "toral": 4861,
      "souffrir": 4862,
      "glorifier": 4863,
      "devenue": 4864,
      "répandrai": 4865,
      "Arnon": 4866,
      "cherchaient": 4867,
      "entraî": 4868,
      "siècle": 4869,
      "Anath": 4870,
      "environs": 4871,
      "poitrine": 4872,
      "Toutefois": 4873,
      "chemins": 4874,
      "prophétisent": 4875,
      "exterminerai": 4876,
      "poursuivirent": 4877,
      "recevra": 4878,
      "prophétie": 4879,
      "Adam": 4880,
      "lèverai": 4881,
      "statues": 4882,
      "rassasiés": 4883,
      "synagogues": 4884,
      "blancs": 4885,
      "magnificence": 4886,
      "résister": 4887,
      "reptiles": 4888,
      "élévation": 4889,
      "pectoral": 4890,
      "redoutable": 4891,
      "précieuses": 4892,
      "récolte": 4893,
      "Hébreux": 4894,
      "racines": 4895,
      "intégrité": 4896,
      "réprim": 4897,
      "Fortifi": 4898,
      "Meschullam": 4899,
      "Darius": 4900,
      "Zorobabel": 4901,
      "49": 4902,
      "55": 4903,
      "Bi": 4904,
      "Bil": 4905,
      "Cyr": 4906,
      "Dont": 4907,
      "Gaza": 4908,
      "Jéth": 4909,
      "Japh": 4910,
      "Met": 4911,
      "Pen": 4912,
      "Rom": 4913,
      "Tse": 4914,
      "cuire": 4915,
      "dront": 4916,
      "fér": 4917,
      "goure": 4918,
      "ha": 4919,
      "imit": 4920,
      "joign": 4921,
      "mri": 4922,
      "mers": 4923,
      "oche": 4924,
      "ots": 4925,
      "pieux": 4926,
      "tort": 4927,
      "élus": 4928,
      "épi": 4929,
      "rebelle": 4930,
      "revenus": 4931,
      "neige": 4932,
      "laver": 4933,
      "lations": 4934,
      "lavé": 4935,
      "chèvre": 4936,
      "seize": 4937,
      "teau": 4938,
      "asper": 4939,
      "prouv": 4940,
      "inrent": 4941,
      "intent": 4942,
      "incré": 4943,
      "rac": 4944,
      "racine": 4945,
      "passeront": 4946,
      "lice": 4947,
      "alon": 4948,
      "abreu": 4949,
      "touche": 4950,
      "départ": 4951,
      "découvert": 4952,
      "dépend": 4953,
      "vigner": 4954,
      "mesures": 4955,
      "endor": 4956,
      "èrement": 4957,
      "monceau": 4958,
      "couper": 4959,
      "fran": 4960,
      "pions": 4961,
      "sées": 4962,
      "lépre": 4963,
      "exh": 4964,
      "Lak": 4965,
      "livrée": 4966,
      "venaient": 4967,
      "guérit": 4968,
      "mettait": 4969,
      "levez": 4970,
      "rail": 4971,
      "raite": 4972,
      "tendu": 4973,
      "renvers": 4974,
      "demandé": 4975,
      "battre": 4976,
      "Abel": 4977,
      "Entre": 4978,
      "mourront": 4979,
      "sortiront": 4980,
      "sortait": 4981,
      "modè": 4982,
      "donnez": 4983,
      "appellera": 4984,
      "Amas": 4985,
      "naï": 4986,
      "nature": 4987,
      "descendait": 4988,
      "affe": 4989,
      "langage": 4990,
      "régner": 4991,
      "illés": 4992,
      "ignor": 4993,
      "attache": 4994,
      "élevait": 4995,
      "réjouit": 4996,
      "Élias": 4997,
      "Éliph": 4998,
      "aimez": 4999,
      "prêtres": 5000,
      "offrirent": 5001,
      "appartenait": 5002,
      "couverts": 5003,
      "dressa": 5004,
      "accomplira": 5005,
      "entourent": 5006,
      "blés": 5007,
      "persécu": 5008,
      "choisira": 5009,
      "éloignés": 5010,
      "conseils": 5011,
      "demandèrent": 5012,
      "approchera": 5013,
      "attention": 5014,
      "chassa": 5015,
      "accord": 5016,
      "olivier": 5017,
      "Achija": 5018,
      "formant": 5019,
      "commettent": 5020,
      "condamn": 5021,
      "désirs": 5022,
      "ajouta": 5023,
      "révélé": 5024,
      "statuts": 5025,
      "mothée": 5026,
      "cannes": 5027,
      "relâche": 5028,
      "gémissements": 5029,
      "quatorzième": 5030,
      "retomber": 5031,
      "exécuter": 5032,
      "compagnons": 5033,
      "Nabal": 5034,
      "Éthiopie": 5035,
      "aséja": 5036,
      "renommée": 5037,
      "Timothée": 5038,
      "célèbre": 5039,
      "mérite": 5040,
      "mystère": 5041,
      "Saluez": 5042,
      "Ékron": 5043,
      "Cyrus": 5044,
      "aspersion": 5045,
      "incrédu": 5046,
      "lépreux": 5047,
      "Bien": 5048,
      "Eh": 5049,
      "Gr": 5050,
      "Hiram": 5051,
      "Mag": 5052,
      "Pér": 5053,
      "Sis": 5054,
      "Tandis": 5055,
      "cen": 5056,
      "cés": 5057,
      "ceur": 5058,
      "ddo": 5059,
      "fre": 5060,
      "gra": 5061,
      "put": 5062,
      "périt": 5063,
      "scep": 5064,
      "zar": 5065,
      "ziens": 5066,
      "Éla": 5067,
      "çà": 5068,
      "esch": 5069,
      "enri": 5070,
      "envie": 5071,
      "enlève": 5072,
      "deviendront": 5073,
      "recher": 5074,
      "reconnu": 5075,
      "nement": 5076,
      "oires": 5077,
      "semé": 5078,
      "issu": 5079,
      "orrhe": 5080,
      "dessein": 5081,
      "terri": 5082,
      "tiré": 5083,
      "étoff": 5084,
      "tuera": 5085,
      "liez": 5086,
      "abou": 5087,
      "toucha": 5088,
      "touché": 5089,
      "délivra": 5090,
      "verges": 5091,
      "auxquels": 5092,
      "cessé": 5093,
      "propos": 5094,
      "dissi": 5095,
      "concu": 5096,
      "existe": 5097,
      "portique": 5098,
      "bine": 5099,
      "peaux": 5100,
      "voyait": 5101,
      "voyaient": 5102,
      "retire": 5103,
      "renon": 5104,
      "rencontr": 5105,
      "habiteront": 5106,
      "centaines": 5107,
      "appuy": 5108,
      "Phéré": 5109,
      "Demain": 5110,
      "menace": 5111,
      "saisirent": 5112,
      "douzième": 5113,
      "douceur": 5114,
      "laissèrent": 5115,
      "mot": 5116,
      "roseau": 5117,
      "présente": 5118,
      "imna": 5119,
      "Asch": 5120,
      "Maaséja": 5121,
      "seuls": 5122,
      "humb": 5123,
      "pousse": 5124,
      "resté": 5125,
      "restes": 5126,
      "remplit": 5127,
      "base": 5128,
      "Héviens": 5129,
      "retournera": 5130,
      "parleras": 5131,
      "marchands": 5132,
      "nourri": 5133,
      "consume": 5134,
      "défense": 5135,
      "usement": 5136,
      "supporter": 5137,
      "rejette": 5138,
      "accomplit": 5139,
      "élèver": 5140,
      "antiques": 5141,
      "trouverez": 5142,
      "public": 5143,
      "affermis": 5144,
      "Votre": 5145,
      "accordé": 5146,
      "guérir": 5147,
      "sinc": 5148,
      "élites": 5149,
      "magici": 5150,
      "accus": 5151,
      "gouverneurs": 5152,
      "soins": 5153,
      "emporta": 5154,
      "outrages": 5155,
      "retiré": 5156,
      "baptisé": 5157,
      "forteresses": 5158,
      "magnifique": 5159,
      "compagnon": 5160,
      "maladies": 5161,
      "Naboth": 5162,
      "guerriers": 5163,
      "fuient": 5164,
      "gâteaux": 5165,
      "intérêt": 5166,
      "réussi": 5167,
      "prisonniers": 5168,
      "possède": 5169,
      "arrogance": 5170,
      "Gomorrhe": 5171,
      "excellent": 5172,
      "esseux": 5173,
      "Makir": 5174,
      "centenier": 5175,
      "Lakis": 5176,
      "concubine": 5177,
      "Aie": 5178,
      "Dem": 5179,
      "Euph": 5180,
      "Hets": 5181,
      "Og": 5182,
      "Oph": 5183,
      "Rendez": 5184,
      "Rimmon": 5185,
      "Suse": 5186,
      "To": 5187,
      "dré": 5188,
      "fabri": 5189,
      "gaï": 5190,
      "hi": 5191,
      "hâ": 5192,
      "hur": 5193,
      "hin": 5194,
      "joth": 5195,
      "nis": 5196,
      "nue": 5197,
      "plu": 5198,
      "rant": 5199,
      "ruis": 5200,
      "roc": 5201,
      "tte": 5202,
      "um": 5203,
      "zabel": 5204,
      "ément": 5205,
      "étein": 5206,
      "este": 5207,
      "onze": 5208,
      "aimes": 5209,
      "aigu": 5210,
      "labou": 5211,
      "chê": 5212,
      "secourir": 5213,
      "omer": 5214,
      "prêtre": 5215,
      "mez": 5216,
      "inaire": 5217,
      "infidèle": 5218,
      "parent": 5219,
      "paral": 5220,
      "paresseux": 5221,
      "nelles": 5222,
      "ridi": 5223,
      "dég": 5224,
      "chevre": 5225,
      "versé": 5226,
      "figues": 5227,
      "divisions": 5228,
      "diffici": 5229,
      "apporte": 5230,
      "éroth": 5231,
      "parez": 5232,
      "malice": 5233,
      "grav": 5234,
      "devez": 5235,
      "donnait": 5236,
      "actes": 5237,
      "accu": 5238,
      "enfon": 5239,
      "enfante": 5240,
      "médite": 5241,
      "sév": 5242,
      "exemp": 5243,
      "former": 5244,
      "maris": 5245,
      "souiller": 5246,
      "than": 5247,
      "battants": 5248,
      "arrivent": 5249,
      "mercen": 5250,
      "prépare": 5251,
      "Abdias": 5252,
      "conspi": 5253,
      "consol": 5254,
      "impies": 5255,
      "vache": 5256,
      "laissez": 5257,
      "poser": 5258,
      "intè": 5259,
      "tombés": 5260,
      "gardent": 5261,
      "itement": 5262,
      "hauteurs": 5263,
      "Jézabel": 5264,
      "capables": 5265,
      "engag": 5266,
      "languis": 5267,
      "conduire": 5268,
      "ignomin": 5269,
      "attaché": 5270,
      "querelle": 5271,
      "chama": 5272,
      "défend": 5273,
      "répandre": 5274,
      "apparu": 5275,
      "Séba": 5276,
      "traits": 5277,
      "agréables": 5278,
      "tends": 5279,
      "aliment": 5280,
      "éprouve": 5281,
      "Anti": 5282,
      "emmené": 5283,
      "emmenèrent": 5284,
      "périra": 5285,
      "apporté": 5286,
      "humilié": 5287,
      "renverse": 5288,
      "apôtre": 5289,
      "repentance": 5290,
      "eussent": 5291,
      "robe": 5292,
      "Elk": 5293,
      "adultères": 5294,
      "informa": 5295,
      "Tels": 5296,
      "taillée": 5297,
      "meilleurs": 5298,
      "consacrées": 5299,
      "examinera": 5300,
      "bassin": 5301,
      "obéissance": 5302,
      "inclin": 5303,
      "pâturage": 5304,
      "Naaman": 5305,
      "Caïn": 5306,
      "Macédoine": 5307,
      "Akisch": 5308,
      "Tamar": 5309,
      "intention": 5310,
      "modèle": 5311,
      "sceptre": 5312,
      "ignominie": 5313,
      "45": 5314,
      "64": 5315,
      "77": 5316,
      "Asie": 5317,
      "Bel": 5318,
      "Cus": 5319,
      "Ho": 5320,
      "Itham": 5321,
      "Sont": 5322,
      "Ts": 5323,
      "Total": 5324,
      "affr": 5325,
      "buis": 5326,
      "cl": 5327,
      "dr": 5328,
      "dèrent": 5329,
      "fleurs": 5330,
      "hont": 5331,
      "hypo": 5332,
      "ka": 5333,
      "pleurs": 5334,
      "vés": 5335,
      "Éloi": 5336,
      "ôta": 5337,
      "enleva": 5338,
      "dera": 5339,
      "demp": 5340,
      "ernes": 5341,
      "red": 5342,
      "reviens": 5343,
      "relève": 5344,
      "recul": 5345,
      "oit": 5346,
      "ardeur": 5347,
      "ituel": 5348,
      "chait": 5349,
      "assou": 5350,
      "innom": 5351,
      "involontairement": 5352,
      "aviez": 5353,
      "rate": 5354,
      "tro": 5355,
      "trui": 5356,
      "pourrait": 5357,
      "tués": 5358,
      "passage": 5359,
      "pasteurs": 5360,
      "abia": 5361,
      "sures": 5362,
      "dépl": 5363,
      "coutume": 5364,
      "profit": 5365,
      "gras": 5366,
      "grais": 5367,
      "donnai": 5368,
      "donnant": 5369,
      "angle": 5370,
      "maines": 5371,
      "action": 5372,
      "fraude": 5373,
      "Levez": 5374,
      "rassembla": 5375,
      "garçon": 5376,
      "montré": 5377,
      "montée": 5378,
      "bro": 5379,
      "cordieux": 5380,
      "répondis": 5381,
      "marchant": 5382,
      "tha": 5383,
      "retors": 5384,
      "jetés": 5385,
      "possible": 5386,
      "bienveillance": 5387,
      "prendrez": 5388,
      "rappe": 5389,
      "court": 5390,
      "prédi": 5391,
      "jugera": 5392,
      "jubil": 5393,
      "Encore": 5394,
      "mensonges": 5395,
      "valeur": 5396,
      "sortent": 5397,
      "offrait": 5398,
      "trafi": 5399,
      "entends": 5400,
      "hum": 5401,
      "poussent": 5402,
      "assise": 5403,
      "étrangères": 5404,
      "adresse": 5405,
      "ouverture": 5406,
      "porteras": 5407,
      "illons": 5408,
      "rug": 5409,
      "captif": 5410,
      "tours": 5411,
      "compter": 5412,
      "marchait": 5413,
      "égare": 5414,
      "miséricordieux": 5415,
      "transport": 5416,
      "observent": 5417,
      "mettrez": 5418,
      "amenèrent": 5419,
      "muet": 5420,
      "Malgré": 5421,
      "tirant": 5422,
      "écria": 5423,
      "tremblent": 5424,
      "rompu": 5425,
      "croient": 5426,
      "conseill": 5427,
      "déclare": 5428,
      "déclarera": 5429,
      "vaillant": 5430,
      "pièce": 5431,
      "anneau": 5432,
      "dernière": 5433,
      "camper": 5434,
      "ânesse": 5435,
      "bords": 5436,
      "informer": 5437,
      "raconta": 5438,
      "destinés": 5439,
      "flammes": 5440,
      "excite": 5441,
      "teintes": 5442,
      "fatigué": 5443,
      "fenêtre": 5444,
      "fenêtres": 5445,
      "blasphé": 5446,
      "chancellent": 5447,
      "Hatsor": 5448,
      "pâture": 5449,
      "projets": 5450,
      "fardeau": 5451,
      "nécessaire": 5452,
      "spirituel": 5453,
      "mémoire": 5454,
      "racheter": 5455,
      "froid": 5456,
      "vignerons": 5457,
      "affection": 5458,
      "Sisera": 5459,
      "Phéréziens": 5460,
      "Euphrate": 5461,
      "Elkana": 5462,
      "Ithamar": 5463,
      "jubilé": 5464,
      "23": 5465,
      "80": 5466,
      "Amon": 5467,
      "Amal": 5468,
      "Aro": 5469,
      "Kar": 5470,
      "Lu": 5471,
      "Laissez": 5472,
      "Ner": 5473,
      "Nini": 5474,
      "Nadab": 5475,
      "Ruth": 5476,
      "Zim": 5477,
      "achev": 5478,
      "cous": 5479,
      "cus": 5480,
      "crée": 5481,
      "effr": 5482,
      "gain": 5483,
      "gage": 5484,
      "ible": 5485,
      "jon": 5486,
      "ko": 5487,
      "mas": 5488,
      "maient": 5489,
      "nar": 5490,
      "ophel": 5491,
      "pê": 5492,
      "san": 5493,
      "sances": 5494,
      "tas": 5495,
      "ument": 5496,
      "utile": 5497,
      "vaches": 5498,
      "Étant": 5499,
      "Éden": 5500,
      "âtre": 5501,
      "ému": 5502,
      "île": 5503,
      "ences": 5504,
      "onzième": 5505,
      "leel": 5506,
      "quèrent": 5507,
      "recherche": 5508,
      "ards": 5509,
      "itophel": 5510,
      "chaus": 5511,
      "melle": 5512,
      "inthe": 5513,
      "parles": 5514,
      "tise": 5515,
      "tiendra": 5516,
      "ieuse": 5517,
      "poursuite": 5518,
      "seraient": 5519,
      "étendra": 5520,
      "lié": 5521,
      "alog": 5522,
      "treillis": 5523,
      "réfu": 5524,
      "rédemp": 5525,
      "amène": 5526,
      "att": 5527,
      "cile": 5528,
      "disposé": 5529,
      "accue": 5530,
      "pidité": 5531,
      "ouvrir": 5532,
      "lég": 5533,
      "excep": 5534,
      "péné": 5535,
      "misère": 5536,
      "istance": 5537,
      "souliers": 5538,
      "chéri": 5539,
      "retraite": 5540,
      "poste": 5541,
      "habiles": 5542,
      "Jok": 5543,
      "Joël": 5544,
      "connue": 5545,
      "beaux": 5546,
      "suff": 5547,
      "néanmoins": 5548,
      "battus": 5549,
      "courent": 5550,
      "prises": 5551,
      "conso": 5552,
      "jugés": 5553,
      "faisons": 5554,
      "fondé": 5555,
      "moquer": 5556,
      "soeurs": 5557,
      "clas": 5558,
      "chacune": 5559,
      "voudra": 5560,
      "travaille": 5561,
      "partis": 5562,
      "nuits": 5563,
      "Asdo": 5564,
      "hud": 5565,
      "servait": 5566,
      "servez": 5567,
      "capit": 5568,
      "assie": 5569,
      "restitu": 5570,
      "roug": 5571,
      "péril": 5572,
      "régnera": 5573,
      "effac": 5574,
      "Héber": 5575,
      "honor": 5576,
      "déta": 5577,
      "loue": 5578,
      "dévoré": 5579,
      "tourbil": 5580,
      "éthiens": 5581,
      "mangez": 5582,
      "promesses": 5583,
      "éga": 5584,
      "Éliab": 5585,
      "Achitophel": 5586,
      "souffre": 5587,
      "suivait": 5588,
      "châtie": 5589,
      "amené": 5590,
      "dressé": 5591,
      "pleurer": 5592,
      "entouraient": 5593,
      "souvent": 5594,
      "tremble": 5595,
      "enseignait": 5596,
      "préparer": 5597,
      "Anne": 5598,
      "refuse": 5599,
      "cède": 5600,
      "bénira": 5601,
      "exterminer": 5602,
      "Donnez": 5603,
      "Achikam": 5604,
      "triste": 5605,
      "enverra": 5606,
      "poursuivit": 5607,
      "embû": 5608,
      "chauff": 5609,
      "formèrent": 5610,
      "Délivre": 5611,
      "bénédictions": 5612,
      "reçoivent": 5613,
      "statue": 5614,
      "retentir": 5615,
      "baptisés": 5616,
      "pécheur": 5617,
      "prescrite": 5618,
      "considéra": 5619,
      "hédr": 5620,
      "enseignement": 5621,
      "oppression": 5622,
      "tambour": 5623,
      "excès": 5624,
      "emportèrent": 5625,
      "Héthien": 5626,
      "Nethania": 5627,
      "écart": 5628,
      "étonnés": 5629,
      "consacrés": 5630,
      "fauss": 5631,
      "profondeurs": 5632,
      "Jabès": 5633,
      "cyprès": 5634,
      "exhorte": 5635,
      "oppresseurs": 5636,
      "vestibule": 5637,
      "officiers": 5638,
      "persévérance": 5639,
      "Seraja": 5640,
      "corbeille": 5641,
      "explorer": 5642,
      "épreuve": 5643,
      "équité": 5644,
      "sacrés": 5645,
      "Anathoth": 5646,
      "Pérets": 5647,
      "Hetsron": 5648,
      "difficile": 5649,
      "Antioche": 5650,
      "conseillers": 5651,
      "narines": 5652,
      "sanhédr": 5653,
      "tourbillon": 5654,
      "sanhédrin": 5655,
      "36": 5656,
      "83": 5657,
      "88": 5658,
      "Aram": 5659,
      "Fati": 5660,
      "Her": 5661,
      "Mets": 5662,
      "Rends": 5663,
      "Sais": 5664,
      "Suc": 5665,
      "Ve": 5666,
      "Vi": 5667,
      "Veux": 5668,
      "cace": 5669,
      "canne": 5670,
      "cantiques": 5671,
      "drez": 5672,
      "fré": 5673,
      "hen": 5674,
      "haz": 5675,
      "ières": 5676,
      "ièmes": 5677,
      "joint": 5678,
      "laine": 5679,
      "lobe": 5680,
      "mun": 5681,
      "meurent": 5682,
      "nit": 5683,
      "noir": 5684,
      "scor": 5685,
      "savaient": 5686,
      "toiles": 5687,
      "vage": 5688,
      "zab": 5689,
      "ètement": 5690,
      "outres": 5691,
      "andi": 5692,
      "reviendront": 5693,
      "chèrent": 5694,
      "ceint": 5695,
      "injur": 5696,
      "infidélité": 5697,
      "intro": 5698,
      "avène": 5699,
      "parure": 5700,
      "tif": 5701,
      "passent": 5702,
      "respl": 5703,
      "réveille": 5704,
      "dédai": 5705,
      "verrai": 5706,
      "die": 5707,
      "moin": 5708,
      "apais": 5709,
      "coth": 5710,
      "Jearim": 5711,
      "coupa": 5712,
      "maï": 5713,
      "provo": 5714,
      "proposition": 5715,
      "conven": 5716,
      "phe": 5717,
      "veiller": 5718,
      "conti": 5719,
      "méridi": 5720,
      "perfi": 5721,
      "perdre": 5722,
      "téréb": 5723,
      "exil": 5724,
      "répli": 5725,
      "pées": 5726,
      "obtenu": 5727,
      "daja": 5728,
      "réponds": 5729,
      "marqu": 5730,
      "marque": 5731,
      "malgré": 5732,
      "connus": 5733,
      "Égyptien": 5734,
      "ailleurs": 5735,
      "course": 5736,
      "courag": 5737,
      "achè": 5738,
      "Sachez": 5739,
      "ancs": 5740,
      "douce": 5741,
      "dixièmes": 5742,
      "prosp": 5743,
      "direction": 5744,
      "iniens": 5745,
      "traî": 5746,
      "cuve": 5747,
      "restèrent": 5748,
      "heureuse": 5749,
      "rouge": 5750,
      "reçut": 5751,
      "travailla": 5752,
      "Revenez": 5753,
      "tromp": 5754,
      "bâtirent": 5755,
      "manne": 5756,
      "mangeaient": 5757,
      "marchèrent": 5758,
      "nourris": 5759,
      "Thir": 5760,
      "transporta": 5761,
      "ramène": 5762,
      "regardez": 5763,
      "châtiments": 5764,
      "répandra": 5765,
      "traita": 5766,
      "cruche": 5767,
      "purifié": 5768,
      "Scheph": 5769,
      "cherchait": 5770,
      "rompit": 5771,
      "atteign": 5772,
      "prononça": 5773,
      "appartiendra": 5774,
      "accomplît": 5775,
      "pareil": 5776,
      "miracle": 5777,
      "emmenés": 5778,
      "affermit": 5779,
      "vraiment": 5780,
      "exercer": 5781,
      "Niger": 5782,
      "sauvage": 5783,
      "Hanan": 5784,
      "retranche": 5785,
      "harpes": 5786,
      "Guéhaz": 5787,
      "vierges": 5788,
      "changé": 5789,
      "Réveille": 5790,
      "succès": 5791,
      "Ayez": 5792,
      "Oholi": 5793,
      "affliction": 5794,
      "résolution": 5795,
      "descendus": 5796,
      "interrogea": 5797,
      "punis": 5798,
      "convocation": 5799,
      "campagnes": 5800,
      "endurci": 5801,
      "manifesté": 5802,
      "Écritures": 5803,
      "demeurez": 5804,
      "éprouvé": 5805,
      "guérison": 5806,
      "Retourne": 5807,
      "Sauve": 5808,
      "posséderont": 5809,
      "Nachor": 5810,
      "plaies": 5811,
      "échappera": 5812,
      "moyen": 5813,
      "moyens": 5814,
      "Uzza": 5815,
      "blanche": 5816,
      "assujettis": 5817,
      "corromp": 5818,
      "joyeux": 5819,
      "tromperie": 5820,
      "Théman": 5821,
      "înt": 5822,
      "détruira": 5823,
      "précipite": 5824,
      "grenades": 5825,
      "détourné": 5826,
      "Astarté": 5827,
      "flux": 5828,
      "railler": 5829,
      "étoffes": 5830,
      "affran": 5831,
      "déploy": 5832,
      "Amaléc": 5833,
      "Ninive": 5834,
      "Succoth": 5835,
      "introdu": 5836,
      "avènement": 5837,
      "convenable": 5838,
      "méridion": 5839,
      "Guéhazi": 5840,
      "48": 5841,
      "59": 5842,
      "Bara": 5843,
      "Mis": 5844,
      "Ob": 5845,
      "Omri": 5846,
      "Pub": 5847,
      "Rép": 5848,
      "Sous": 5849,
      "Suis": 5850,
      "Sem": 5851,
      "Voyez": 5852,
      "fallait": 5853,
      "geront": 5854,
      "ise": 5855,
      "mèrent": 5856,
      "mène": 5857,
      "nob": 5858,
      "pendu": 5859,
      "sculp": 5860,
      "schak": 5861,
      "vus": 5862,
      "yrien": 5863,
      "zare": 5864,
      "ède": 5865,
      "èse": 5866,
      "èvres": 5867,
      "deau": 5868,
      "demie": 5869,
      "leth": 5870,
      "revenu": 5871,
      "reviendra": 5872,
      "revenez": 5873,
      "entendra": 5874,
      "chatsar": 5875,
      "urim": 5876,
      "ortez": 5877,
      "terras": 5878,
      "parfait": 5879,
      "satis": 5880,
      "tie": 5881,
      "tige": 5882,
      "pourront": 5883,
      "riel": 5884,
      "sid": 5885,
      "simp": 5886,
      "vivent": 5887,
      "vigoure": 5888,
      "ateurs": 5889,
      "verses": 5890,
      "filets": 5891,
      "dignes": 5892,
      "gez": 5893,
      "monument": 5894,
      "pagne": 5895,
      "coureurs": 5896,
      "mage": 5897,
      "maats": 5898,
      "profonde": 5899,
      "tax": 5900,
      "distance": 5901,
      "phim": 5902,
      "compris": 5903,
      "comprendre": 5904,
      "pleure": 5905,
      "gnons": 5906,
      "empres": 5907,
      "vite": 5908,
      "nommée": 5909,
      "exploi": 5910,
      "adorer": 5911,
      "Lazare": 5912,
      "montra": 5913,
      "cherché": 5914,
      "brèche": 5915,
      "voyag": 5916,
      "ulc": 5917,
      "Cher": 5918,
      "agité": 5919,
      "rendez": 5920,
      "demment": 5921,
      "habitèrent": 5922,
      "telles": 5923,
      "appes": 5924,
      "achath": 5925,
      "chib": 5926,
      "jugerai": 5927,
      "moururent": 5928,
      "charbons": 5929,
      "jouis": 5930,
      "sortant": 5931,
      "crites": 5932,
      "potier": 5933,
      "livrèrent": 5934,
      "jambes": 5935,
      "immo": 5936,
      "Montez": 5937,
      "hautains": 5938,
      "ensevel": 5939,
      "vues": 5940,
      "tises": 5941,
      "poussa": 5942,
      "restent": 5943,
      "roule": 5944,
      "ruse": 5945,
      "Éphèse": 5946,
      "attachée": 5947,
      "travailler": 5948,
      "travaillent": 5949,
      "créa": 5950,
      "louer": 5951,
      "doigts": 5952,
      "élevèrent": 5953,
      "racheté": 5954,
      "rachetés": 5955,
      "réjouissez": 5956,
      "lettes": 5957,
      "bénirai": 5958,
      "promen": 5959,
      "éternelles": 5960,
      "consumées": 5961,
      "souffert": 5962,
      "généalog": 5963,
      "dragon": 5964,
      "sanctifier": 5965,
      "sanctifiés": 5966,
      "Schéla": 5967,
      "voisins": 5968,
      "enseignant": 5969,
      "romp": 5970,
      "répandirent": 5971,
      "Baals": 5972,
      "morte": 5973,
      "éloigner": 5974,
      "instructions": 5975,
      "circoncision": 5976,
      "multiplierai": 5977,
      "commises": 5978,
      "trouveras": 5979,
      "ravage": 5980,
      "pièges": 5981,
      "détruites": 5982,
      "chasserai": 5983,
      "disperserai": 5984,
      "commencé": 5985,
      "Achimaats": 5986,
      "consulta": 5987,
      "poursuivre": 5988,
      "Asaël": 5989,
      "égorgera": 5990,
      "renversé": 5991,
      "concern": 5992,
      "répandue": 5993,
      "réduis": 5994,
      "goût": 5995,
      "vieillard": 5996,
      "révolte": 5997,
      "considéré": 5998,
      "quinzième": 5999,
      "Rabschak": 6000,
      "retomb": 6001,
      "certain": 6002,
      "paraboles": 6003,
      "eunuque": 6004,
      "Horon": 6005,
      "payer": 6006,
      "augmente": 6007,
      "bassins": 6008,
      "savent": 6009,
      "aneel": 6010,
      "sauvages": 6011,
      "céleste": 6012,
      "circonci": 6013,
      "Libna": 6014,
      "Rephaïm": 6015,
      "colombe": 6016,
      "myrrhe": 6017,
      "bienfait": 6018,
      "Éliaschib": 6019,
      "terrible": 6020,
      "honteux": 6021,
      "excepté": 6022,
      "embûches": 6023,
      "Rabschaké": 6024,
      "81": 6025,
      "Bu": 6026,
      "Bet": 6027,
      "Eux": 6028,
      "Fr": 6029,
      "Hore": 6030,
      "Men": 6031,
      "Mont": 6032,
      "Néth": 6033,
      "Ori": 6034,
      "Peu": 6035,
      "Réc": 6036,
      "Tsal": 6037,
      "fur": 6038,
      "fri": 6039,
      "gine": 6040,
      "geras": 6041,
      "honn": 6042,
      "kla": 6043,
      "mai": 6044,
      "nid": 6045,
      "plon": 6046,
      "spl": 6047,
      "tè": 6048,
      "tais": 6049,
      "érent": 6050,
      "ër": 6051,
      "ïr": 6052,
      "ïla": 6053,
      "oncle": 6054,
      "ouff": 6055,
      "devienne": 6056,
      "aile": 6057,
      "quait": 6058,
      "reconnaître": 6059,
      "reviennent": 6060,
      "entoure": 6061,
      "auraient": 6062,
      "chapp": 6063,
      "chettes": 6064,
      "omb": 6065,
      "ormais": 6066,
      "prét": 6067,
      "pardon": 6068,
      "pardonner": 6069,
      "parlant": 6070,
      "luge": 6071,
      "sachiez": 6072,
      "duth": 6073,
      "poursuit": 6074,
      "rideau": 6075,
      "elon": 6076,
      "tremp": 6077,
      "treize": 6078,
      "réchapp": 6079,
      "défaite": 6080,
      "déposa": 6081,
      "déluge": 6082,
      "viez": 6083,
      "attris": 6084,
      "vert": 6085,
      "apportera": 6086,
      "Jeduth": 6087,
      "procur": 6088,
      "dispos": 6089,
      "discer": 6090,
      "pher": 6091,
      "composé": 6092,
      "angles": 6093,
      "exac": 6094,
      "puiser": 6095,
      "bija": 6096,
      "briller": 6097,
      "chagrin": 6098,
      "istent": 6099,
      "voyons": 6100,
      "soupire": 6101,
      "levai": 6102,
      "plaire": 6103,
      "usage": 6104,
      "tenez": 6105,
      "sentence": 6106,
      "reni": 6107,
      "Abin": 6108,
      "saura": 6109,
      "atha": 6110,
      "constru": 6111,
      "consola": 6112,
      "impétu": 6113,
      "gén": 6114,
      "saison": 6115,
      "servirent": 6116,
      "serviras": 6117,
      "soli": 6118,
      "vivante": 6119,
      "intendant": 6120,
      "ubines": 6121,
      "voulons": 6122,
      "cupidité": 6123,
      "descends": 6124,
      "gerbes": 6125,
      "restait": 6126,
      "péris": 6127,
      "baal": 6128,
      "santé": 6129,
      "reçurent": 6130,
      "Héno": 6131,
      "Héman": 6132,
      "Schob": 6133,
      "attachés": 6134,
      "cordeau": 6135,
      "briserai": 6136,
      "traiter": 6137,
      "traiterai": 6138,
      "glorieux": 6139,
      "Abigaï": 6140,
      "confient": 6141,
      "marchaient": 6142,
      "Thimna": 6143,
      "arros": 6144,
      "arrête": 6145,
      "ramas": 6146,
      "désign": 6147,
      "Manoach": 6148,
      "regardé": 6149,
      "solen": 6150,
      "concubines": 6151,
      "purifie": 6152,
      "purifier": 6153,
      "cteurs": 6154,
      "publier": 6155,
      "prostitution": 6156,
      "boiras": 6157,
      "souvint": 6158,
      "trembler": 6159,
      "Élischama": 6160,
      "Quelqu": 6161,
      "dévorent": 6162,
      "palmes": 6163,
      "enterr": 6164,
      "irrite": 6165,
      "pouvaient": 6166,
      "tinrent": 6167,
      "banlieues": 6168,
      "éclater": 6169,
      "Keïla": 6170,
      "premièrement": 6171,
      "Achimélec": 6172,
      "ânesses": 6173,
      "chérubin": 6174,
      "reposer": 6175,
      "attentifs": 6176,
      "attentivement": 6177,
      "Guéba": 6178,
      "ziel": 6179,
      "thiel": 6180,
      "subsister": 6181,
      "lèveront": 6182,
      "déchiré": 6183,
      "gagner": 6184,
      "volontaires": 6185,
      "resteront": 6186,
      "taillées": 6187,
      "dévoué": 6188,
      "Saraï": 6189,
      "serpents": 6190,
      "salue": 6191,
      "aperçut": 6192,
      "croître": 6193,
      "Rabbi": 6194,
      "tamment": 6195,
      "baisa": 6196,
      "fection": 6197,
      "chassèrent": 6198,
      "convoitises": 6199,
      "Césarée": 6200,
      "différ": 6201,
      "différent": 6202,
      "cymb": 6203,
      "Éthiopi": 6204,
      "gâteau": 6205,
      "tonnerre": 6206,
      "refusé": 6207,
      "prudent": 6208,
      "flat": 6209,
      "Sanchéri": 6210,
      "persua": 6211,
      "Grecs": 6212,
      "réservé": 6213,
      "Rubén": 6214,
      "exhort": 6215,
      "Amasa": 6216,
      "magiciens": 6217,
      "Tobija": 6218,
      "mercenaire": 6219,
      "intègre": 6220,
      "Aroër": 6221,
      "pénétr": 6222,
      "Asdod": 6223,
      "également": 6224,
      "sidère": 6225,
      "exploits": 6226,
      "appesant": 6227,
      "Néthiniens": 6228,
      "Orient": 6229,
      "Récab": 6230,
      "réchappés": 6231,
      "Jeduthun": 6232,
      "Abigaïl": 6233,
      "Sanchérib": 6234,
      "92": 6235,
      "Ai": 6236,
      "Amaria": 6237,
      "Ber": 6238,
      "Caper": 6239,
      "Fem": 6240,
      "Heth": 6241,
      "Jisch": 6242,
      "Scha": 6243,
      "Selon": 6244,
      "Thab": 6245,
      "Trois": 6246,
      "bul": 6247,
      "dad": 6248,
      "dence": 6249,
      "fît": 6250,
      "hob": 6251,
      "kia": 6252,
      "lances": 6253,
      "mol": 6254,
      "net": 6255,
      "pti": 6256,
      "rous": 6257,
      "rendant": 6258,
      "sors": 6259,
      "vô": 6260,
      "Écris": 6261,
      "âtes": 6262,
      "ènent": 6263,
      "üm": 6264,
      "enlèvera": 6265,
      "enlevés": 6266,
      "deviennent": 6267,
      "queue": 6268,
      "autrui": 6269,
      "semaines": 6270,
      "ours": 6271,
      "teint": 6272,
      "ora": 6273,
      "ores": 6274,
      "infi": 6275,
      "avions": 6276,
      "sachez": 6277,
      "unné": 6278,
      "étin": 6279,
      "passant": 6280,
      "passés": 6281,
      "pasteur": 6282,
      "liqu": 6283,
      "song": 6284,
      "surveillance": 6285,
      "rég": 6286,
      "réserve": 6287,
      "cipa": 6288,
      "vertu": 6289,
      "divi": 6290,
      "diad": 6291,
      "divin": 6292,
      "dimin": 6293,
      "geons": 6294,
      "montera": 6295,
      "oindras": 6296,
      "Jeph": 6297,
      "coule": 6298,
      "couleur": 6299,
      "vole": 6300,
      "maternel": 6301,
      "prote": 6302,
      "proches": 6303,
      "provisions": 6304,
      "contemp": 6305,
      "comb": 6306,
      "complainte": 6307,
      "donnent": 6308,
      "pleines": 6309,
      "crié": 6310,
      "enfu": 6311,
      "gnité": 6312,
      "perd": 6313,
      "perdra": 6314,
      "adan": 6315,
      "pénè": 6316,
      "montaient": 6317,
      "oba": 6318,
      "vingts": 6319,
      "vengeur": 6320,
      "forma": 6321,
      "priez": 6322,
      "mette": 6323,
      "malin": 6324,
      "oyant": 6325,
      "Cham": 6326,
      "rende": 6327,
      "demandes": 6328,
      "habitera": 6329,
      "habiterez": 6330,
      "fermé": 6331,
      "fermer": 6332,
      "sauras": 6333,
      "fumier": 6334,
      "impure": 6335,
      "minadab": 6336,
      "rendait": 6337,
      "Jah": 6338,
      "Jaïr": 6339,
      "particu": 6340,
      "céens": 6341,
      "rognons": 6342,
      "poseront": 6343,
      "prospér": 6344,
      "connaissons": 6345,
      "puissantes": 6346,
      "naquit": 6347,
      "naüm": 6348,
      "iteaux": 6349,
      "tiste": 6350,
      "pressoir": 6351,
      "ouverte": 6352,
      "blessure": 6353,
      "Rehob": 6354,
      "réjouir": 6355,
      "établies": 6356,
      "brisés": 6357,
      "Moabites": 6358,
      "endeur": 6359,
      "règle": 6360,
      "quart": 6361,
      "ronces": 6362,
      "châtiés": 6363,
      "Jonadab": 6364,
      "prenait": 6365,
      "vaincu": 6366,
      "uniques": 6367,
      "Mical": 6368,
      "Malkija": 6369,
      "pleurant": 6370,
      "Scheb": 6371,
      "culte": 6372,
      "rassemblés": 6373,
      "pouvons": 6374,
      "moissonn": 6375,
      "étends": 6376,
      "étendait": 6377,
      "périrent": 6378,
      "célébrerai": 6379,
      "indig": 6380,
      "ithub": 6381,
      "commencèrent": 6382,
      "continuait": 6383,
      "craignait": 6384,
      "égorge": 6385,
      "magas": 6386,
      "besoins": 6387,
      "chaudi": 6388,
      "adversaire": 6389,
      "couvrira": 6390,
      "jeûn": 6391,
      "outrage": 6392,
      "chaîne": 6393,
      "opprimé": 6394,
      "arriveront": 6395,
      "malédictions": 6396,
      "Silas": 6397,
      "docteurs": 6398,
      "retirer": 6399,
      "Jojakin": 6400,
      "justifié": 6401,
      "entendez": 6402,
      "croch": 6403,
      "Tsiba": 6404,
      "écrou": 6405,
      "endurcit": 6406,
      "ravagé": 6407,
      "certaine": 6408,
      "ramena": 6409,
      "Sidoniens": 6410,
      "changea": 6411,
      "sentinelle": 6412,
      "Matthania": 6413,
      "précieuse": 6414,
      "épargn": 6415,
      "tonnerres": 6416,
      "ornements": 6417,
      "rencontra": 6418,
      "pâturages": 6419,
      "giti": 6420,
      "énig": 6421,
      "corrupti": 6422,
      "chapiteaux": 6423,
      "épouse": 6424,
      "manifeste": 6425,
      "misérables": 6426,
      "engendré": 6427,
      "Poussez": 6428,
      "publicains": 6429,
      "hiver": 6430,
      "ruisseaux": 6431,
      "prédication": 6432,
      "réfug": 6433,
      "Hermon": 6434,
      "zabad": 6435,
      "Thirtsa": 6436,
      "Amalécites": 6437,
      "Barak": 6438,
      "Horeb": 6439,
      "splendeur": 6440,
      "Hénoc": 6441,
      "cymbales": 6442,
      "Rubénites": 6443,
      "Capernaüm": 6444,
      "infir": 6445,
      "Jephunné": 6446,
      "46": 6447,
      "Agar": 6448,
      "Abed": 6449,
      "Bap": 6450,
      "Bani": 6451,
      "Beau": 6452,
      "Cons": 6453,
      "Dét": 6454,
      "Deux": 6455,
      "Fest": 6456,
      "Jis": 6457,
      "Kér": 6458,
      "Mil": 6459,
      "Rien": 6460,
      "Tsur": 6461,
      "alie": 6462,
      "akim": 6463,
      "bir": 6464,
      "cte": 6465,
      "ceras": 6466,
      "ddu": 6467,
      "fendu": 6468,
      "fassent": 6469,
      "gin": 6470,
      "jo": 6471,
      "jailli": 6472,
      "kach": 6473,
      "los": 6474,
      "meule": 6475,
      "pil": 6476,
      "pâte": 6477,
      "sème": 6478,
      "scel": 6479,
      "tances": 6480,
      "tuniques": 6481,
      "vaine": 6482,
      "xès": 6483,
      "ya": 6484,
      "èdes": 6485,
      "éach": 6486,
      "îtrai": 6487,
      "ôté": 6488,
      "essa": 6489,
      "ennes": 6490,
      "enchante": 6491,
      "onde": 6492,
      "oui": 6493,
      "erait": 6494,
      "erais": 6495,
      "erxès": 6496,
      "aib": 6497,
      "relever": 6498,
      "reviendrai": 6499,
      "entendant": 6500,
      "armés": 6501,
      "chom": 6502,
      "chons": 6503,
      "chèvres": 6504,
      "seigne": 6505,
      "astre": 6506,
      "asso": 6507,
      "asservis": 6508,
      "cez": 6509,
      "ina": 6510,
      "avi": 6511,
      "quirent": 6512,
      "aison": 6513,
      "aissent": 6514,
      "sat": 6515,
      "saddu": 6516,
      "libres": 6517,
      "alis": 6518,
      "révo": 6519,
      "réflé": 6520,
      "déb": 6521,
      "dér": 6522,
      "débor": 6523,
      "découvriras": 6524,
      "attente": 6525,
      "cime": 6526,
      "onné": 6527,
      "verdure": 6528,
      "fig": 6529,
      "dicace": 6530,
      "mia": 6531,
      "cessa": 6532,
      "profond": 6533,
      "phins": 6534,
      "phib": 6535,
      "commer": 6536,
      "comprenez": 6537,
      "devins": 6538,
      "devinrent": 6539,
      "erach": 6540,
      "donneront": 6541,
      "crimi": 6542,
      "Lequel": 6543,
      "contra": 6544,
      "contenir": 6545,
      "crut": 6546,
      "permit": 6547,
      "exal": 6548,
      "adrac": 6549,
      "portions": 6550,
      "bier": 6551,
      "forment": 6552,
      "correction": 6553,
      "marqué": 6554,
      "souci": 6555,
      "soupir": 6556,
      "théra": 6557,
      "semblera": 6558,
      "Églon": 6559,
      "tenté": 6560,
      "noces": 6561,
      "viste": 6562,
      "épais": 6563,
      "Nego": 6564,
      "sortez": 6565,
      "fermes": 6566,
      "console": 6567,
      "impuni": 6568,
      "feuilles": 6569,
      "rendaient": 6570,
      "sortiras": 6571,
      "charpent": 6572,
      "laissent": 6573,
      "écoutait": 6574,
      "pot": 6575,
      "chacal": 6576,
      "Autre": 6577,
      "immen": 6578,
      "Ammi": 6579,
      "nazi": 6580,
      "pureté": 6581,
      "cale": 6582,
      "tribulations": 6583,
      "affaib": 6584,
      "jugez": 6585,
      "assiéra": 6586,
      "restés": 6587,
      "restaient": 6588,
      "adressant": 6589,
      "ouverts": 6590,
      "brûlée": 6591,
      "honore": 6592,
      "Schadrac": 6593,
      "trompeu": 6594,
      "louent": 6595,
      "couvrent": 6596,
      "élevaient": 6597,
      "bâtira": 6598,
      "tourter": 6599,
      "creux": 6600,
      "confir": 6601,
      "échut": 6602,
      "pesant": 6603,
      "bénir": 6604,
      "bénissez": 6605,
      "Éliézer": 6606,
      "Éliakim": 6607,
      "prêté": 6608,
      "marchepied": 6609,
      "orientale": 6610,
      "Achithub": 6611,
      "regarder": 6612,
      "répandent": 6613,
      "désormais": 6614,
      "fidèlement": 6615,
      "prenaient": 6616,
      "Arri": 6617,
      "Arpa": 6618,
      "Artax": 6619,
      "Guesch": 6620,
      "produis": 6621,
      "mariée": 6622,
      "obéissent": 6623,
      "pleurèrent": 6624,
      "tourna": 6625,
      "tournés": 6626,
      "Béla": 6627,
      "Béré": 6628,
      "quitter": 6629,
      "rassembler": 6630,
      "choisie": 6631,
      "enseigné": 6632,
      "meurtre": 6633,
      "prononcer": 6634,
      "rassasier": 6635,
      "appartiend": 6636,
      "éloigna": 6637,
      "Ammonites": 6638,
      "abattre": 6639,
      "invoquent": 6640,
      "multiplié": 6641,
      "approchent": 6642,
      "approchait": 6643,
      "Nebuzar": 6644,
      "revêtus": 6645,
      "septentrional": 6646,
      "Mephib": 6647,
      "accordée": 6648,
      "dirigea": 6649,
      "craignaient": 6650,
      "conduisirent": 6651,
      "fondement": 6652,
      "vendre": 6653,
      "bordure": 6654,
      "Guézer": 6655,
      "chauve": 6656,
      "semaine": 6657,
      "dépouilles": 6658,
      "Jehiel": 6659,
      "averti": 6660,
      "accusa": 6661,
      "scribe": 6662,
      "emporte": 6663,
      "fléaux": 6664,
      "échappé": 6665,
      "goû": 6666,
      "jaloux": 6667,
      "brig": 6668,
      "balance": 6669,
      "poisson": 6670,
      "exaucé": 6671,
      "compassions": 6672,
      "grenou": 6673,
      "épaules": 6674,
      "détruisit": 6675,
      "perdue": 6676,
      "Tsikla": 6677,
      "choisit": 6678,
      "envelopp": 6679,
      "éclairs": 6680,
      "flèche": 6681,
      "Jerub": 6682,
      "souillure": 6683,
      "facile": 6684,
      "conçu": 6685,
      "Kehathites": 6686,
      "flûte": 6687,
      "Guerschom": 6688,
      "Peor": 6689,
      "favorablement": 6690,
      "fécon": 6691,
      "Athalie": 6692,
      "fraî": 6693,
      "triomphe": 6694,
      "prisonnier": 6695,
      "Méschac": 6696,
      "oppresseur": 6697,
      "Haschabia": 6698,
      "confondus": 6699,
      "Ziph": 6700,
      "espoir": 6701,
      "dispute": 6702,
      "pleuvoir": 6703,
      "luths": 6704,
      "oracles": 6705,
      "gardien": 6706,
      "ministre": 6707,
      "Éliphaz": 6708,
      "gratu": 6709,
      "Demande": 6710,
      "paraly": 6711,
      "chevreau": 6712,
      "buisson": 6713,
      "Zimri": 6714,
      "consoler": 6715,
      "moquerie": 6716,
      "capitale": 6717,
      "prospérité": 6718,
      "magasins": 6719,
      "Baptiste": 6720,
      "Beaucoup": 6721,
      "Festus": 6722,
      "sadducéens": 6723,
      "théraphim": 6724,
      "naziré": 6725,
      "Artaxerxès": 6726,
      "Gueschur": 6727,
      "Nebuzaradan": 6728,
      "Mephiboscheth": 6729,
      "Tsiklag": 6730,
      "42": 6731,
      "56": 6732,
      "60": 6733,
      "65": 6734,
      "85": 6735,
      "Aut": 6736,
      "Cor": 6737,
      "Dor": 6738,
      "Gos": 6739,
      "Hatsar": 6740,
      "Ins": 6741,
      "Jit": 6742,
      "Jam": 6743,
      "Mel": 6744,
      "Nim": 6745,
      "Ora": 6746,
      "Pasch": 6747,
      "Priez": 6748,
      "Souv": 6749,
      "Telles": 6750,
      "Tite": 6751,
      "Uziel": 6752,
      "Vou": 6753,
      "bande": 6754,
      "bach": 6755,
      "baï": 6756,
      "drap": 6757,
      "drait": 6758,
      "dron": 6759,
      "fusa": 6760,
      "foie": 6761,
      "gri": 6762,
      "gli": 6763,
      "hau": 6764,
      "hos": 6765,
      "irez": 6766,
      "ignes": 6767,
      "ibles": 6768,
      "iot": 6769,
      "izième": 6770,
      "lurent": 6771,
      "lanc": 6772,
      "mô": 6773,
      "mû": 6774,
      "nus": 6775,
      "ose": 6776,
      "pav": 6777,
      "pans": 6778,
      "rouv": 6779,
      "seur": 6780,
      "savais": 6781,
      "tée": 6782,
      "Étends": 6783,
      "ènes": 6784,
      "édit": 6785,
      "éens": 6786,
      "évo": 6787,
      "êts": 6788,
      "îtes": 6789,
      "ôtera": 6790,
      "enses": 6791,
      "dek": 6792,
      "quaient": 6793,
      "reprendre": 6794,
      "repens": 6795,
      "revue": 6796,
      "rebâtie": 6797,
      "refusa": 6798,
      "entrent": 6799,
      "lave": 6800,
      "labour": 6801,
      "oile": 6802,
      "itti": 6803,
      "aumô": 6804,
      "secour": 6805,
      "issait": 6806,
      "pourtant": 6807,
      "sers": 6808,
      "étouff": 6809,
      "étoile": 6810,
      "liée": 6811,
      "lices": 6812,
      "rentra": 6813,
      "rentrer": 6814,
      "aler": 6815,
      "abaisse": 6816,
      "sonna": 6817,
      "réconc": 6818,
      "amine": 6819,
      "dément": 6820,
      "dégoût": 6821,
      "dédicace": 6822,
      "attr": 6823,
      "menteur": 6824,
      "menteurs": 6825,
      "fièvre": 6826,
      "diffi": 6827,
      "diverses": 6828,
      "dignité": 6829,
      "uisit": 6830,
      "coq": 6831,
      "Isch": 6832,
      "mim": 6833,
      "voleurs": 6834,
      "toire": 6835,
      "distri": 6836,
      "disposition": 6837,
      "convi": 6838,
      "carnage": 6839,
      "perles": 6840,
      "perfection": 6841,
      "pigeons": 6842,
      "ouvrent": 6843,
      "lémia": 6844,
      "expri": 6845,
      "exposé": 6846,
      "rassemble": 6847,
      "llement": 6848,
      "addan": 6849,
      "breu": 6850,
      "guerres": 6851,
      "gueule": 6852,
      "cordon": 6853,
      "quoiqu": 6854,
      "souvient": 6855,
      "soudain": 6856,
      "soutenir": 6857,
      "soufre": 6858,
      "malfait": 6859,
      "jetant": 6860,
      "Char": 6861,
      "super": 6862,
      "suffi": 6863,
      "agon": 6864,
      "agirai": 6865,
      "visit": 6866,
      "autrement": 6867,
      "anie": 6868,
      "ferma": 6869,
      "fermée": 6870,
      "constamment": 6871,
      "Debir": 6872,
      "Enseigne": 6873,
      "mensong": 6874,
      "ordinaire": 6875,
      "import": 6876,
      "parties": 6877,
      "descendra": 6878,
      "côte": 6879,
      "joue": 6880,
      "laissée": 6881,
      "motif": 6882,
      "poli": 6883,
      "livreras": 6884,
      "vivrez": 6885,
      "intend": 6886,
      "royal": 6887,
      "opér": 6888,
      "tombai": 6889,
      "ayons": 6890,
      "Amram": 6891,
      "naquirent": 6892,
      "calices": 6893,
      "allai": 6894,
      "foulé": 6895,
      "approché": 6896,
      "principa": 6897,
      "yria": 6898,
      "écrits": 6899,
      "assirent": 6900,
      "assiég": 6901,
      "étrangère": 6902,
      "adresser": 6903,
      "héritier": 6904,
      "ancienne": 6905,
      "brûle": 6906,
      "illèrent": 6907,
      "Éphron": 6908,
      "Schel": 6909,
      "création": 6910,
      "créateur": 6911,
      "orifér": 6912,
      "manquer": 6913,
      "parlerez": 6914,
      "échappe": 6915,
      "compat": 6916,
      "trônes": 6917,
      "prêché": 6918,
      "défendu": 6919,
      "suivante": 6920,
      "glorifierai": 6921,
      "désastre": 6922,
      "violente": 6923,
      "amenez": 6924,
      "abominables": 6925,
      "Guér": 6926,
      "musi": 6927,
      "Assyrien": 6928,
      "demeurant": 6929,
      "regardent": 6930,
      "tourner": 6931,
      "tournerai": 6932,
      "aride": 6933,
      "rejetons": 6934,
      "céléb": 6935,
      "préparèrent": 6936,
      "aliments": 6937,
      "illeront": 6938,
      "108": 6939,
      "partager": 6940,
      "moissonneur": 6941,
      "septentrionale": 6942,
      "andises": 6943,
      "prophétisé": 6944,
      "accorda": 6945,
      "odorifér": 6946,
      "mâch": 6947,
      "guérie": 6948,
      "égorger": 6949,
      "140": 6950,
      "ouvrier": 6951,
      "exercerai": 6952,
      "plaintes": 6953,
      "dépouillé": 6954,
      "calme": 6955,
      "eusse": 6956,
      "déchire": 6957,
      "terreurs": 6958,
      "égards": 6959,
      "Ayo": 6960,
      "exauça": 6961,
      "rangées": 6962,
      "angoisses": 6963,
      "avancèrent": 6964,
      "racontèrent": 6965,
      "arrache": 6966,
      "arracher": 6967,
      "convoqua": 6968,
      "arrêtèrent": 6969,
      "éclairer": 6970,
      "Gardez": 6971,
      "ramené": 6972,
      "ramener": 6973,
      "moqueurs": 6974,
      "meurtriers": 6975,
      "Nethaneel": 6976,
      "effrayé": 6977,
      "Kéni": 6978,
      "dormi": 6979,
      "aimeras": 6980,
      "intérieure": 6981,
      "faiblesse": 6982,
      "supérieur": 6983,
      "supérieure": 6984,
      "desséchée": 6985,
      "Gadites": 6986,
      "entretien": 6987,
      "arracherai": 6988,
      "vestibules": 6989,
      "précipité": 6990,
      "Teko": 6991,
      "corruption": 6992,
      "Préparez": 6993,
      "espèrent": 6994,
      "pleurez": 6995,
      "libérateur": 6996,
      "montrerai": 6997,
      "enregis": 6998,
      "exécuté": 6999,
      "dévastateur": 7000,
      "gazelle": 7001,
      "renferme": 7002,
      "réprimande": 7003,
      "Fortifie": 7004,
      "Tsoba": 7005,
      "Karéach": 7006,
      "attristé": 7007,
      "crochets": 7008,
      "commerce": 7009,
      "chacals": 7010,
      "grenouilles": 7011,
      "Jerubbaal": 7012,
      "Gosen": 7013,
      "Oracle": 7014,
      "Paschhur": 7015,
      "hautes": 7016,
      "ittim": 7017,
      "),": 7018,
      "25": 7019,
      "47": 7020,
      "52": 7021,
      "62": 7022,
      "63": 7023,
      "76": 7024,
      "84": 7025,
      "Amots": 7026,
      "Bath": 7027,
      "Boscheth": 7028,
      "Célé": 7029,
      "Dagon": 7030,
      "Gog": 7031,
      "Homme": 7032,
      "Hag": 7033,
      "Hinnom": 7034,
      "Mam": 7035,
      "Mèdes": 7036,
      "Osée": 7037,
      "Rib": 7038,
      "Reste": 7039,
      "Té": 7040,
      "burent": 7041,
      "cuit": 7042,
      "clo": 7043,
      "dau": 7044,
      "dort": 7045,
      "davantage": 7046,
      "fauc": 7047,
      "gend": 7048,
      "henne": 7049,
      "ivoi": 7050,
      "kalon": 7051,
      "lai": 7052,
      "mus": 7053,
      "meurs": 7054,
      "merai": 7055,
      "mbre": 7056,
      "math": 7057,
      "ope": 7058,
      "orez": 7059,
      "poin": 7060,
      "pommes": 7061,
      "rue": 7062,
      "ua": 7063,
      "vom": 7064,
      "vait": 7065,
      "ye": 7066,
      "zilla": 7067,
      "çaient": 7068,
      "ètes": 7069,
      "épées": 7070,
      "ïel": 7071,
      "ôterai": 7072,
      "espions": 7073,
      "out": 7074,
      "erons": 7075,
      "recouv": 7076,
      "remonter": 7077,
      "laï": 7078,
      "lacet": 7079,
      "lath": 7080,
      "artis": 7081,
      "archers": 7082,
      "sev": 7083,
      "sehar": 7084,
      "desch": 7085,
      "membre": 7086,
      "infam": 7087,
      "injuste": 7088,
      "paru": 7089,
      "pardonnerai": 7090,
      "rage": 7091,
      "ramp": 7092,
      "lunes": 7093,
      "ansons": 7094,
      "saï": 7095,
      "sati": 7096,
      "sachent": 7097,
      "tiez": 7098,
      "pourceaux": 7099,
      "rigueur": 7100,
      "siers": 7101,
      "passants": 7102,
      "usé": 7103,
      "sonde": 7104,
      "respect": 7105,
      "surtout": 7106,
      "rétribu": 7107,
      "réserv": 7108,
      "amants": 7109,
      "amères": 7110,
      "attes": 7111,
      "attire": 7112,
      "versa": 7113,
      "verrous": 7114,
      "dirons": 7115,
      "éreth": 7116,
      "érieure": 7117,
      "patrie": 7118,
      "coutu": 7119,
      "malia": 7120,
      "tach": 7121,
      "congé": 7122,
      "crient": 7123,
      "contrées": 7124,
      "embar": 7125,
      "méde": 7126,
      "perce": 7127,
      "longues": 7128,
      "pides": 7129,
      "excré": 7130,
      "brez": 7131,
      "inscri": 7132,
      "inscrit": 7133,
      "obli": 7134,
      "chercha": 7135,
      "dak": 7136,
      "livrez": 7137,
      "formés": 7138,
      "brill": 7139,
      "priait": 7140,
      "souille": 7141,
      "soutien": 7142,
      "mettant": 7143,
      "reten": 7144,
      "Jozabad": 7145,
      "connut": 7146,
      "tentation": 7147,
      "négli": 7148,
      "renouv": 7149,
      "habita": 7150,
      "habitée": 7151,
      "Nebo": 7152,
      "meront": 7153,
      "rapes": 7154,
      "sauce": 7155,
      "Sache": 7156,
      "Envoie": 7157,
      "mite": 7158,
      "importe": 7159,
      "imputé": 7160,
      "Jaez": 7161,
      "Parole": 7162,
      "partici": 7163,
      "descende": 7164,
      "sortaient": 7165,
      "laissant": 7166,
      "laisseras": 7167,
      "trouvés": 7168,
      "trouvée": 7169,
      "suivent": 7170,
      "solu": 7171,
      "offenses": 7172,
      "vives": 7173,
      "vivras": 7174,
      "vivront": 7175,
      "voulurent": 7176,
      "appelèrent": 7177,
      "assemblés": 7178,
      "Amminadab": 7179,
      "tradition": 7180,
      "Askalon": 7181,
      "Mahan": 7182,
      "domp": 7183,
      "cuir": 7184,
      "enseignes": 7185,
      "prescri": 7186,
      "méchante": 7187,
      "connaîtront": 7188,
      "écrite": 7189,
      "écriture": 7190,
      "emploi": 7191,
      "restée": 7192,
      "héritiers": 7193,
      "effets": 7194,
      "conduits": 7195,
      "ignore": 7196,
      "attachera": 7197,
      "Descend": 7198,
      "Remalia": 7199,
      "lités": 7200,
      "entendue": 7201,
      "entendues": 7202,
      "arrivait": 7203,
      "réjouisse": 7204,
      "réjouiront": 7205,
      "brisa": 7206,
      "prosterne": 7207,
      "égal": 7208,
      "brasier": 7209,
      "soirs": 7210,
      "répandras": 7211,
      "violents": 7212,
      "vainqu": 7213,
      "mug": 7214,
      "mulets": 7215,
      "obéissez": 7216,
      "traités": 7217,
      "demeurait": 7218,
      "regardait": 7219,
      "Mic": 7220,
      "Hamor": 7221,
      "séjourn": 7222,
      "tournait": 7223,
      "rendue": 7224,
      "tirerai": 7225,
      "publie": 7226,
      "boiront": 7227,
      "cherchèrent": 7228,
      "accomplisse": 7229,
      "dévorant": 7230,
      "lionceaux": 7231,
      "détournés": 7232,
      "abattus": 7233,
      "invoqua": 7234,
      "instrument": 7235,
      "Anani": 7236,
      "André": 7237,
      "multiplient": 7238,
      "subs": 7239,
      "remplir": 7240,
      "remplies": 7241,
      "revêti": 7242,
      "étendrai": 7243,
      "éclate": 7244,
      "publique": 7245,
      "Barzilla": 7246,
      "victoire": 7247,
      "Marthe": 7248,
      "chassera": 7249,
      "apportait": 7250,
      "ossements": 7251,
      "pharisien": 7252,
      "vraie": 7253,
      "fixés": 7254,
      "Permets": 7255,
      "Schim": 7256,
      "planche": 7257,
      "Béthanie": 7258,
      "ouvrira": 7259,
      "sauveur": 7260,
      "répondrai": 7261,
      "espèces": 7262,
      "pleinement": 7263,
      "fortifiées": 7264,
      "recevrez": 7265,
      "cachée": 7266,
      "durée": 7267,
      "penchants": 7268,
      "accab": 7269,
      "condamne": 7270,
      "illards": 7271,
      "lèverez": 7272,
      "talent": 7273,
      "emporter": 7274,
      "emportera": 7275,
      "avane": 7276,
      "innocence": 7277,
      "réduit": 7278,
      "révélation": 7279,
      "chaîn": 7280,
      "cachées": 7281,
      "égarés": 7282,
      "briques": 7283,
      "croyant": 7284,
      "approcheront": 7285,
      "bourg": 7286,
      "informé": 7287,
      "révolta": 7288,
      "empêcher": 7289,
      "réjouissances": 7290,
      "illir": 7291,
      "observez": 7292,
      "punir": 7293,
      "saluent": 7294,
      "placèrent": 7295,
      "placeras": 7296,
      "détournez": 7297,
      "oignit": 7298,
      "grosses": 7299,
      "moqueur": 7300,
      "chassés": 7301,
      "orphelins": 7302,
      "destructeur": 7303,
      "Tsore": 7304,
      "sentiments": 7305,
      "lamentations": 7306,
      "humiliés": 7307,
      "paternelle": 7308,
      "stupé": 7309,
      "conservé": 7310,
      "atteindre": 7311,
      "atteindra": 7312,
      "abaissé": 7313,
      "construit": 7314,
      "obscurci": 7315,
      "démonia": 7316,
      "Micaël": 7317,
      "flamb": 7318,
      "Machli": 7319,
      "reconnut": 7320,
      "inférieur": 7321,
      "divisé": 7322,
      "environnent": 7323,
      "célestes": 7324,
      "Huschaï": 7325,
      "enregistra": 7326,
      "contestation": 7327,
      "Mettez": 7328,
      "Ophir": 7329,
      "éteindra": 7330,
      "hypocrites": 7331,
      "camperont": 7332,
      "effraie": 7333,
      "suffit": 7334,
      "assieds": 7335,
      "Veillez": 7336,
      "moindre": 7337,
      "contient": 7338,
      "retranchements": 7339,
      "raillerie": 7340,
      "Cherchez": 7341,
      "furieux": 7342,
      "Abinadab": 7343,
      "impétueux": 7344,
      "solide": 7345,
      "particulier": 7346,
      "indigène": 7347,
      "chaudière": 7348,
      "Détourne": 7349,
      "associ": 7350,
      "satrapes": 7351,
      "appartiendront": 7352,
      "Jitsehar": 7353,
      "Souvenez": 7354,
      "compatissant": 7355,
      "dauphins": 7356,
      "faucille": 7357,
      "ivoire": 7358,
      "lacets": 7359,
      "excréments": 7360,
      "Mahanaïm": 7361,
      "Barzillaï": 7362,
      "26": 7363,
      "57": 7364,
      "58": 7365,
      "Adul": 7366,
      "Cé": 7367,
      "Do": 7368,
      "Fuy": 7369,
      "Go": 7370,
      "Hab": 7371,
      "Hada": 7372,
      "Iddo": 7373,
      "Javan": 7374,
      "Min": 7375,
      "Mara": 7376,
      "Seront": 7377,
      "Voyant": 7378,
      "bai": 7379,
      "brent": 7380,
      "balla": 7381,
      "basse": 7382,
      "clé": 7383,
      "cite": 7384,
      "drai": 7385,
      "ement": 7386,
      "hys": 7387,
      "ique": 7388,
      "ivres": 7389,
      "ki": 7390,
      "mens": 7391,
      "myria": 7392,
      "odi": 7393,
      "opé": 7394,
      "pant": 7395,
      "ppa": 7396,
      "saine": 7397,
      "tur": 7398,
      "val": 7399,
      "vreté": 7400,
      "yx": 7401,
      "yni": 7402,
      "Ébed": 7403,
      "ânon": 7404,
      "élu": 7405,
      "éli": 7406,
      "émoth": 7407,
      "édek": 7408,
      "enlever": 7409,
      "redres": 7410,
      "reproche": 7411,
      "entez": 7412,
      "laja": 7413,
      "lables": 7414,
      "arque": 7415,
      "autru": 7416,
      "chit": 7417,
      "chat": 7418,
      "astr": 7419,
      "aspi": 7420,
      "ceign": 7421,
      "orce": 7422,
      "dessèche": 7423,
      "meel": 7424,
      "invité": 7425,
      "ava": 7426,
      "pardonnés": 7427,
      "rapide": 7428,
      "tiare": 7429,
      "tronc": 7430,
      "ieures": 7431,
      "rivi": 7432,
      "rifi": 7433,
      "siff": 7434,
      "pass": 7435,
      "passez": 7436,
      "liés": 7437,
      "lionne": 7438,
      "alé": 7439,
      "restez": 7440,
      "respir": 7441,
      "surpris": 7442,
      "dézer": 7443,
      "déplaît": 7444,
      "découvrir": 7445,
      "vio": 7446,
      "viandes": 7447,
      "violé": 7448,
      "viennes": 7449,
      "endroi": 7450,
      "dirait": 7451,
      "apprendre": 7452,
      "apprennent": 7453,
      "approuv": 7454,
      "Jeïel": 7455,
      "ensé": 7456,
      "couchés": 7457,
      "prochez": 7458,
      "toits": 7459,
      "taï": 7460,
      "disette": 7461,
      "disparaîtra": 7462,
      "convient": 7463,
      "conjur": 7464,
      "phon": 7465,
      "comprennent": 7466,
      "grandi": 7467,
      "anger": 7468,
      "acqui": 7469,
      "crier": 7470,
      "criaient": 7471,
      "contes": 7472,
      "carré": 7473,
      "légers": 7474,
      "idol": 7475,
      "niel": 7476,
      "ffre": 7477,
      "inspi": 7478,
      "montent": 7479,
      "dala": 7480,
      "dages": 7481,
      "bruy": 7482,
      "prié": 7483,
      "cordages": 7484,
      "chameau": 7485,
      "marchez": 7486,
      "marier": 7487,
      "soutient": 7488,
      "mettaient": 7489,
      "tresses": 7490,
      "rets": 7491,
      "retrouv": 7492,
      "levait": 7493,
      "toutefois": 7494,
      "posés": 7495,
      "entreprises": 7496,
      "habites": 7497,
      "vieille": 7498,
      "olo": 7499,
      "troublé": 7500,
      "ferait": 7501,
      "rapporter": 7502,
      "préf": 7503,
      "placée": 7504,
      "collè": 7505,
      "bédée": 7506,
      "athia": 7507,
      "conster": 7508,
      "conséc": 7509,
      "Dedan": 7510,
      "fuir": 7511,
      "coupèrent": 7512,
      "gardera": 7513,
      "chargea": 7514,
      "Paran": 7515,
      "géhenne": 7516,
      "jouir": 7517,
      "laisserez": 7518,
      "servile": 7519,
      "écoutèrent": 7520,
      "fonction": 7521,
      "moque": 7522,
      "offer": 7523,
      "offrent": 7524,
      "livrant": 7525,
      "vivait": 7526,
      "voulant": 7527,
      "impré": 7528,
      "traces": 7529,
      "partaient": 7530,
      "pures": 7531,
      "onnez": 7532,
      "cacha": 7533,
      "calam": 7534,
      "allant": 7535,
      "Mah": 7536,
      "entendrez": 7537,
      "entraient": 7538,
      "dommage": 7539,
      "cule": 7540,
      "tisser": 7541,
      "poussé": 7542,
      "affam": 7543,
      "campaient": 7544,
      "rouille": 7545,
      "adressèrent": 7546,
      "périsse": 7547,
      "reçois": 7548,
      "honorer": 7549,
      "conduira": 7550,
      "raisonn": 7551,
      "élevées": 7552,
      "origine": 7553,
      "bâtiras": 7554,
      "impuretés": 7555,
      "Abihu": 7556,
      "monterons": 7557,
      "Baana": 7558,
      "offriront": 7559,
      "Benjamites": 7560,
      "ramass": 7561,
      "règles": 7562,
      "appelez": 7563,
      "brasiers": 7564,
      "défaill": 7565,
      "suivaient": 7566,
      "nouveaux": 7567,
      "pauvreté": 7568,
      "Arba": 7569,
      "abandonnèrent": 7570,
      "vaincra": 7571,
      "saphir": 7572,
      "obéir": 7573,
      "traitée": 7574,
      "pleurait": 7575,
      "séjourner": 7576,
      "tournera": 7577,
      "accomplie": 7578,
      "accomplies": 7579,
      "accomplirai": 7580,
      "oublier": 7581,
      "branche": 7582,
      "frappée": 7583,
      "boira": 7584,
      "boirez": 7585,
      "souven": 7586,
      "écrire": 7587,
      "espérer": 7588,
      "trembleront": 7589,
      "rompre": 7590,
      "Édomites": 7591,
      "atteinte": 7592,
      "cavernes": 7593,
      "rassasie": 7594,
      "rejeton": 7595,
      "consacrée": 7596,
      "sièges": 7597,
      "conseiller": 7598,
      "irrita": 7599,
      "multiplie": 7600,
      "commiss": 7601,
      "revêtit": 7602,
      "situ": 7603,
      "rançon": 7604,
      "publié": 7605,
      "humilité": 7606,
      "dominera": 7607,
      "dernières": 7608,
      "Meh": 7609,
      "Megui": 7610,
      "célébrèrent": 7611,
      "exterminé": 7612,
      "Chaldée": 7613,
      "frontières": 7614,
      "observeras": 7615,
      "Apol": 7616,
      "Approche": 7617,
      "Apportez": 7618,
      "Approchez": 7619,
      "ouvrirent": 7620,
      "aperce": 7621,
      "vendange": 7622,
      "enflammée": 7623,
      "séparés": 7624,
      "séparément": 7625,
      "jardins": 7626,
      "pensa": 7627,
      "accrois": 7628,
      "condamnation": 7629,
      "remplissait": 7630,
      "subsistera": 7631,
      "lèveras": 7632,
      "couvrirent": 7633,
      "sidérez": 7634,
      "allumé": 7635,
      "Ouvre": 7636,
      "épouvant": 7637,
      "expliquer": 7638,
      "retourné": 7639,
      "gagn": 7640,
      "chandeliers": 7641,
      "renvoyer": 7642,
      "rangée": 7643,
      "Zébach": 7644,
      "Zébédée": 7645,
      "avancé": 7646,
      "arraché": 7647,
      "destiné": 7648,
      "justifiés": 7649,
      "placés": 7650,
      "Rabba": 7651,
      "repaire": 7652,
      "Considérez": 7653,
      "Nethoph": 7654,
      "librement": 7655,
      "Kédar": 7656,
      "Kédesch": 7657,
      "femelle": 7658,
      "convoitise": 7659,
      "flancs": 7660,
      "chisédek": 7661,
      "profondément": 7662,
      "Agag": 7663,
      "réparations": 7664,
      "questions": 7665,
      "stupide": 7666,
      "conserver": 7667,
      "appliqué": 7668,
      "joyeuse": 7669,
      "tribunal": 7670,
      "Proph": 7671,
      "déserte": 7672,
      "déserts": 7673,
      "prolongeait": 7674,
      "précédemment": 7675,
      "officier": 7676,
      "cuisse": 7677,
      "rébel": 7678,
      "Huram": 7679,
      "lointaine": 7680,
      "sûr": 7681,
      "Zicri": 7682,
      "fautes": 7683,
      "engagement": 7684,
      "véritablement": 7685,
      "misérable": 7686,
      "irréproch": 7687,
      "méditent": 7688,
      "Jéther": 7689,
      "Magdala": 7690,
      "recherches": 7691,
      "chênes": 7692,
      "Éloigne": 7693,
      "pêch": 7694,
      "classes": 7695,
      "restitution": 7696,
      "fausseté": 7697,
      "Vive": 7698,
      "munna": 7699,
      "Schephathia": 7700,
      "méridional": 7701,
      "Publiez": 7702,
      "généalogies": 7703,
      "retombera": 7704,
      "circoncire": 7705,
      "Tsalmunna": 7706,
      "tège": 7707,
      "Thabor": 7708,
      "diadème": 7709,
      "corruptible": 7710,
      "Kéréthiens": 7711,
      "enchantements": 7712,
      "dérobé": 7713,
      "charpentiers": 7714,
      "immense": 7715,
      "Bérékia": 7716,
      "gratuitement": 7717,
      "Melchisédek": 7718,
      "attrist": 7719,
      "musique": 7720,
      "odoriférant": 7721,
      "enregistrés": 7722,
      "Jaezer": 7723,
      "chaînettes": 7724,
      "Cédron": 7725,
      "Hadadézer": 7726,
      "hysope": 7727,
      "myriades": 7728,
      "consécration": 7729,
      "calamité": 7730,
      "27": 7731,
      "75": 7732,
      "Avez": 7733,
      "Dos": 7734,
      "Er": 7735,
      "Fille": 7736,
      "Frappe": 7737,
      "Im": 7738,
      "Jes": 7739,
      "Jar": 7740,
      "Ki": 7741,
      "Kem": 7742,
      "Néri": 7743,
      "Pis": 7744,
      "Pare": 7745,
      "Paddan": 7746,
      "Rets": 7747,
      "Sors": 7748,
      "Seth": 7749,
      "Tourne": 7750,
      "Zac": 7751,
      "bel": 7752,
      "bag": 7753,
      "bandes": 7754,
      "brace": 7755,
      "cure": 7756,
      "dalla": 7757,
      "eb": 7758,
      "fos": 7759,
      "mav": 7760,
      "mant": 7761,
      "mment": 7762,
      "meut": 7763,
      "mouve": 7764,
      "plé": 7765,
      "sen": 7766,
      "sante": 7767,
      "spec": 7768,
      "tér": 7769,
      "user": 7770,
      "Éle": 7771,
      "Élevez": 7772,
      "éen": 7773,
      "évit": 7774,
      "éda": 7775,
      "élever": 7776,
      "ôteras": 7777,
      "enlevèrent": 7778,
      "onyx": 7779,
      "err": 7780,
      "ley": 7781,
      "aigre": 7782,
      "remu": 7783,
      "revienne": 7784,
      "relèvera": 7785,
      "revenait": 7786,
      "rebâtis": 7787,
      "arit": 7788,
      "iteau": 7789,
      "cherai": 7790,
      "ura": 7791,
      "issa": 7792,
      "ceps": 7793,
      "omas": 7794,
      "mec": 7795,
      "melles": 7796,
      "inth": 7797,
      "injustes": 7798,
      "ingles": 7799,
      "incend": 7800,
      "partez": 7801,
      "paraisse": 7802,
      "rase": 7803,
      "tront": 7804,
      "tringles": 7805,
      "étour": 7806,
      "rier": 7807,
      "rire": 7808,
      "rippa": 7809,
      "sibles": 7810,
      "tueras": 7811,
      "alté": 7812,
      "althiel": 7813,
      "treizième": 7814,
      "abor": 7815,
      "abbas": 7816,
      "abîmes": 7817,
      "touchant": 7818,
      "touchait": 7819,
      "rév": 7820,
      "amasse": 7821,
      "décr": 7822,
      "vir": 7823,
      "div": 7824,
      "montez": 7825,
      "Jeda": 7826,
      "paîtront": 7827,
      "Iscar": 7828,
      "courez": 7829,
      "couchera": 7830,
      "Israélites": 7831,
      "voil": 7832,
      "dises": 7833,
      "disons": 7834,
      "discus": 7835,
      "conjure": 7836,
      "phchad": 7837,
      "comprirent": 7838,
      "commettras": 7839,
      "devra": 7840,
      "donnaient": 7841,
      "conten": 7842,
      "contri": 7843,
      "cruel": 7844,
      "nommait": 7845,
      "perdition": 7846,
      "pières": 7847,
      "exi": 7848,
      "exis": 7849,
      "rasera": 7850,
      "instances": 7851,
      "montures": 7852,
      "vinaigre": 7853,
      "venin": 7854,
      "gué": 7855,
      "brous": 7856,
      "corpo": 7857,
      "soutiens": 7858,
      "souviendrai": 7859,
      "tress": 7860,
      "jettera": 7861,
      "posée": 7862,
      "plomb": 7863,
      "Joach": 7864,
      "Jotsa": 7865,
      "boule": 7866,
      "boucher": 7867,
      "agissez": 7868,
      "visages": 7869,
      "habitez": 7870,
      "habiterai": 7871,
      "tschatsar": 7872,
      "fermées": 7873,
      "aillent": 7874,
      "préhen": 7875,
      "nesse": 7876,
      "achar": 7877,
      "oeufs": 7878,
      "consom": 7879,
      "impu": 7880,
      "mourrez": 7881,
      "charger": 7882,
      "Parlez": 7883,
      "saisira": 7884,
      "écoutera": 7885,
      "chanteurs": 7886,
      "fondre": 7887,
      "Lémec": 7888,
      "connaissant": 7889,
      "iniques": 7890,
      "Puisqu": 7891,
      "trace": 7892,
      "naître": 7893,
      "cala": 7894,
      "Maon": 7895,
      "gardèrent": 7896,
      "paiera": 7897,
      "Samarit": 7898,
      "pousser": 7899,
      "capable": 7900,
      "roux": 7901,
      "rempla": 7902,
      "régnait": 7903,
      "brûlés": 7904,
      "reçue": 7905,
      "Hépher": 7906,
      "honoré": 7907,
      "annonça": 7908,
      "annoncera": 7909,
      "attaqu": 7910,
      "attaque": 7911,
      "travaillèrent": 7912,
      "blessés": 7913,
      "Reviens": 7914,
      "rachè": 7915,
      "combattu": 7916,
      "établira": 7917,
      "brisée": 7918,
      "brisera": 7919,
      "glorieuse": 7920,
      "Abiram": 7921,
      "lette": 7922,
      "monterai": 7923,
      "marcherai": 7924,
      "Élihu": 7925,
      "nourrir": 7926,
      "Thomas": 7927,
      "transporter": 7928,
      "ramassé": 7929,
      "ramènera": 7930,
      "consuma": 7931,
      "ordonnance": 7932,
      "glorifient": 7933,
      "Ornan": 7934,
      "paupières": 7935,
      "répands": 7936,
      "désordre": 7937,
      "vêtus": 7938,
      "abandonnent": 7939,
      "reposent": 7940,
      "amenés": 7941,
      "pratiqu": 7942,
      "produira": 7943,
      "Galaa": 7944,
      "regardaient": 7945,
      "Hamdalla": 7946,
      "sépulture": 7947,
      "purifiés": 7948,
      "purifiera": 7949,
      "tournant": 7950,
      "ctée": 7951,
      "entouré": 7952,
      "prostituées": 7953,
      "souris": 7954,
      "boivent": 7955,
      "souvenu": 7956,
      "prononce": 7957,
      "mortelle": 7958,
      "rejetterai": 7959,
      "tendent": 7960,
      "Ammonite": 7961,
      "fortement": 7962,
      "abondante": 7963,
      "abondamment": 7964,
      "enterrer": 7965,
      "abattit": 7966,
      "demandent": 7967,
      "demandaient": 7968,
      "remplirent": 7969,
      "Barabbas": 7970,
      "méprisent": 7971,
      "fixa": 7972,
      "accorder": 7973,
      "lophchad": 7974,
      "aveug": 7975,
      "exerce": 7976,
      "renversa": 7977,
      "reposera": 7978,
      "répondras": 7979,
      "Hanun": 7980,
      "Hanani": 7981,
      "fortifie": 7982,
      "cachés": 7983,
      "durera": 7984,
      "séparer": 7985,
      "formez": 7986,
      "anéantirai": 7987,
      "transgressé": 7988,
      "pensez": 7989,
      "changer": 7990,
      "avertir": 7991,
      "condamné": 7992,
      "repentir": 7993,
      "Beéroth": 7994,
      "prosterneront": 7995,
      "arrêter": 7996,
      "recueill": 7997,
      "rapportèrent": 7998,
      "précepte": 7999,
      "rassasiée": 8000,
      "retient": 8001,
      "retentit": 8002,
      "genou": 8003,
      "baptiser": 8004,
      "prescrits": 8005,
      "rangèrent": 8006,
      "mouton": 8007,
      "mouches": 8008,
      "fatigue": 8009,
      "réunion": 8010,
      "séduis": 8011,
      "empêché": 8012,
      "Harim": 8013,
      "observes": 8014,
      "observant": 8015,
      "cieuse": 8016,
      "destinées": 8017,
      "endurc": 8018,
      "retombe": 8019,
      "Bots": 8020,
      "manifestée": 8021,
      "intelligents": 8022,
      "emportés": 8023,
      "Retire": 8024,
      "chassées": 8025,
      "accompagné": 8026,
      "effrayés": 8027,
      "Dibon": 8028,
      "baiser": 8029,
      "ivro": 8030,
      "fausse": 8031,
      "persécuteurs": 8032,
      "Aggée": 8033,
      "Agrippa": 8034,
      "réparer": 8035,
      "impossible": 8036,
      "indigents": 8037,
      "fuyards": 8038,
      "assemblage": 8039,
      "Uzzi": 8040,
      "instruit": 8041,
      "construisit": 8042,
      "assujetti": 8043,
      "ornement": 8044,
      "tiendrai": 8045,
      "désertes": 8046,
      "célèbrent": 8047,
      "déshonor": 8048,
      "déshonore": 8049,
      "meilleures": 8050,
      "Anak": 8051,
      "aîné": 8052,
      "proclame": 8053,
      "enivr": 8054,
      "résider": 8055,
      "grince": 8056,
      "Sanballa": 8057,
      "sûreté": 8058,
      "remède": 8059,
      "réveilla": 8060,
      "chapiteau": 8061,
      "Guerschonites": 8062,
      "Inter": 8063,
      "communion": 8064,
      "possédait": 8065,
      "scandale": 8066,
      "épuisé": 8067,
      "enfanter": 8068,
      "répudiée": 8069,
      "Kenaz": 8070,
      "Pékach": 8071,
      "perverse": 8072,
      "Bilha": 8073,
      "Jéthro": 8074,
      "Japhet": 8075,
      "Tselophchad": 8076,
      "épine": 8077,
      "incrédulité": 8078,
      "humbles": 8079,
      "hâta": 8080,
      "sévèrement": 8081,
      "Beltschatsar": 8082,
      "graisses": 8083,
      "rédempteur": 8084,
      "considérable": 8085,
      "resplend": 8086,
      "térébinthe": 8087,
      "vigoureux": 8088,
      "empressement": 8089,
      "Frères": 8090,
      "génisse": 8091,
      "enterrèrent": 8092,
      "Beria": 8093,
      "vôtre": 8094,
      "enfuir": 8095,
      "pénètre": 8096,
      "énigme": 8097,
      "Milca": 8098,
      "fendue": 8099,
      "soupirs": 8100,
      "paralytique": 8101,
      "malfaiteurs": 8102,
      "Schelom": 8103,
      "Tekoa": 8104,
      "Célébrez": 8105,
      "Ribla": 8106,
      "Térach": 8107,
      "gendre": 8108,
      "rétribution": 8109,
      "coutumes": 8110,
      "Ananias": 8111,
      "astrolo": 8112,
      "défaillance": 8113,
      "Meguiddo": 8114,
      "rébellion": 8115,
      "pêcheurs": 8116,
      "Dosso": 8117,
      "Retsin": 8118,
      "maveth": 8119,
      "Jedaeja": 8120,
      "Iscariot": 8121,
      "corpore": 8122,
      "Jotsadak": 8123,
      "Hamdallaye": 8124,
      "Sanballat": 8125,
      "28": 8126,
      "53": 8127,
      "54": 8128,
      "Av": 8129,
      "Ale": 8130,
      "Acha": 8131,
      "Ajal": 8132,
      "Bou": 8133,
      "Cer": 8134,
      "Corne": 8135,
      "Der": 8136,
      "Dathan": 8137,
      "Gam": 8138,
      "Hel": 8139,
      "Jasch": 8140,
      "Jerach": 8141,
      "Ko": 8142,
      "Ker": 8143,
      "Ly": 8144,
      "Mas": 8145,
      "Mus": 8146,
      "Mill": 8147,
      "Nob": 8148,
      "Ote": 8149,
      "Omar": 8150,
      "Oth": 8151,
      "Otez": 8152,
      "Pa": 8153,
      "Pil": 8154,
      "Pas": 8155,
      "Passe": 8156,
      "Ro": 8157,
      "Raph": 8158,
      "Su": 8159,
      "Sar": 8160,
      "Schés": 8161,
      "Tseph": 8162,
      "Tsin": 8163,
      "Vas": 8164,
      "aël": 8165,
      "beth": 8166,
      "ceront": 8167,
      "cania": 8168,
      "dû": 8169,
      "danger": 8170,
      "eel": 8171,
      "fassi": 8172,
      "glis": 8173,
      "gtième": 8174,
      "gout": 8175,
      "has": 8176,
      "huis": 8177,
      "homer": 8178,
      "ivre": 8179,
      "iba": 8180,
      "jav": 8181,
      "loth": 8182,
      "masch": 8183,
      "nô": 8184,
      "nissez": 8185,
      "opa": 8186,
      "odieux": 8187,
      "pt": 8188,
      "ppé": 8189,
      "pani": 8190,
      "schon": 8191,
      "savane": 8192,
      "tâ": 8193,
      "tyr": 8194,
      "tasses": 8195,
      "total": 8196,
      "ud": 8197,
      "uption": 8198,
      "vil": 8199,
      "xand": 8200,
      "Ézer": 8201,
      "Étienne": 8202,
      "èches": 8203,
      "ém": 8204,
      "étez": 8205,
      "élar": 8206,
      "évan": 8207,
      "énaï": 8208,
      "éteint": 8209,
      "îte": 8210,
      "ûtes": 8211,
      "ûmes": 8212,
      "escar": 8213,
      "engrais": 8214,
      "errer": 8215,
      "aig": 8216,
      "aima": 8217,
      "aimons": 8218,
      "aner": 8219,
      "reau": 8220,
      "rement": 8221,
      "remb": 8222,
      "revête": 8223,
      "reprends": 8224,
      "archi": 8225,
      "semen": 8226,
      "issus": 8227,
      "ome": 8228,
      "prun": 8229,
      "meille": 8230,
      "terrest": 8231,
      "inv": 8232,
      "inon": 8233,
      "parcourir": 8234,
      "parlaient": 8235,
      "rafes": 8236,
      "saches": 8237,
      "duis": 8238,
      "pourrais": 8239,
      "sign": 8240,
      "passeras": 8241,
      "ressemble": 8242,
      "surprendre": 8243,
      "surnommé": 8244,
      "surveiller": 8245,
      "récla": 8246,
      "amie": 8247,
      "déroute": 8248,
      "dépourvu": 8249,
      "diel": 8250,
      "geaient": 8251,
      "apprenant": 8252,
      "éruption": 8253,
      "couchant": 8254,
      "couchée": 8255,
      "mages": 8256,
      "mamelles": 8257,
      "prolong": 8258,
      "contemple": 8259,
      "condition": 8260,
      "grave": 8261,
      "acar": 8262,
      "acte": 8263,
      "accourut": 8264,
      "criait": 8265,
      "contin": 8266,
      "crème": 8267,
      "empare": 8268,
      "emprun": 8269,
      "léger": 8270,
      "extr": 8271,
      "rasoir": 8272,
      "répande": 8273,
      "Tubal": 8274,
      "nia": 8275,
      "soigne": 8276,
      "inspect": 8277,
      "Sib": 8278,
      "bia": 8279,
      "bie": 8280,
      "biches": 8281,
      "Seyni": 8282,
      "Sept": 8283,
      "obtient": 8284,
      "mises": 8285,
      "pement": 8286,
      "vingtième": 8287,
      "vendit": 8288,
      "vengé": 8289,
      "brille": 8290,
      "chaël": 8291,
      "marié": 8292,
      "souper": 8293,
      "souill": 8294,
      "chéla": 8295,
      "retiens": 8296,
      "retenu": 8297,
      "mortalité": 8298,
      "Joppé": 8299,
      "entrez": 8300,
      "néa": 8301,
      "agissent": 8302,
      "agrafes": 8303,
      "habitant": 8304,
      "habitation": 8305,
      "troublés": 8306,
      "merveille": 8307,
      "prendrons": 8308,
      "préser": 8309,
      "prélèverez": 8310,
      "saurait": 8311,
      "chions": 8312,
      "chija": 8313,
      "Enf": 8314,
      "fugiti": 8315,
      "mangerai": 8316,
      "parlez": 8317,
      "mener": 8318,
      "feuillage": 8319,
      "mourrons": 8320,
      "rendras": 8321,
      "gardez": 8322,
      "suscité": 8323,
      "vécu": 8324,
      "joué": 8325,
      "jouissez": 8326,
      "doute": 8327,
      "frappes": 8328,
      "fondée": 8329,
      "suivie": 8330,
      "livreront": 8331,
      "présentant": 8332,
      "présenteront": 8333,
      "voulaient": 8334,
      "immol": 8335,
      "connaissais": 8336,
      "connaissait": 8337,
      "connaissaient": 8338,
      "trame": 8339,
      "érir": 8340,
      "Assie": 8341,
      "entendront": 8342,
      "nuque": 8343,
      "craindrez": 8344,
      "entrait": 8345,
      "ensemen": 8346,
      "tribulation": 8347,
      "tissent": 8348,
      "poussèrent": 8349,
      "germe": 8350,
      "connaîtrai": 8351,
      "servant": 8352,
      "roue": 8353,
      "rouges": 8354,
      "chevet": 8355,
      "matins": 8356,
      "détach": 8357,
      "annoncent": 8358,
      "annoncée": 8359,
      "attacha": 8360,
      "trompé": 8361,
      "trompe": 8362,
      "poudre": 8363,
      "réjoui": 8364,
      "flex": 8365,
      "tourné": 8366,
      "othan": 8367,
      "donnerait": 8368,
      "brisées": 8369,
      "Abiézer": 8370,
      "Moabite": 8371,
      "mangeant": 8372,
      "viendrait": 8373,
      "compté": 8374,
      "querel": 8375,
      "marchandises": 8376,
      "Bethuel": 8377,
      "délivrant": 8378,
      "Éliel": 8379,
      "prêcher": 8380,
      "Benjamite": 8381,
      "désiré": 8382,
      "souffler": 8383,
      "abandonnerai": 8384,
      "pratiquer": 8385,
      "vains": 8386,
      "produire": 8387,
      "obéirent": 8388,
      "demeuraient": 8389,
      "regardais": 8390,
      "regardèrent": 8391,
      "dresse": 8392,
      "livrées": 8393,
      "demandera": 8394,
      "demanderai": 8395,
      "veuille": 8396,
      "tirèrent": 8397,
      "Schealthiel": 8398,
      "Schecania": 8399,
      "Schélémia": 8400,
      "frappait": 8401,
      "rompr": 8402,
      "tabernacles": 8403,
      "arib": 8404,
      "arides": 8405,
      "cavaler": 8406,
      "tendre": 8407,
      "dévorer": 8408,
      "dévoreront": 8409,
      "détournent": 8410,
      "élèves": 8411,
      "irritation": 8412,
      "subitement": 8413,
      "moissonne": 8414,
      "pluies": 8415,
      "éclatant": 8416,
      "secrets": 8417,
      "secrètement": 8418,
      "posséder": 8419,
      "durement": 8420,
      "Barnéa": 8421,
      "périrez": 8422,
      "agitée": 8423,
      "agitera": 8424,
      "Marc": 8425,
      "apportent": 8426,
      "affermie": 8427,
      "bénies": 8428,
      "dominent": 8429,
      "célébrerez": 8430,
      "exterminés": 8431,
      "sauveras": 8432,
      "sinthe": 8433,
      "égorgea": 8434,
      "herbes": 8435,
      "sauvée": 8436,
      "prodige": 8437,
      "retranchée": 8438,
      "bora": 8439,
      "Guéra": 8440,
      "chaud": 8441,
      "recevez": 8442,
      "dépouille": 8443,
      "formera": 8444,
      "transgression": 8445,
      "avertit": 8446,
      "commettez": 8447,
      "repentit": 8448,
      "Débora": 8449,
      "supplication": 8450,
      "Sophon": 8451,
      "Meriba": 8452,
      "outragé": 8453,
      "opprimer": 8454,
      "rapporté": 8455,
      "Réjouissez": 8456,
      "égarent": 8457,
      "Hadar": 8458,
      "balle": 8459,
      "success": 8460,
      "croyons": 8461,
      "croyaient": 8462,
      "rangs": 8463,
      "attendait": 8464,
      "réunit": 8465,
      "réunis": 8466,
      "réunirent": 8467,
      "séduire": 8468,
      "hébreu": 8469,
      "relâcher": 8470,
      "Haran": 8471,
      "magnifiques": 8472,
      "destinée": 8473,
      "placeront": 8474,
      "croissent": 8475,
      "bâtissez": 8476,
      "arrêtaient": 8477,
      "enveloppe": 8478,
      "moquaient": 8479,
      "Jero": 8480,
      "signifient": 8481,
      "sauterelle": 8482,
      "éclatante": 8483,
      "possédera": 8484,
      "Accorde": 8485,
      "Nachasch": 8486,
      "Nachschon": 8487,
      "plaira": 8488,
      "plaider": 8489,
      "conçut": 8490,
      "emparer": 8491,
      "rappelle": 8492,
      "fatigués": 8493,
      "Tsoar": 8494,
      "chantez": 8495,
      "brûleras": 8496,
      "persécutent": 8497,
      "Arabie": 8498,
      "Hadi": 8499,
      "repousse": 8500,
      "guerrier": 8501,
      "dérobe": 8502,
      "fiancé": 8503,
      "dirigeait": 8504,
      "inquiétez": 8505,
      "instruis": 8506,
      "Mélec": 8507,
      "Quoique": 8508,
      "murmures": 8509,
      "vendus": 8510,
      "blasphème": 8511,
      "Gaal": 8512,
      "tiendras": 8513,
      "invités": 8514,
      "distinction": 8515,
      "creusé": 8516,
      "creuset": 8517,
      "aînesse": 8518,
      "reconnurent": 8519,
      "implorer": 8520,
      "fardeaux": 8521,
      "exaucerai": 8522,
      "troubler": 8523,
      "Schamma": 8524,
      "écrasés": 8525,
      "lointain": 8526,
      "disputes": 8527,
      "avertissements": 8528,
      "rôti": 8529,
      "édification": 8530,
      "exécut": 8531,
      "oracle": 8532,
      "calomnie": 8533,
      "Fortifiez": 8534,
      "Rome": 8535,
      "joignirent": 8536,
      "renversés": 8537,
      "Grâ": 8538,
      "humble": 8539,
      "chêne": 8540,
      "accuser": 8541,
      "enfantement": 8542,
      "exemple": 8543,
      "conspiration": 8544,
      "inclina": 8545,
      "humaine": 8546,
      "exilés": 8547,
      "affranchi": 8548,
      "ulcère": 8549,
      "rouleau": 8550,
      "persuadé": 8551,
      "Femme": 8552,
      "jaillir": 8553,
      "criminelles": 8554,
      "tourterelles": 8555,
      "féconds": 8556,
      "naziréat": 8557,
      "Jamais": 8558,
      "réconcili": 8559,
      "district": 8560,
      "Charan": 8561,
      "Guérar": 8562,
      "moissonneurs": 8563,
      "Mamré": 8564,
      "musul": 8565,
      "réservée": 8566,
      "inscrits": 8567,
      "cuirasse": 8568,
      "Descends": 8569,
      "Tsorea": 8570,
      "idolâ": 8571,
      "bruyante": 8572,
      "Apollos": 8573,
      "Prophéti": 8574,
      "attristés": 8575,
      "Nérija": 8576,
      "décret": 8577,
      "Alexand": 8578,
      "Achaïe": 8579,
      "Ajalon": 8580,
      "Corneille": 8581,
      "Millo": 8582,
      "Rapha": 8583,
      "Vasthi": 8584,
      "huissiers": 8585,
      "javel": 8586,
      "évanou": 8587,
      "semences": 8588,
      "meilleure": 8589,
      "Assieds": 8590,
      "cavalerie": 8591,
      "Sophonie": 8592,
      "29": 8593,
      "61": 8594,
      "Ari": 8595,
      "Ada": 8596,
      "Aven": 8597,
      "Acan": 8598,
      "Adaja": 8599,
      "Aissa": 8600,
      "Bâ": 8601,
      "Cin": 8602,
      "Céph": 8603,
      "Dina": 8604,
      "Féli": 8605,
      "Hav": 8606,
      "Hath": 8607,
      "It": 8608,
      "Ira": 8609,
      "Lo": 8610,
      "Mous": 8611,
      "Mange": 8612,
      "Pai": 8613,
      "Point": 8614,
      "Puth": 8615,
      "Schar": 8616,
      "Sortez": 8617,
      "Tant": 8618,
      "Tach": 8619,
      "Tro": 8620,
      "Tham": 8621,
      "Toph": 8622,
      "ade": 8623,
      "agnes": 8624,
      "bus": 8625,
      "bam": 8626,
      "cors": 8627,
      "cail": 8628,
      "ciles": 8629,
      "dol": 8630,
      "dîmes": 8631,
      "effi": 8632,
      "fendit": 8633,
      "hir": 8634,
      "isez": 8635,
      "ivraie": 8636,
      "jas": 8637,
      "kem": 8638,
      "mènera": 8639,
      "nath": 8640,
      "oti": 8641,
      "pon": 8642,
      "pelle": 8643,
      "pelles": 8644,
      "pût": 8645,
      "pissement": 8646,
      "pillards": 8647,
      "rê": 8648,
      "rys": 8649,
      "rani": 8650,
      "taire": 8651,
      "tasse": 8652,
      "tât": 8653,
      "uach": 8654,
      "vau": 8655,
      "vînt": 8656,
      "Élon": 8657,
      "Élit": 8658,
      "életh": 8659,
      "ïs": 8660,
      "enchaî": 8661,
      "dette": 8662,
      "aider": 8663,
      "anna": 8664,
      "etser": 8665,
      "reb": 8666,
      "recommande": 8667,
      "rebâti": 8668,
      "rechercher": 8669,
      "rebord": 8670,
      "entes": 8671,
      "entres": 8672,
      "lamb": 8673,
      "chrys": 8674,
      "orf": 8675,
      "prouve": 8676,
      "terr": 8677,
      "termes": 8678,
      "termine": 8679,
      "inn": 8680,
      "inti": 8681,
      "intes": 8682,
      "inconnu": 8683,
      "infidé": 8684,
      "infe": 8685,
      "avna": 8686,
      "parais": 8687,
      "parvint": 8688,
      "lumin": 8689,
      "sacré": 8690,
      "saleel": 8691,
      "tirée": 8692,
      "unes": 8693,
      "unis": 8694,
      "pourrez": 8695,
      "serr": 8696,
      "Ets": 8697,
      "étage": 8698,
      "sien": 8699,
      "tune": 8700,
      "tueux": 8701,
      "passée": 8702,
      "éscha": 8703,
      "licit": 8704,
      "abe": 8705,
      "absent": 8706,
      "abeth": 8707,
      "absinthe": 8708,
      "resch": 8709,
      "réveill": 8710,
      "amènera": 8711,
      "découvre": 8712,
      "décourag": 8713,
      "délaissée": 8714,
      "vivions": 8715,
      "chec": 8716,
      "attirer": 8717,
      "cie": 8718,
      "onner": 8719,
      "onnent": 8720,
      "verse": 8721,
      "fier": 8722,
      "dim": 8723,
      "apaise": 8724,
      "coffre": 8725,
      "couler": 8726,
      "couteaux": 8727,
      "miers": 8728,
      "prover": 8729,
      "tacle": 8730,
      "disparaît": 8731,
      "conformèrent": 8732,
      "comprit": 8733,
      "comprend": 8734,
      "commise": 8735,
      "gron": 8736,
      "grès": 8737,
      "grasses": 8738,
      "criant": 8739,
      "content": 8740,
      "médi": 8741,
      "percé": 8742,
      "permets": 8743,
      "sécher": 8744,
      "sépara": 8745,
      "exist": 8746,
      "expres": 8747,
      "examine": 8748,
      "nie": 8749,
      "sacrifiées": 8750,
      "garant": 8751,
      "garda": 8752,
      "garnis": 8753,
      "mêlé": 8754,
      "péchez": 8755,
      "péchera": 8756,
      "Six": 8757,
      "Sephar": 8758,
      "montons": 8759,
      "obtenir": 8760,
      "lives": 8761,
      "forêts": 8762,
      "prièrent": 8763,
      "privé": 8764,
      "cordons": 8765,
      "soula": 8766,
      "soulève": 8767,
      "souviendras": 8768,
      "mettons": 8769,
      "thé": 8770,
      "thon": 8771,
      "thaï": 8772,
      "chées": 8773,
      "Jude": 8774,
      "semblez": 8775,
      "jetterai": 8776,
      "oyer": 8777,
      "Chois": 8778,
      "tendez": 8779,
      "sentences": 8780,
      "épaisse": 8781,
      "renié": 8782,
      "habitations": 8783,
      "preu": 8784,
      "anime": 8785,
      "ferais": 8786,
      "fermera": 8787,
      "fertile": 8788,
      "achop": 8789,
      "buff": 8790,
      "buvant": 8791,
      "buvez": 8792,
      "athiens": 8793,
      "consiste": 8794,
      "jumeaux": 8795,
      "judaï": 8796,
      "menèrent": 8797,
      "menac": 8798,
      "envoyée": 8799,
      "mites": 8800,
      "droites": 8801,
      "mines": 8802,
      "faisais": 8803,
      "rendons": 8804,
      "rendront": 8805,
      "Jakin": 8806,
      "jouer": 8807,
      "jouira": 8808,
      "laisseront": 8809,
      "servirez": 8810,
      "servirons": 8811,
      "trouvant": 8812,
      "pota": 8813,
      "poseras": 8814,
      "potam": 8815,
      "lissent": 8816,
      "présentation": 8817,
      "voulais": 8818,
      "assin": 8819,
      "assistance": 8820,
      "assemblez": 8821,
      "assemblées": 8822,
      "inimit": 8823,
      "naîtra": 8824,
      "portée": 8825,
      "enfantés": 8826,
      "Assemblez": 8827,
      "Makk": 8828,
      "entendait": 8829,
      "paie": 8830,
      "nues": 8831,
      "entreras": 8832,
      "Salée": 8833,
      "étroi": 8834,
      "gerbe": 8835,
      "connaîtra": 8836,
      "connaîtr": 8837,
      "glaner": 8838,
      "camps": 8839,
      "adressent": 8840,
      "langu": 8841,
      "effor": 8842,
      "brûl": 8843,
      "brûlent": 8844,
      "brûlèrent": 8845,
      "reçus": 8846,
      "rumine": 8847,
      "annonçant": 8848,
      "blessures": 8849,
      "paraîtront": 8850,
      "créanci": 8851,
      "louant": 8852,
      "couvraient": 8853,
      "expira": 8854,
      "arrivaient": 8855,
      "réjouira": 8856,
      "combattra": 8857,
      "combattirent": 8858,
      "donnerons": 8859,
      "brisèrent": 8860,
      "prosternent": 8861,
      "prosternés": 8862,
      "mane": 8863,
      "manquent": 8864,
      "larges": 8865,
      "parleront": 8866,
      "confié": 8867,
      "mangeait": 8868,
      "Éphrata": 8869,
      "monteras": 8870,
      "marchons": 8871,
      "sanctuaires": 8872,
      "Baala": 8873,
      "anéanti": 8874,
      "boucle": 8875,
      "citernes": 8876,
      "prêchant": 8877,
      "offrirai": 8878,
      "pensé": 8879,
      "Thessa": 8880,
      "transportèrent": 8881,
      "désirent": 8882,
      "consumée": 8883,
      "écailles": 8884,
      "suivez": 8885,
      "suivront": 8886,
      "répandront": 8887,
      "appartenant": 8888,
      "Aravna": 8889,
      "abandonnés": 8890,
      "Mig": 8891,
      "tourneront": 8892,
      "sanctifieras": 8893,
      "Juste": 8894,
      "entourèrent": 8895,
      "Bénissez": 8896,
      "sourd": 8897,
      "quittera": 8898,
      "rassemblé": 8899,
      "rassemblera": 8900,
      "agréé": 8901,
      "boirai": 8902,
      "écriras": 8903,
      "choisir": 8904,
      "cherchons": 8905,
      "mortel": 8906,
      "vaste": 8907,
      "Élisabeth": 8908,
      "éloignent": 8909,
      "abondantes": 8910,
      "lionceau": 8911,
      "palmier": 8912,
      "alia": 8913,
      "illeras": 8914,
      "abattrai": 8915,
      "demandait": 8916,
      "Annon": 8917,
      "multipliez": 8918,
      "partagé": 8919,
      "partagèrent": 8920,
      "ressuscite": 8921,
      "trouveront": 8922,
      "remplirai": 8923,
      "ravis": 8924,
      "revêts": 8925,
      "revêtir": 8926,
      "étendirent": 8927,
      "sèmer": 8928,
      "Azmaveth": 8929,
      "humilia": 8930,
      "humilier": 8931,
      "bénie": 8932,
      "passées": 8933,
      "fixée": 8934,
      "prophétiser": 8935,
      "Perses": 8936,
      "Schine": 8937,
      "horte": 8938,
      "dispersa": 8939,
      "dirigent": 8940,
      "continua": 8941,
      "marcheras": 8942,
      "craignant": 8943,
      "érable": 8944,
      "observeront": 8945,
      "Nico": 8946,
      "élan": 8947,
      "oublies": 8948,
      "attentive": 8949,
      "Guib": 8950,
      "bornes": 8951,
      "fortifié": 8952,
      "Guéber": 8953,
      "chaume": 8954,
      "recevras": 8955,
      "sycom": 8956,
      "formaient": 8957,
      "anéantie": 8958,
      "Adar": 8959,
      "arcs": 8960,
      "changera": 8961,
      "aversion": 8962,
      "accès": 8963,
      "remplissaient": 8964,
      "Beor": 8965,
      "déchirée": 8966,
      "autorités": 8967,
      "cendriers": 8968,
      "avancent": 8969,
      "Jobab": 8970,
      "réduira": 8971,
      "échappa": 8972,
      "éclaire": 8973,
      "ajoutera": 8974,
      "ardents": 8975,
      "Eljo": 8976,
      "retentissent": 8977,
      "succomb": 8978,
      "renvoyé": 8979,
      "cavalier": 8980,
      "docteur": 8981,
      "fourrage": 8982,
      "fourreau": 8983,
      "attendons": 8984,
      "affligé": 8985,
      "affligés": 8986,
      "greniers": 8987,
      "Schimea": 8988,
      "dévoua": 8989,
      "empêche": 8990,
      "avancer": 8991,
      "résiste": 8992,
      "punirai": 8993,
      "saluer": 8994,
      "disparurent": 8995,
      "disparaissent": 8996,
      "profane": 8997,
      "oignirent": 8998,
      "bâtissaient": 8999,
      "enveloppé": 9000,
      "baths": 9001,
      "Considère": 9002,
      "lapidé": 9003,
      "Horma": 9004,
      "effrayer": 9005,
      "faces": 9006,
      "pendre": 9007,
      "maîtresse": 9008,
      "impudiques": 9009,
      "emparèrent": 9010,
      "flot": 9011,
      "Hakk": 9012,
      "Jabin": 9013,
      "cschad": 9014,
      "ressuscitera": 9015,
      "humiliation": 9016,
      "denier": 9017,
      "examiner": 9018,
      "sonnerez": 9019,
      "récoltes": 9020,
      "conservera": 9021,
      "fraternel": 9022,
      "véritables": 9023,
      "inquiétu": 9024,
      "instruire": 9025,
      "soumises": 9026,
      "sarcas": 9027,
      "acception": 9028,
      "pareillement": 9029,
      "Méschec": 9030,
      "traversa": 9031,
      "prudence": 9032,
      "tiendront": 9033,
      "déchirés": 9034,
      "déshonoré": 9035,
      "invita": 9036,
      "adorent": 9037,
      "appuie": 9038,
      "Hébreu": 9039,
      "ressemblent": 9040,
      "manquait": 9041,
      "aînée": 9042,
      "Naama": 9043,
      "environné": 9044,
      "Caïphe": 9045,
      "Racon": 9046,
      "Rahab": 9047,
      "abstenir": 9048,
      "réside": 9049,
      "troublent": 9050,
      "employa": 9051,
      "anciennes": 9052,
      "rempart": 9053,
      "confondu": 9054,
      "complètement": 9055,
      "impose": 9056,
      "imposa": 9057,
      "menaces": 9058,
      "menaça": 9059,
      "gibier": 9060,
      "recommanda": 9061,
      "emmène": 9062,
      "emmènera": 9063,
      "colombes": 9064,
      "scandalis": 9065,
      "enfantera": 9066,
      "répudie": 9067,
      "dévastée": 9068,
      "raconter": 9069,
      "ministres": 9070,
      "Big": 9071,
      "endormis": 9072,
      "condamnera": 9073,
      "enrichis": 9074,
      "issues": 9075,
      "aboutis": 9076,
      "aboutir": 9077,
      "renonce": 9078,
      "déguis": 9079,
      "sévère": 9080,
      "Cuschi": 9081,
      "assoupissement": 9082,
      "spirituels": 9083,
      "achevée": 9084,
      "rédemption": 9085,
      "attendant": 9086,
      "détaché": 9087,
      "tambourin": 9088,
      "tambourins": 9089,
      "joints": 9090,
      "nitude": 9091,
      "scorpions": 9092,
      "nobles": 9093,
      "voyageurs": 9094,
      "Schélach": 9095,
      "concernant": 9096,
      "concernait": 9097,
      "bienfaits": 9098,
      "Betsaleel": 9099,
      "Montagnes": 9100,
      "procurer": 9101,
      "Schobal": 9102,
      "ramasser": 9103,
      "désignés": 9104,
      "Éthiopiens": 9105,
      "liqueurs": 9106,
      "Schebna": 9107,
      "figures": 9108,
      "Ammihud": 9109,
      "Arrivés": 9110,
      "Arpacschad": 9111,
      "goûté": 9112,
      "brigands": 9113,
      "difficiles": 9114,
      "conviés": 9115,
      "intendants": 9116,
      "principale": 9117,
      "sevré": 9118,
      "infamie": 9119,
      "rampent": 9120,
      "Micmasch": 9121,
      "stupéfaits": 9122,
      "Adullam": 9123,
      "Fuyez": 9124,
      "Habit": 9125,
      "contester": 9126,
      "collègues": 9127,
      "consternés": 9128,
      "Mahala": 9129,
      "Nethopha": 9130,
      "Immer": 9131,
      "Zaccur": 9132,
      "mouvement": 9133,
      "plénitude": 9134,
[...]
