{
  "version": "1.0",
  "truncation": null,
  "padding": null,
  "added_tokens": [
    {
      "id": 0,
      "content": "[PAD]",
      "single_word": false,
      "lstrip": false,
      "rstrip": false,
      "normalized": false,
      "special": true
    },
    {
      "id": 1,
      "content": "[UNK]",
      "single_word": false,
      "lstrip": false,
      "rstrip": false,
      "normalized": false,
      "special": true
    },
    {
      "id": 2,
      "content": "[CLS]",
      "single_word": false,
      "lstrip": false,
      "rstrip": false,
      "normalized": false,
      "special": true
    },
    {
      "id": 3,
      "content": "[SEP]",
      "single_word": false,
      "lstrip": false,
      "rstrip": false,
      "normalized": false,
      "special": true
    },
    {
      "id": 4,
      "content": "[MASK]",
      "single_word": false,
      "lstrip": false,
      "rstrip": false,
      "normalized": false,
      "special": true
    },
    {
      "id": 5,
      "content": "[BOS]",
      "single_word": false,
      "lstrip": false,
      "rstrip": false,
      "normalized": false,
      "special": true
    },
    {
      "id": 6,
      "content": "[EOS]",
      "single_word": false,
      "lstrip": false,
      "rstrip": false,
      "normalized": false,
      "special": true
    }
  ],
  "normalizer": {
    "type": "Sequence",
    "normalizers": [
      {
        "type": "NFC"
      },
      {
        "type": "Replace",
        "pattern": {
          "String": "@-@"
        },
        "content": "-"
      }
    ]
  },
  "pre_tokenizer": {
    "type": "Sequence",
    "pretokenizers": [
      {
        "type": "Whitespace"
      },
      {
        "type": "Digits",
        "individual_digits": false
      }
    ]
  },
  "post_processor": {
    "type": "TemplateProcessing",
    "single": [
      {
        "SpecialToken": {
          "id": "[CLS]",
          "type_id": 0
        }
      },
      {
        "Sequence": {
          "id": "A",
          "type_id": 0
        }
      },
      {
        "SpecialToken": {
          "id": "[SEP]",
          "type_id": 0
        }
      }
    ],
    "pair": [
      {
        "SpecialToken": {
          "id": "[CLS]",
          "type_id": 0
        }
      },
      {
        "Sequence": {
          "id": "A",
          "type_id": 0
        }
      },
      {
        "SpecialToken": {
          "id": "[SEP]",
          "type_id": 0
        }
      },
      {
        "Sequence": {
          "id": "B",
          "type_id": 1
        }
      },
      {
        "SpecialToken": {
          "id": "[SEP]",
          "type_id": 1
        }
      }
    ],
    "special_tokens": {
      "[CLS]": {
        "id": "[CLS]",
        "ids": [
          2
        ],
        "tokens": [
          "[CLS]"
        ]
      },
      "[SEP]": {
        "id": "[SEP]",
        "ids": [
          3
        ],
        "tokens": [
          "[SEP]"
        ]
      }
    }
  },
  "decoder": {
    "type": "BPEDecoder",
    "suffix": ""
  },
  "model": {
    "type": "BPE",
    "dropout": null,
    "unk_token": "[UNK]",
    "continuing_subword_prefix": null,
    "end_of_word_suffix": null,
    "fuse_unk": false,
    "byte_fallback": false,
    "ignore_merges": false,
    "vocab": {
      "[PAD]": 0,
      "[UNK]": 1,
      "[CLS]": 2,
      "[SEP]": 3,
      "[MASK]": 4,
      "[BOS]": 5,
      "[EOS]": 6,
      "!": 7,
      "\"": 8,
      "$": 9,
      "%": 10,
      "&": 11,
      "'": 12,
      "(": 13,
      ")": 14,
      "*": 15,
      "+": 16,
      ",": 17,
      "-": 18,
      ".": 19,
      "/": 20,
      "0": 21,
      "1": 22,
      "2": 23,
      "3": 24,
      "4": 25,
      "5": 26,
      "6": 27,
      "7": 28,
      "8": 29,
      "9": 30,
      ":": 31,
      ";": 32,
      "<": 33,
      ">": 34,
      "?": 35,
      "A": 36,
      "B": 37,
      "C": 38,
      "D": 39,
      "E": 40,
      "F": 41,
      "G": 42,
      "H": 43,
      "I": 44,
      "J": 45,
      "K": 46,
      "L": 47,
      "M": 48,
      "N": 49,
      "O": 50,
      "P": 51,
      "R": 52,
      "S": 53,
      "T": 54,
      "U": 55,
      "V": 56,
      "W": 57,
      "X": 58,
      "Y": 59,
      "Z": 60,
      "[": 61,
      "]": 62,
      "_": 63,
      "a": 64,
      "b": 65,
      "c": 66,
      "d": 67,
      "e": 68,
      "f": 69,
      "g": 70,
      "h": 71,
      "i": 72,
      "j": 73,
      "k": 74,
      "l": 75,
      "m": 76,
      "n": 77,
      "o": 78,
      "p": 79,
      "q": 80,
      "r": 81,
      "s": 82,
      "t": 83,
      "u": 84,
      "v": 85,
      "w": 86,
      "x": 87,
      "y": 88,
      "z": 89,
      "}": 90,
      "«": 91,
      "»": 92,
      "â": 93,
      "ã": 94,
      "è": 95,
      "é": 96,
      "ë": 97,
      "î": 98,
      "ï": 99,
      "ó": 100,
      "ô": 101,
      "õ": 102,
      "û": 103,
      "Ŋ": 104,
      "ŋ": 105,
      "œ": 106,
      "Ɲ": 107,
      "ɲ": 108,
      "̃": 109,
      "ẽ": 110,
      "–": 111,
      "‘": 112,
      "’": 113,
      "“": 114,
      "”": 115,
      "…": 116,
      "‹": 117,
      "›": 118,
      "《": 119,
      "》": 120,
      "ka": 121,
      "ga": 122,
      "ay": 123,
      "an": 124,
      "da": 125,
      "ey": 126,
      "ma": 127,
      "in": 128,
      "ra": 129,
      "aa": 130,
      "no": 131,
      "bo": 132,
      "ya": 133,
      "kaŋ": 134,
      "ri": 135,
      "mo": 136,
      "ko": 137,
      "go": 138,
      "se": 139,
      "na": 140,
      "al": 141,
      "ku": 142,
      "ar": 143,
      "ni": 144,
      "di": 145,
      "ne": 146,
      "ab": 147,
      "ro": 148,
      "yaŋ": 149,
      "koy": 150,
      "bi": 151,
      "te": 152,
      "do": 153,
      "nda": 154,
      "lu": 155,
      "ci": 156,
      "din": 157,
      "si": 158,
      "ara": 159,
      "kulu": 160,
      "gu": 161,
      "ba": 162,
      "fo": 163,
      "to": 164,
      "du": 165,
      "ama": 166,
      "ee": 167,
      "bu": 168,
      "nga": 169,
      "la": 170,
      "wo": 171,
      "gaa": 172,
      "ti": 173,
      "ha": 174,
      "araŋ": 175,
      "ala": 176,
      "fu": 177,
      "Rab": 178,
      "iz": 179,
      "Rabbi": 180,
      "sa": 181,
      "ta": 182,
      "andi": 183,
      "ray": 184,
      "rey": 185,
      "tu": 186,
      "ono": 187,
      "boŋ": 188,
      "ji": 189,
      "ban": 190,
      "ine": 191,
      "su": 192,
      "iri": 193,
      "Iri": 194,
      "waa": 195,
      "boro": 196,
      "laa": 197,
      "man": 198,
      "wa": 199,
      "bay": 200,
      "de": 201,
      "han": 202,
      "ru": 203,
      "kaa": 204,
      "Irikoy": 205,
      "gey": 206,
      "mma": 207,
      "san": 208,
      "fa": 209,
      "aray": 210,
      "za": 211,
      "Ay": 212,
      "hin": 213,
      "lo": 214,
      "aŋ": 215,
      "mb": 216,
      "zama": 217,
      "bin": 218,
      "goono": 219,
      "borey": 220,
      "mi": 221,
      "bee": 222,
      "ngey": 223,
      "odin": 224,
      "hu": 225,
      "izey": 226,
      "aw": 227,
      "ton": 228,
      "Ya": 229,
      "ye": 230,
      "wan": 231,
      "li": 232,
      "baa": 233,
      "mbu": 234,
      "hi": 235,
      "fun": 236,
      "ciya": 237,
      "way": 238,
      "cin": 239,
      "banda": 240,
      "so": 241,
      "Amma": 242,
      "dey": 243,
      "nko": 244,
      "goy": 245,
      "may": 246,
      "me": 247,
      "Zama": 248,
      "maa": 249,
      "Bo": 250,
      "dan": 251,
      "sin": 252,
      "kan": 253,
      "hay": 254,
      "Is": 255,
      "nya": 256,
      "mana": 257,
      "rayla": 258,
      "Israyla": 259,
      "taa": 260,
      "jine": 261,
      "kamb": 262,
      "ize": 263,
      "hala": 264,
      "Ni": 265,
      "mey": 266,
      "zu": 267,
      "kay": 268,
      "Ye": 269,
      "cine": 270,
      "bonko": 271,
      "daŋ": 272,
      "binde": 273,
      "jin": 274,
      "are": 275,
      "don": 276,
      "nan": 277,
      "sab": 278,
      "kambe": 279,
      "goro": 280,
      "raŋ": 281,
      "kal": 282,
      "yaa": 283,
      "win": 284,
      "Ma": 285,
      "gay": 286,
      "laabo": 287,
      "bonkoono": 288,
      "saa": 289,
      "wala": 290,
      "taray": 291,
      "mu": 292,
      "hari": 293,
      "ngu": 294,
      "bey": 295,
      "bora": 296,
      "hal": 297,
      "mar": 298,
      "ney": 299,
      "ani": 300,
      "wi": 301,
      "gonda": 302,
      "sal": 303,
      "kala": 304,
      "day": 305,
      "ley": 306,
      "Wo": 307,
      "Yesu": 308,
      "tun": 309,
      "Waa": 310,
      "cey": 311,
      "sar": 312,
      "sanda": 313,
      "gan": 314,
      "ce": 315,
      "Araŋ": 316,
      "sabbay": 317,
      "sambu": 318,
      "yaŋo": 319,
      "wane": 320,
      "Al": 321,
      "amma": 322,
      "ŋwaa": 323,
      "naŋ": 324,
      "ndu": 325,
      "boo": 326,
      "haray": 327,
      "fee": 328,
      "bar": 329,
      "jama": 330,
      "kar": 331,
      "izo": 332,
      "mate": 333,
      "haŋ": 334,
      "ŋwa": 335,
      "noo": 336,
      "fay": 337,
      "Boro": 338,
      "Yaa": 339,
      "nd": 340,
      "waato": 341,
      "Irikoyo": 342,
      "Waato": 343,
      "Wa": 344,
      "Kala": 345,
      "yo": 346,
      "aru": 347,
      "kwaa": 348,
      "koyne": 349,
      "mba": 350,
      "zan": 351,
      "Yahu": 352,
      "Daw": 353,
      "Dawda": 354,
      "Woodin": 355,
      "ho": 356,
      "nu": 357,
      "sala": 358,
      "salaŋ": 359,
      "tey": 360,
      "zaa": 361,
      "cindi": 362,
      "gaab": 363,
      "hinka": 364,
      "gana": 365,
      "say": 366,
      "soo": 367,
      "dumi": 368,
      "furo": 369,
      "wongu": 370,
      "woodin": 371,
      "far": 372,
      "windo": 373,
      "riya": 374,
      "sanno": 375,
      "kande": 376,
      "nnya": 377,
      "faa": 378,
      "sargay": 379,
      "Da": 380,
      "too": 381,
      "Mu": 382,
      "cii": 383,
      "jo": 384,
      "ana": 385,
      "Mi": 386,
      "anta": 387,
      "Ko": 388,
      "tan": 389,
      "ze": 390,
      "ham": 391,
      "nin": 392,
      "ayaŋ": 393,
      "yaadin": 394,
      "game": 395,
      "cee": 396,
      "key": 397,
      "fi": 398,
      "Sa": 399,
      "haw": 400,
      "danga": 401,
      "Musa": 402,
      "le": 403,
      "koo": 404,
      "Yaadin": 405,
      "ndey": 406,
      "noodin": 407,
      "koyo": 408,
      "anna": 409,
      "hã": 410,
      "ndunnya": 411,
      "kuba": 412,
      "waati": 413,
      "fat": 414,
      "manti": 415,
      "ayey": 416,
      "jir": 417,
      "kwaara": 418,
      "lor": 419,
      "bisa": 420,
      "suu": 421,
      "zi": 422,
      "nango": 423,
      "llo": 424,
      "Baa": 425,
      "guna": 426,
      "tee": 427,
      "beeri": 428,
      "eya": 429,
      "sinda": 430,
      "foo": 431,
      "boobo": 432,
      "kuu": 433,
      "usu": 434,
      "ca": 435,
      "bine": 436,
      "ulu": 437,
      "abu": 438,
      "buu": 439,
      "Yo": 440,
      "ila": 441,
      "ima": 442,
      "har": 443,
      "care": 444,
      "caw": 445,
      "one": 446,
      "humbu": 447,
      "laakal": 448,
      "zunu": 449,
      "margu": 450,
      "beene": 451,
      "masi": 452,
      "bare": 453,
      "haa": 454,
      "halaci": 455,
      "donton": 456,
      "gumo": 457,
      "aya": 458,
      "randi": 459,
      "Ha": 460,
      "yey": 461,
      "sanni": 462,
      "hõ": 463,
      "re": 464,
      "Yahuda": 465,
      "Uru": 466,
      "salima": 467,
      "Urusalima": 468,
      "mandi": 469,
      "dira": 470,
      "ceeci": 471,
      "neeya": 472,
      "Misi": 473,
      "ina": 474,
      "kwa": 475,
      "aba": 476,
      "fatta": 477,
      "kasin": 478,
      "Fi": 479,
      "ante": 480,
      "marga": 481,
      "Nga": 482,
      "nangu": 483,
      "faaba": 484,
      "eeri": 485,
      "hantu": 486,
      "hima": 487,
      "Ji": 488,
      "hir": 489,
      "Bi": 490,
      "sanney": 491,
      "Kal": 492,
      "alfa": 493,
      "tal": 494,
      "nooya": 495,
      "gaabi": 496,
      "tondi": 497,
      "fonda": 498,
      "yan": 499,
      "see": 500,
      "ŋwaaray": 501,
      "windi": 502,
      "Ifo": 503,
      "abe": 504,
      ".»": 505,
      "ciiti": 506,
      "bina": 507,
      "dondon": 508,
      "lordi": 509,
      "Si": 510,
      "sey": 511,
      "cina": 512,
      "koyey": 513,
      "kayna": 514,
      "follo": 515,
      "saabu": 516,
      "dar": 517,
      "mbo": 518,
      "doo": 519,
      "nee": 520,
      "goo": 521,
      "Misira": 522,
      "masihu": 523,
      "Almasihu": 524,
      "Su": 525,
      "moy": 526,
      "meyo": 527,
      "woone": 528,
      "ganda": 529,
      "jiiri": 530,
      "Borey": 531,
      "fooyaŋ": 532,
      "hantum": 533,
      "Han": 534,
      "kubay": 535,
      "iy": 536,
      "mbar": 537,
      "adi": 538,
      "Za": 539,
      "sint": 540,
      "hanno": 541,
      "laabu": 542,
      "andiyaŋ": 543,
      "Koy": 544,
      "nay": 545,
      "ki": 546,
      "ndo": 547,
      "ad": 548,
      "Man": 549,
      "Gu": 550,
      "bir": 551,
      "jina": 552,
      "bara": 553,
      "zar": 554,
      "ŋwaari": 555,
      "tara": 556,
      "guu": 557,
      "bat": 558,
      "ke": 559,
      "fundi": 560,
      "tuu": 561,
      "albar": 562,
      "waani": 563,
      "eyaŋ": 564,
      "dee": 565,
      "cabe": 566,
      "folloŋ": 567,
      "salle": 568,
      "bari": 569,
      "So": 570,
      "hinza": 571,
      "dumey": 572,
      "cindey": 573,
      "Bee": 574,
      "afo": 575,
      "cimi": 576,
      "kunda": 577,
      "zangu": 578,
      "zambar": 579,
      "zunubi": 580,
      "kor": 581,
      "fuwo": 582,
      "jirbi": 583,
      "raw": 584,
      "maan": 585,
      "baaba": 586,
      "kaw": 587,
      "lay": 588,
      "fundo": 589,
      "hane": 590,
      "abada": 591,
      "Saw": 592,
      "nku": 593,
      "Bonko": 594,
      "war": 595,
      "kur": 596,
      "ggoy": 597,
      "Sawulu": 598,
      "kamba": 599,
      "ura": 600,
      "haggoy": 601,
      "daabu": 602,
      "Guna": 603,
      "bonkoo": 604,
      "darza": 605,
      "jey": 606,
      "sariya": 607,
      "zaari": 608,
      "nandi": 609,
      "Gaa": 610,
      "danji": 611,
      "je": 612,
      "wayboro": 613,
      "kaayey": 614,
      "Se": 615,
      "Be": 616,
      "baani": 617,
      "Yakuba": 618,
      "laalo": 619,
      "arza": 620,
      "hanan": 621,
      "Bonkoono": 622,
      "Kaŋ": 623,
      "humburu": 624,
      "San": 625,
      "sinji": 626,
      "dumo": 627,
      "feeri": 628,
      "bamba": 629,
      "alaa": 630,
      "kko": 631,
      "waran": 632,
      "dda": 633,
      "seeda": 634,
      "goyey": 635,
      "mayray": 636,
      "bumbo": 637,
      "asariya": 638,
      "gom": 639,
      "zo": 640,
      "May": 641,
      "zuru": 642,
      "laala": 643,
      "lla": 644,
      "gar": 645,
      "He": 646,
      "liya": 647,
      "hinne": 648,
      "aro": 649,
      "doŋ": 650,
      "kasinay": 651,
      "yu": 652,
      "pa": 653,
      "annabi": 654,
      "alfaga": 655,
      "arey": 656,
      "kaaru": 657,
      "dancey": 658,
      "Ku": 659,
      "batu": 660,
      "taaci": 661,
      "suuban": 662,
      "moo": 663,
      "baabo": 664,
      "nkuna": 665,
      "tira": 666,
      "sohõ": 667,
      "wura": 668,
      "zin": 669,
      "duma": 670,
      "goyo": 671,
      "boori": 672,
      "kambey": 673,
      "Ngey": 674,
      "fan": 675,
      "fondo": 676,
      "takuba": 677,
      "jinde": 678,
      "Beero": 679,
      "soobay": 680,
      "Bu": 681,
      "zumbu": 682,
      "tam": 683,
      "feema": 684,
      "yaŋey": 685,
      "wey": 686,
      "hanga": 687,
      "fongu": 688,
      "alman": 689,
      "adili": 690,
      "awi": 691,
      "yadda": 692,
      "tali": 693,
      "kaan": 694,
      "Fili": 695,
      "wab": 696,
      "hayey": 697,
      "bambata": 698,
      "tondo": 699,
      "beero": 700,
      "jaŋ": 701,
      "aruna": 702,
      "dondonandi": 703,
      "Ib": 704,
      "wayna": 705,
      "Manti": 706,
      "bandi": 707,
      "kani": 708,
      "jirbey": 709,
      "Haruna": 710,
      "Laa": 711,
      "kaaray": 712,
      "suwa": 713,
      "gandi": 714,
      "funa": 715,
      "biney": 716,
      "jisi": 717,
      "iyye": 718,
      "baaru": 719,
      "Lawi": 720,
      "hanna": 721,
      "Oho": 722,
      "be": 723,
      "haro": 724,
      "tonton": 725,
      "Alfa": 726,
      "gi": 727,
      "malay": 728,
      "waney": 729,
      "cimandi": 730,
      "Biya": 731,
      "To": 732,
      "Wala": 733,
      "zii": 734,
      "dudu": 735,
      "guuru": 736,
      "Saaya": 737,
      "kooni": 738,
      "rawna": 739,
      "taali": 740,
      "konda": 741,
      "sududu": 742,
      "fe": 743,
      "wano": 744,
      "jare": 745,
      "fari": 746,
      "bankaaray": 747,
      "albarka": 748,
      "lan": 749,
      "iba": 750,
      "daa": 751,
      "ir": 752,
      "candi": 753,
      "bana": 754,
      "abila": 755,
      "beena": 756,
      "hunkuna": 757,
      "Kulu": 758,
      "Ne": 759,
      "Mo": 760,
      "beerey": 761,
      "tuuri": 762,
      "ram": 763,
      "barey": 764,
      "sara": 765,
      "goray": 766,
      "beerandi": 767,
      "arzaka": 768,
      "ndi": 769,
      "feeji": 770,
      "dabari": 771,
      "tugu": 772,
      "alboro": 773,
      "Firawna": 774,
      "rko": 775,
      "ancey": 776,
      "soola": 777,
      "toonandi": 778,
      "Filis": 779,
      "Hala": 780,
      "raa": 781,
      "miila": 782,
      "sintin": 783,
      "wangu": 784,
      "naa": 785,
      "Babila": 786,
      "farhã": 787,
      "gaay": 788,
      "tunandi": 789,
      "kuri": 790,
      "dake": 791,
      "dam": 792,
      "nangey": 793,
      "Filistan": 794,
      "gal": 795,
      "hii": 796,
      "bagu": 797,
      "kanka": 798,
      "gari": 799,
      "manu": 800,
      "Mate": 801,
      "Sohõ": 802,
      "alwaati": 803,
      "el": 804,
      "bonkooni": 805,
      "nzar": 806,
      "leymanu": 807,
      "Suleymanu": 808,
      "batama": 809,
      "Me": 810,
      "him": 811,
      "Dan": 812,
      "Way": 813,
      "biya": 814,
      "waybora": 815,
      "gaaba": 816,
      "Ab": 817,
      "zey": 818,
      "gaaray": 819,
      "fondey": 820,
      "funay": 821,
      "kaani": 822,
      "hẽ": 823,
      "mbara": 824,
      "arku": 825,
      "beeray": 826,
      "jinda": 827,
      "addu": 828,
      "rahim": 829,
      "Ibrahim": 830,
      "tay": 831,
      "adilitaray": 832,
      "Yahudancey": 833,
      "cire": 834,
      "zeeri": 835,
      "Yeho": 836,
      "ja": 837,
      "bayray": 838,
      "gomni": 839,
      "ciika": 840,
      "umi": 841,
      "neesi": 842,
      "Na": 843,
      "Yusu": 844,
      "Yusufu": 845,
      "lokko": 846,
      "boŋo": 847,
      "faham": 848,
      "alha": 849,
      "Ba": 850,
      "Go": 851,
      "kond": 852,
      "waranka": 853,
      "nyaŋo": 854,
      "nzarfu": 855,
      "sintina": 856,
      "lasaabu": 857,
      "Ze": 858,
      "tooru": 859,
      "nna": 860,
      "jinay": 861,
      "teeko": 862,
      "zanka": 863,
      "Amo": 864,
      "adduwa": 865,
      "hangan": 866,
      "yee": 867,
      "ibarey": 868,
      "jar": 869,
      "Waati": 870,
      "kuro": 871,
      "lli": 872,
      "kanta": 873,
      "Kundey": 874,
      "No": 875,
      "ifo": 876,
      "tamo": 877,
      "Filistancey": 878,
      "Kundeykoyo": 879,
      "naan": 880,
      "kooney": 881,
      "cawandi": 882,
      "malayka": 883,
      "saba": 884,
      "yandi": 885,
      "moyduma": 886,
      "ganji": 887,
      "laabey": 888,
      "niya": 889,
      "adin": 890,
      "los": 891,
      "id": 892,
      "fiti": 893,
      "tamey": 894,
      "yaamo": 895,
      "muraa": 896,
      "taabi": 897,
      "taamu": 898,
      "Nin": 899,
      "Iliya": 900,
      "gur": 901,
      "tro": 902,
      "mayaa": 903,
      "zaaro": 904,
      "ngo": 905,
      "baakasinay": 906,
      "tila": 907,
      "bindo": 908,
      "reyzin": 909,
      "buuyaŋ": 910,
      "rro": 911,
      "taŋ": 912,
      "hiyo": 913,
      "Yasuwa": 914,
      "Bulos": 915,
      "tubu": 916,
      "ciine": 917,
      "wande": 918,
      "kaari": 919,
      "alfagey": 920,
      "hamo": 921,
      "arkusey": 922,
      "tab": 923,
      "min": 924,
      "talibey": 925,
      "almayaa": 926,
      "saray": 927,
      "furu": 928,
      "kand": 929,
      "lante": 930,
      "tuusu": 931,
      "teyaŋ": 932,
      "yel": 933,
      "nafa": 934,
      "diya": 935,
      "kuray": 936,
      "kku": 937,
      "Sanda": 938,
      "Koyo": 939,
      "tros": 940,
      "aari": 941,
      "Do": 942,
      "Day": 943,
      "sifa": 944,
      "Hanna": 945,
      "bannya": 946,
      "saajo": 947,
      "harey": 948,
      "kurn": 949,
      "kuru": 950,
      "rku": 951,
      "koytara": 952,
      "Bora": 953,
      "jinayey": 954,
      "Hi": 955,
      "bangay": 956,
      "meyey": 957,
      "ŋwaaro": 958,
      "danta": 959,
      "tamtaray": 960,
      "Bitros": 961,
      "Hay": 962,
      "Bay": 963,
      "fanta": 964,
      "birno": 965,
      "As": 966,
      "birni": 967,
      "biiri": 968,
      "Eli": 969,
      "himandi": 970,
      "Izo": 971,
      "ari": 972,
      "alkaw": 973,
      "wandi": 974,
      "jara": 975,
      "izeyaŋ": 976,
      "kom": 977,
      "sundu": 978,
      "laaley": 979,
      "mur": 980,
      "bangandi": 981,
      "saaya": 982,
      "dun": 983,
      "alwaato": 984,
      "zunubey": 985,
      "fulan": 986,
      "catu": 987,
      "ceeri": 988,
      "mayra": 989,
      "on": 990,
      "Ti": 991,
      "teeyaŋ": 992,
      "sorro": 993,
      "gorokoy": 994,
      "zee": 995,
      "jeeri": 996,
      "he": 997,
      "duumi": 998,
      "fir": 999,
      "miya": 1000,
      "kali": 1001,
      "Haŋ": 1002,
      "Ur": 1003,
      "sarga": 1004,
      "dandi": 1005,
      "ayo": 1006,
      "sap": 1007,
      "saaw": 1008,
      "dambara": 1009,
      "Mowab": 1010,
      "Ge": 1011,
      "Daa": 1012,
      "hanandi": 1013,
      "wando": 1014,
      "jarga": 1015,
      "futa": 1016,
      "hinkanta": 1017,
      "bann": 1018,
      "Urdun": 1019,
      "hamni": 1020,
      "ziji": 1021,
      "tabbat": 1022,
      "cimb": 1023,
      "teerey": 1024,
      "Isa": 1025,
      "kalo": 1026,
      "fulanza": 1027,
      "can": 1028,
      "nyu": 1029,
      "yaw": 1030,
      "alborey": 1031,
      "sse": 1032,
      "Noodin": 1033,
      "handu": 1034,
      "koyyaŋ": 1035,
      "Abi": 1036,
      "Bayt": 1037,
      "albarkan": 1038,
      "sundurko": 1039,
      "Daahir": 1040,
      "koyaŋ": 1041,
      "soho": 1042,
      "fansa": 1043,
      "Ka": 1044,
      "alhaa": 1045,
      "karga": 1046,
      "tangari": 1047,
      "huku": 1048,
      "isa": 1049,
      "bonkooney": 1050,
      "sasab": 1051,
      "jaw": 1052,
      "Ar": 1053,
      "annabitaray": 1054,
      "koytaray": 1055,
      "zaama": 1056,
      "Jama": 1057,
      "Woone": 1058,
      "hukumo": 1059,
      "windanta": 1060,
      "hãadin": 1061,
      "rancey": 1062,
      "lley": 1063,
      "jiri": 1064,
      "Ci": 1065,
      "almayaaley": 1066,
      "garaŋ": 1067,
      "annabey": 1068,
      "kambu": 1069,
      "bundu": 1070,
      "iddu": 1071,
      "gooro": 1072,
      "hina": 1073,
      "buuru": 1074,
      "cinaro": 1075,
      "ayaŋo": 1076,
      "Re": 1077,
      "hamay": 1078,
      "nangora": 1079,
      "muwi": 1080,
      "Samuwi": 1081,
      "Samuwila": 1082,
      "arwa": 1083,
      "cawandiyaŋ": 1084,
      "gun": 1085,
      "kwaaray": 1086,
      "ano": 1087,
      "hinzan": 1088,
      "ciri": 1089,
      "barmay": 1090,
      "firki": 1091,
      "Hu": 1092,
      "koono": 1093,
      "If": 1094,
      "dangay": 1095,
      "ali": 1096,
      "nooyandi": 1097,
      "farha": 1098,
      "Yowab": 1099,
      "Irimiya": 1100,
      "ron": 1101,
      "bangu": 1102,
      "fiji": 1103,
      "daab": 1104,
      "raymu": 1105,
      "suba": 1106,
      "Ifraymu": 1107,
      "Fu": 1108,
      "nyamin": 1109,
      "Benyamin": 1110,
      "sargayey": 1111,
      "lordey": 1112,
      "wayborey": 1113,
      "Kana": 1114,
      "wam": 1115,
      "gaahamo": 1116,
      "taji": 1117,
      "kanay": 1118,
      "hinzanta": 1119,
      "hamey": 1120,
      "Adam": 1121,
      "bon": 1122,
      "naanay": 1123,
      "hirro": 1124,
      "gata": 1125,
      "Yohanna": 1126,
      "gorokasin": 1127,
      "Tu": 1128,
      "Zi": 1129,
      "kuuru": 1130,
      "kka": 1131,
      "biri": 1132,
      "futay": 1133,
      "lek": 1134,
      "wayo": 1135,
      "donda": 1136,
      "gallo": 1137,
      "baytu": 1138,
      "Alwaato": 1139,
      "zankey": 1140,
      "daray": 1141,
      "boroyaŋ": 1142,
      "kabu": 1143,
      "toorey": 1144,
      "jay": 1145,
      "dumbu": 1146,
      "zay": 1147,
      "aŋo": 1148,
      "daŋandi": 1149,
      "rkumay": 1150,
      "siya": 1151,
      "waranza": 1152,
      "Assi": 1153,
      "Haciika": 1154,
      "Yona": 1155,
      "yayaŋ": 1156,
      "ŋay": 1157,
      "Baaba": 1158,
      "kankam": 1159,
      "laali": 1160,
      "kundey": 1161,
      "Jir": 1162,
      "hara": 1163,
      "sib": 1164,
      "yaafa": 1165,
      "rayey": 1166,
      "neewo": 1167,
      "neera": 1168,
      "hananta": 1169,
      "tilas": 1170,
      "zamana": 1171,
      "tondey": 1172,
      "gaabandi": 1173,
      "bannyey": 1174,
      "gaabo": 1175,
      "saaware": 1176,
      "sam": 1177,
      "bowam": 1178,
      "Danga": 1179,
      "daraŋ": 1180,
      "waygu": 1181,
      "Nan": 1182,
      "Sihiyo": 1183,
      "Sihiyona": 1184,
      "aza": 1185,
      "hiiji": 1186,
      "daaru": 1187,
      "yana": 1188,
      "riyaŋ": 1189,
      "Naŋ": 1190,
      "Ama": 1191,
      "leyad": 1192,
      "Jileyad": 1193,
      "misa": 1194,
      "co": 1195,
      "sappa": 1196,
      "diyaŋ": 1197,
      "tak": 1198,
      "ŋa": 1199,
      "kwaarey": 1200,
      "yanje": 1201,
      "jan": 1202,
      "hanse": 1203,
      "sududuyaŋ": 1204,
      "?»": 1205,
      "cinari": 1206,
      "duv": 1207,
      "Hanno": 1208,
      "Isaka": 1209,
      "mbey": 1210,
      "aha": 1211,
      "fahamay": 1212,
      "Baal": 1213,
      "kayney": 1214,
      "ganayaŋ": 1215,
      "wow": 1216,
      "Mana": 1217,
      "gaakasinay": 1218,
      "yay": 1219,
      "masiiba": 1220,
      "bankaarayey": 1221,
      "daahir": 1222,
      "zeciya": 1223,
      "Koyne": 1224,
      "Hezeciya": 1225,
      "son": 1226,
      "gurzu": 1227,
      "albarkandi": 1228,
      "Assiriya": 1229,
      "waytaaci": 1230,
      "guusu": 1231,
      "almaney": 1232,
      "ziya": 1233,
      "nooru": 1234,
      "cu": 1235,
      "tis": 1236,
      "kubayyaŋ": 1237,
      "Li": 1238,
      "nooyaŋ": 1239,
      "Pe": 1240,
      "wasa": 1241,
      "Edo": 1242,
      "kurmu": 1243,
      "fundey": 1244,
      "Manasse": 1245,
      "Ndu": 1246,
      "ino": 1247,
      "pati": 1248,
      "baaro": 1249,
      "ziibi": 1250,
      "Fari": 1251,
      "jii": 1252,
      "tos": 1253,
      "Ho": 1254,
      "waate": 1255,
      "koŋ": 1256,
      "Sama": 1257,
      "im": 1258,
      "ofo": 1259,
      "Ke": 1260,
      "aniya": 1261,
      "kuukey": 1262,
      "Yonata": 1263,
      "gaaham": 1264,
      "Baabo": 1265,
      "Lawitey": 1266,
      "humburkumay": 1267,
      "om": 1268,
      "suuji": 1269,
      "Ahi": 1270,
      "Ta": 1271,
      "anniya": 1272,
      "hasara": 1273,
      "azawa": 1274,
      "Ndunnya": 1275,
      "beera": 1276,
      "asib": 1277,
      "konna": 1278,
      "lam": 1279,
      "wayey": 1280,
      "haawi": 1281,
      "buukoy": 1282,
      "lokkolo": 1283,
      "Samariya": 1284,
      "samba": 1285,
      "Waybora": 1286,
      "ziibandi": 1287,
      "yanta": 1288,
      "Soho": 1289,
      "waazu": 1290,
      "saabuyaŋ": 1291,
      "salom": 1292,
      "Ru": 1293,
      "gunde": 1294,
      "hab": 1295,
      "muraadey": 1296,
      "kambo": 1297,
      "kuuwa": 1298,
      "Absalom": 1299,
      "yancey": 1300,
      "tor": 1301,
      "zina": 1302,
      "dugu": 1303,
      "aban": 1304,
      "saamo": 1305,
      "anka": 1306,
      "baray": 1307,
      "saajaw": 1308,
      "lin": 1309,
      "hincin": 1310,
      "gusam": 1311,
      "haciika": 1312,
      "taka": 1313,
      "taabandi": 1314,
      "Pa": 1315,
      "wiciri": 1316,
      "kosaray": 1317,
      "mooru": 1318,
      "mante": 1319,
      "ikulu": 1320,
      "fuwey": 1321,
      "Kaari": 1322,
      "bal": 1323,
      "jiyaŋ": 1324,
      "fulanzam": 1325,
      "duvan": 1326,
      "haya": 1327,
      "Edom": 1328,
      "tubo": 1329,
      "dambangu": 1330,
      "yaasay": 1331,
      "Ra": 1332,
      "woofo": 1333,
      "afirki": 1334,
      "bumbey": 1335,
      "mayraykoyey": 1336,
      "bato": 1337,
      "fey": 1338,
      "cimbeeri": 1339,
      "zeyaŋ": 1340,
      "Amon": 1341,
      "Baaru": 1342,
      "diraw": 1343,
      "dooru": 1344,
      "hangey": 1345,
      "mun": 1346,
      "kuuku": 1347,
      "iyyanta": 1348,
      "tabbatandi": 1349,
      "sombu": 1350,
      "saabo": 1351,
      "sahãadin": 1352,
      "arka": 1353,
      "bananta": 1354,
      "sun": 1355,
      "dal": 1356,
      "guuso": 1357,
      "Asa": 1358,
      "cawo": 1359,
      "--": 1360,
      "Mal": 1361,
      "cara": 1362,
      "canta": 1363,
      "antey": 1364,
      "koonu": 1365,
      "hirri": 1366,
      "baano": 1367,
      "tik": 1368,
      "bakar": 1369,
      "alhakko": 1370,
      "ge": 1371,
      "tti": 1372,
      "tafay": 1373,
      "windey": 1374,
      "hanantey": 1375,
      "Mar": 1376,
      "galley": 1377,
      "ptis": 1378,
      "naamey": 1379,
      "jaŋay": 1380,
      "Kay": 1381,
      "soogu": 1382,
      "dirawo": 1383,
      "yano": 1384,
      "kun": 1385,
      "ptisma": 1386,
      "balaa": 1387,
      "kasina": 1388,
      "murte": 1389,
      "ganjo": 1390,
      "gaaru": 1391,
      "cimo": 1392,
      "zzar": 1393,
      "wal": 1394,
      "adilante": 1395,
      "kurey": 1396,
      "susu": 1397,
      "tar": 1398,
      "sall": 1399,
      "kaynandi": 1400,
      "Di": 1401,
      "hilli": 1402,
      "toonan": 1403,
      "Farisi": 1404,
      "tudey": 1405,
      "humburandi": 1406,
      "Isuwa": 1407,
      "naraŋ": 1408,
      "baptisma": 1409,
      "ihanno": 1410,
      "dii": 1411,
      "jijiri": 1412,
      "maney": 1413,
      "Du": 1414,
      "llay": 1415,
      "alkawlo": 1416,
      "Alfaga": 1417,
      "asibti": 1418,
      "suuru": 1419,
      "ben": 1420,
      "parka": 1421,
      "melek": 1422,
      "susubay": 1423,
      "kasee": 1424,
      "bindi": 1425,
      "hino": 1426,
      "himan": 1427,
      "lokkol": 1428,
      "teeku": 1429,
      "Hari": 1430,
      "Iliyasu": 1431,
      "waasu": 1432,
      "Nebu": 1433,
      "lordo": 1434,
      "hindi": 1435,
      "eni": 1436,
      "parkatak": 1437,
      "ciray": 1438,
      "kayandi": 1439,
      "kawyey": 1440,
      "iyya": 1441,
      "mooro": 1442,
      "eyo": 1443,
      "siino": 1444,
      "muu": 1445,
      "niri": 1446,
      "Sanno": 1447,
      "dinya": 1448,
      "alkawli": 1449,
      "dne": 1450,
      "Hal": 1451,
      "futu": 1452,
      "gaabikooni": 1453,
      "Laabo": 1454,
      "muusu": 1455,
      "Yahudan": 1456,
      "gomno": 1457,
      "kurnye": 1458,
      "jandi": 1459,
      "haŋyaŋ": 1460,
      "alaama": 1461,
      "waasi": 1462,
      "jamaa": 1463,
      "taaley": 1464,
      "Zaari": 1465,
      "kungu": 1466,
      "sasabandiyaŋ": 1467,
      "amaana": 1468,
      "lasaabo": 1469,
      "kokor": 1470,
      "soojey": 1471,
      "Misirancey": 1472,
      "suujo": 1473,
      "kaseeti": 1474,
      "fon": 1475,
      "waana": 1476,
      "baro": 1477,
      "kaaruwa": 1478,
      "hanante": 1479,
      "aniyel": 1480,
      "lamba": 1481,
      "harram": 1482,
      "zamaney": 1483,
      "kurnyo": 1484,
      "kon": 1485,
      "kalima": 1486,
      "Jirbi": 1487,
      "dabaro": 1488,
      "Balaa": 1489,
      "kaŋay": 1490,
      "zinji": 1491,
      "Ahab": 1492,
      "kante": 1493,
      "zumandi": 1494,
      "Kanaana": 1495,
      "Fo": 1496,
      "lak": 1497,
      "beeje": 1498,
      "tondiyaŋ": 1499,
      "saara": 1500,
      "Doŋ": 1501,
      "Tee": 1502,
      "feej": 1503,
      "Yahudance": 1504,
      "nyaŋey": 1505,
      "baayaŋ": 1506,
      "batukoy": 1507,
      "sallama": 1508,
      "Gad": 1509,
      "tiyo": 1510,
      "Anna": 1511,
      "Lo": 1512,
      "afolloŋ": 1513,
      "jiney": 1514,
      "Jibey": 1515,
      "muraadu": 1516,
      "kos": 1517,
      "kaati": 1518,
      "kwaay": 1519,
      "kaarey": 1520,
      "halaciyaŋ": 1521,
      "kwaayo": 1522,
      "doon": 1523,
      "Aha": 1524,
      "Sin": 1525,
      "alka": 1526,
      "rayaŋ": 1527,
      "dede": 1528,
      "jabu": 1529,
      "safat": 1530,
      "wandey": 1531,
      "biirima": 1532,
      "Saa": 1533,
      "Ruben": 1534,
      "Nu": 1535,
      "diina": 1536,
      "alhaali": 1537,
      "koŋŋa": 1538,
      "Ga": 1539,
      "maayey": 1540,
      "jee": 1541,
      "dagu": 1542,
      "Sam": 1543,
      ".›": 1544,
      "malaykey": 1545,
      "Yehosafat": 1546,
      "hanney": 1547,
      "yaamar": 1548,
      "hasaraw": 1549,
      "dalbu": 1550,
      "daba": 1551,
      "zer": 1552,
      "feerijo": 1553,
      "Bila": 1554,
      "Daniyel": 1555,
      "torko": 1556,
      "sata": 1557,
      "hano": 1558,
      "feejey": 1559,
      "fatt": 1560,
      "gaakuri": 1561,
      "Yero": 1562,
      "gon": 1563,
      "Seba": 1564,
      "Aba": 1565,
      "Albar": 1566,
      "fitilla": 1567,
      "fayaŋ": 1568,
      "doori": 1569,
      "afa": 1570,
      "yoo": 1571,
      "Bar": 1572,
      "adilitara": 1573,
      "Eliye": 1574,
      "Yehu": 1575,
      "ahakku": 1576,
      "yeeji": 1577,
      "koso": 1578,
      "Balaam": 1579,
      "taacanta": 1580,
      "baafunay": 1581,
      "Eliyezar": 1582,
      "kadne": 1583,
      "subu": 1584,
      "Nebukadne": 1585,
      "Nebukadnezzar": 1586,
      "Es": 1587,
      "gooji": 1588,
      "daabir": 1589,
      "Kar": 1590,
      "nooro": 1591,
      "sandi": 1592,
      "dad": 1593,
      "alo": 1594,
      "baka": 1595,
      "farka": 1596,
      "fundikoono": 1597,
      "anzu": 1598,
      "Kaldancey": 1599,
      "salley": 1600,
      "Siman": 1601,
      "yul": 1602,
      "Tun": 1603,
      "Alaa": 1604,
      "sooje": 1605,
      "faada": 1606,
      "farilley": 1607,
      "Adi": 1608,
      "doona": 1609,
      "tuguyaŋ": 1610,
      "fooma": 1611,
      "Ben": 1612,
      "alhakku": 1613,
      "farkay": 1614,
      "Jidey": 1615,
      "saaji": 1616,
      "Hanan": 1617,
      "balaaw": 1618,
      "diyey": 1619,
      "Tir": 1620,
      "goobu": 1621,
      "eero": 1622,
      "Jideyon": 1623,
      "Gali": 1624,
      "kura": 1625,
      "taalam": 1626,
      "Abada": 1627,
      "Galili": 1628,
      "er": 1629,
      "bayrandi": 1630,
      "kam": 1631,
      "kakaw": 1632,
      "taalo": 1633,
      "Amorancey": 1634,
      "taaca": 1635,
      "Yez": 1636,
      "canse": 1637,
      "boŋbeeray": 1638,
      "laasaabu": 1639,
      "Caw": 1640,
      "Laakal": 1641,
      "hando": 1642,
      "toon": 1643,
      "sasabandi": 1644,
      "Pas": 1645,
      "po": 1646,
      "mot": 1647,
      "Bilatos": 1648,
      "riyancey": 1649,
      "dondonandiyaŋ": 1650,
      "zaara": 1651,
      "faro": 1652,
      "Yerobowam": 1653,
      "fin": 1654,
      "cimbeero": 1655,
      "toonante": 1656,
      "afooyaŋ": 1657,
      "gante": 1658,
      "Maa": 1659,
      "sarku": 1660,
      "fayanka": 1661,
      "kaano": 1662,
      "fuu": 1663,
      "waadu": 1664,
      "zamba": 1665,
      "zulli": 1666,
      "haaw": 1667,
      "gooru": 1668,
      "kob": 1669,
      "sum": 1670,
      "dayaŋ": 1671,
      "moolo": 1672,
      "gallu": 1673,
      "Yahudiya": 1674,
      "mon": 1675,
      "gaari": 1676,
      "Uz": 1677,
      "gungu": 1678,
      "iway": 1679,
      "fulanzamay": 1680,
      "kanda": 1681,
      "ciito": 1682,
      "Abimelek": 1683,
      "Hunkuna": 1684,
      "gunda": 1685,
      "lakkal": 1686,
      "uba": 1687,
      "Suriya": 1688,
      "fonnay": 1689,
      "tuubi": 1690,
      "Paska": 1691,
      "cino": 1692,
      "mayaŋ": 1693,
      "goni": 1694,
      "hat": 1695,
      "wu": 1696,
      "yag": 1697,
      "sabaa": 1698,
      "Mika": 1699,
      "tilam": 1700,
      "Samson": 1701,
      "halli": 1702,
      "Zo": 1703,
      "nooyaŋey": 1704,
      "tooro": 1705,
      "farey": 1706,
      "gurzugandi": 1707,
      "lantey": 1708,
      "bron": 1709,
      "korfo": 1710,
      "Afo": 1711,
      "lal": 1712,
      "kanji": 1713,
      "nyumay": 1714,
      "ner": 1715,
      "boŋey": 1716,
      "laakalo": 1717,
      "danjo": 1718,
      "biriyey": 1719,
      "Hebron": 1720,
      "kawaati": 1721,
      "kankami": 1722,
      "alhaalo": 1723,
      "arwaso": 1724,
      "Am": 1725,
      "torkey": 1726,
      "kunfa": 1727,
      "cawkey": 1728,
      "yeti": 1729,
      "Nangu": 1730,
      "follay": 1731,
      "Alaahara": 1732,
      "damay": 1733,
      "Isaya": 1734,
      "Ban": 1735,
      "handa": 1736,
      "danaw": 1737,
      "Te": 1738,
      "Seke": 1739,
      "goobo": 1740,
      "deeni": 1741,
      "kasu": 1742,
      "yama": 1743,
      "laami": 1744,
      "Maryama": 1745,
      "alfu": 1746,
      "samay": 1747,
      "Bete": 1748,
      "fattandi": 1749,
      "Tira": 1750,
      "hariyaŋ": 1751,
      "Goo": 1752,
      "Hina": 1753,
      "Abner": 1754,
      "hibandi": 1755,
      "Abram": 1756,
      "Sahãadin": 1757,
      "pe": 1758,
      "wiyaŋ": 1759,
      "Hadad": 1760,
      "bur": 1761,
      "wongo": 1762,
      "Fee": 1763,
      "sayaŋ": 1764,
      "wandiyo": 1765,
      "Betel": 1766,
      "Laban": 1767,
      "tin": 1768,
      "summa": 1769,
      "mehaw": 1770,
      "Liban": 1771,
      "tirey": 1772,
      "sufu": 1773,
      "kondey": 1774,
      "dondonyaŋ": 1775,
      "hagu": 1776,
      "jiirey": 1777,
      "wayye": 1778,
      "Reho": 1779,
      "gaze": 1780,
      "zabu": 1781,
      "non": 1782,
      "seke": 1783,
      "maano": 1784,
      "wandiya": 1785,
      "ibaay": 1786,
      "jiiro": 1787,
      "zunubo": 1788,
      "Sekem": 1789,
      "!»": 1790,
      "gora": 1791,
      "dab": 1792,
      "teekoy": 1793,
      "bayra": 1794,
      "koray": 1795,
      "Zede": 1796,
      "kunku": 1797,
      "cawandiyaŋo": 1798,
      "maray": 1799,
      "Ayuba": 1800,
      "hahaa": 1801,
      "wangaari": 1802,
      "sed": 1803,
      "tamma": 1804,
      "dum": 1805,
      "talka": 1806,
      "deeda": 1807,
      "Bey": 1808,
      "diyayaŋ": 1809,
      "nyaizey": 1810,
      "ɲa": 1811,
      "sijiri": 1812,
      "beeney": 1813,
      "Jiiri": 1814,
      "iboobo": 1815,
      "koro": 1816,
      "Aza": 1817,
      "diji": 1818,
      "fundikooni": 1819,
      "hawo": 1820,
      "fata": 1821,
      "halal": 1822,
      "Zedeciya": 1823,
      "Eliya": 1824,
      "Mor": 1825,
      "hẽeni": 1826,
      "Dama": 1827,
      "kayne": 1828,
      "Kanaan": 1829,
      "Say": 1830,
      "fafa": 1831,
      "Haw": 1832,
      "Kwaa": 1833,
      "jiray": 1834,
      "taamey": 1835,
      "nura": 1836,
      "laaliyaŋ": 1837,
      "ihinka": 1838,
      "skos": 1839,
      "tiŋay": 1840,
      "bariyey": 1841,
      "bayrayey": 1842,
      "Damaskos": 1843,
      "Yeri": 1844,
      "dondonandikoy": 1845,
      "Haman": 1846,
      "bakaraw": 1847,
      "ilaalo": 1848,
      "gorandi": 1849,
      "hinay": 1850,
      "talkey": 1851,
      "neesiyaŋ": 1852,
      "Abiya": 1853,
      "Faa": 1854,
      "ran": 1855,
      "Sey": 1856,
      "dekay": 1857,
      "hawyaŋ": 1858,
      "nyun": 1859,
      "diyan": 1860,
      "Malay": 1861,
      "koroŋ": 1862,
      "Mordekay": 1863,
      "pi": 1864,
      "ŋo": 1865,
      "garey": 1866,
      "maraŋ": 1867,
      "ser": 1868,
      "Kanaanancey": 1869,
      "mbi": 1870,
      "miri": 1871,
      "kuuro": 1872,
      "riiba": 1873,
      "sargayyaŋ": 1874,
      "kuuko": 1875,
      "yongo": 1876,
      "korbay": 1877,
      "Bala": 1878,
      "sikka": 1879,
      "kati": 1880,
      "sisi": 1881,
      "fintal": 1882,
      "oni": 1883,
      "lii": 1884,
      "halla": 1885,
      "fundikooney": 1886,
      "Yeriko": 1887,
      "jindey": 1888,
      "Suriyancey": 1889,
      "La": 1890,
      "duu": 1891,
      "hansey": 1892,
      "laakalkooni": 1893,
      "Saytan": 1894,
      "lon": 1895,
      "Dumi": 1896,
      "hami": 1897,
      "yaaru": 1898,
      "farilla": 1899,
      "Ize": 1900,
      "baakasina": 1901,
      "diibi": 1902,
      "kuraana": 1903,
      "giri": 1904,
      "annura": 1905,
      "dooni": 1906,
      "waydu": 1907,
      "Taa": 1908,
      "kari": 1909,
      "manta": 1910,
      "curey": 1911,
      "El": 1912,
      "saal": 1913,
      "birney": 1914,
      "kusu": 1915,
      "abel": 1916,
      "deena": 1917,
      "ŋey": 1918,
      "ciin": 1919,
      "amar": 1920,
      "boosi": 1921,
      "car": 1922,
      "Cin": 1923,
      "Hiro": 1924,
      "sumb": 1925,
      "hayyaŋ": 1926,
      "hangasin": 1927,
      "daari": 1928,
      "sumbal": 1929,
      "Hambara": 1930,
      "Esta": 1931,
      "ibare": 1932,
      "kosu": 1933,
      "cim": 1934,
      "adilantey": 1935,
      "hallasi": 1936,
      "Hin": 1937,
      "ll": 1938,
      "taab": 1939,
      "garaw": 1940,
      "Natan": 1941,
      "Ana": 1942,
      "Sal": 1943,
      "tonyaŋ": 1944,
      "kataa": 1945,
      "koto": 1946,
      "hayrayey": 1947,
      "gande": 1948,
      "humbur": 1949,
      "dok": 1950,
      "Alwaati": 1951,
      "Zadok": 1952,
      "tafayyaŋo": 1953,
      "tuti": 1954,
      "sanku": 1955,
      "ikayna": 1956,
      "laru": 1957,
      "gaara": 1958,
      "adamay": 1959,
      "tina": 1960,
      "didiji": 1961,
      "sedre": 1962,
      "kaayo": 1963,
      "laabi": 1964,
      "Midiyan": 1965,
      "cawandikey": 1966,
      "jeejay": 1967,
      "caray": 1968,
      "kaaro": 1969,
      "doniya": 1970,
      "riyay": 1971,
      "kilo": 1972,
      "zeena": 1973,
      "wel": 1974,
      "sunsum": 1975,
      "Taw": 1976,
      "maayaŋ": 1977,
      "talibi": 1978,
      "batamey": 1979,
      "taafe": 1980,
      "Kaa": 1981,
      "kariya": 1982,
      "biyo": 1983,
      "kandey": 1984,
      "Buu": 1985,
      "Nuhu": 1986,
      "sanday": 1987,
      "baakwa": 1988,
      "korna": 1989,
      "tanga": 1990,
      "Simey": 1991,
      "lalabu": 1992,
      "Balak": 1993,
      "waha": 1994,
      "follon": 1995,
      "Afirki": 1996,
      "yda": 1997,
      "Yehoyda": 1998,
      "jance": 1999,
      "sekel": 2000,
      "lahami": 2001,
      "gaahamey": 2002,
      "Yasse": 2003,
      "dooro": 2004,
      "Baytlahami": 2005,
      "baakoy": 2006,
      "taasa": 2007,
      "Beeray": 2008,
      "Miz": 2009,
      "ayi": 2010,
      "siyaŋ": 2011,
      "izer": 2012,
      "Malayka": 2013,
      "Zaa": 2014,
      "hawji": 2015,
      "Hananyan": 2016,
      "Naa": 2017,
      "Basan": 2018,
      "himando": 2019,
      "wanta": 2020,
      "ganandi": 2021,
      "foobu": 2022,
      "Zakariya": 2023,
      "kosongu": 2024,
      "londi": 2025,
      "Rehobowam": 2026,
      "annabo": 2027,
      "Yosiya": 2028,
      "sifayaŋ": 2029,
      "hayo": 2030,
      "buuko": 2031,
      "Isu": 2032,
      "iro": 2033,
      "set": 2034,
      "zaŋay": 2035,
      "fansi": 2036,
      "Zeru": 2037,
      "anzura": 2038,
      "wangaaritaray": 2039,
      "eno": 2040,
      "banandi": 2041,
      "Etiyo": 2042,
      "Gan": 2043,
      "diri": 2044,
      "dus": 2045,
      "iriya": 2046,
      "biirimay": 2047,
      "Hirodus": 2048,
      "Etiyopi": 2049,
      "nday": 2050,
      "naagu": 2051,
      "arwasu": 2052,
      "jante": 2053,
      "zara": 2054,
      "wonga": 2055,
      "sarti": 2056,
      "Wayboro": 2057,
      "jaraw": 2058,
      "Isumey": 2059,
      "sancey": 2060,
      "margey": 2061,
      "cahã": 2062,
      "deene": 2063,
      "Goy": 2064,
      "kobto": 2065,
      "rawo": 2066,
      "sandandi": 2067,
      "jangal": 2068,
      "salleyaŋo": 2069,
      "Zu": 2070,
      "jab": 2071,
      "ngandi": 2072,
      "Hayey": 2073,
      "Beene": 2074,
      "taablo": 2075,
      "Tawre": 2076,
      "An": 2077,
      "komey": 2078,
      "bante": 2079,
      "hila": 2080,
      "hiijo": 2081,
      "Rahila": 2082,
      "gonitaray": 2083,
      "wad": 2084,
      "korno": 2085,
      "jabo": 2086,
      "wandiyey": 2087,
      "tiya": 2088,
      "bango": 2089,
      "kanandi": 2090,
      "jirbiyaŋ": 2091,
      "Ro": 2092,
      "reyel": 2093,
      "Simeyo": 2094,
      "saawara": 2095,
      "Jirbey": 2096,
      "Yezreyel": 2097,
      "fuula": 2098,
      "Simeyon": 2099,
      "Ciriya": 2100,
      "mebara": 2101,
      "booriyaŋ": 2102,
      "dambanguyaŋ": 2103,
      "Ciriyat": 2104,
      "ntaa": 2105,
      "tim": 2106,
      "arzakey": 2107,
      "Zab": 2108,
      "bangan": 2109,
      "tuurey": 2110,
      "saamotaray": 2111,
      "naamu": 2112,
      "himandey": 2113,
      "rante": 2114,
      "kortu": 2115,
      "yeejo": 2116,
      "Faaba": 2117,
      "cis": 2118,
      "handay": 2119,
      "hilley": 2120,
      "teera": 2121,
      "alkama": 2122,
      "baafuna": 2123,
      "Jil": 2124,
      "Jibeya": 2125,
      "kunkuni": 2126,
      "Fundi": 2127,
      "yagga": 2128,
      "follonka": 2129,
      "Bine": 2130,
      "Fa": 2131,
      "daama": 2132,
      "bundo": 2133,
      "saha": 2134,
      "funsu": 2135,
      "yawtaray": 2136,
      "tayaŋ": 2137,
      "moydumey": 2138,
      "arwasey": 2139,
      "ttan": 2140,
      "toonye": 2141,
      "dabarey": 2142,
      "summaare": 2143,
      "guwanta": 2144,
      "foy": 2145,
      "nooyaŋo": 2146,
      "Baani": 2147,
      "karji": 2148,
      "nangoray": 2149,
      "teeri": 2150,
      "laakalkooney": 2151,
      "jaa": 2152,
      "siji": 2153,
      "gudda": 2154,
      "buru": 2155,
      "daŋyaŋ": 2156,
      "hindiri": 2157,
      "boto": 2158,
      "bundey": 2159,
      "haali": 2160,
      "abadin": 2161,
      "handariyay": 2162,
      "baji": 2163,
      "fonguyaŋ": 2164,
      "caa": 2165,
      "dabey": 2166,
      "dogo": 2167,
      "bannyayaŋ": 2168,
      "fra": 2169,
      "Naf": 2170,
      "taari": 2171,
      "kayno": 2172,
      "hantumante": 2173,
      "Alfagey": 2174,
      "muudu": 2175,
      "liili": 2176,
      "buukwa": 2177,
      "cawka": 2178,
      "Beyer": 2179,
      "alkuraana": 2180,
      "ciina": 2181,
      "jindaw": 2182,
      "hee": 2183,
      "yawey": 2184,
      "laal": 2185,
      "Wayna": 2186,
      "zeen": 2187,
      "yanjekaarey": 2188,
      "aloo": 2189,
      "eb": 2190,
      "hama": 2191,
      "fatey": 2192,
      "Yebu": 2193,
      "koogu": 2194,
      "laakaley": 2195,
      "deeney": 2196,
      "Albarkante": 2197,
      "Naftali": 2198,
      "cal": 2199,
      "koko": 2200,
      "hahaara": 2201,
      "cindo": 2202,
      "kayyaŋ": 2203,
      "faaru": 2204,
      "Silo": 2205,
      "hirrimi": 2206,
      "Teeku": 2207,
      "sufuray": 2208,
      "Kwaara": 2209,
      "De": 2210,
      "daliya": 2211,
      "bos": 2212,
      "gondi": 2213,
      "albora": 2214,
      "dundu": 2215,
      "suubananta": 2216,
      "Ahaz": 2217,
      "bini": 2218,
      "seedey": 2219,
      "Yehoya": 2220,
      "Azariya": 2221,
      "barzu": 2222,
      "Saduma": 2223,
      "hananyaŋ": 2224,
      "zeytun": 2225,
      "sabaabu": 2226,
      "Jibeyon": 2227,
      "llu": 2228,
      "baayaŋo": 2229,
      "duray": 2230,
      "susuba": 2231,
      "gurzugay": 2232,
      "Wi": 2233,
      "booba": 2234,
      "kuurey": 2235,
      "murteyaŋ": 2236,
      "zaamaani": 2237,
      "It": 2238,
      "Uriya": 2239,
      "Tondi": 2240,
      "Alboro": 2241,
      "darandi": 2242,
      "alla": 2243,
      "zaka": 2244,
      "mii": 2245,
      "suntu": 2246,
      "daaro": 2247,
      "jisiyaŋ": 2248,
      "wowi": 2249,
      "gaasiya": 2250,
      "miru": 2251,
      "muna": 2252,
      "hawzu": 2253,
      "Wongu": 2254,
      "Kora": 2255,
      "kambay": 2256,
      "Beeri": 2257,
      "fod": 2258,
      "wayno": 2259,
      "hiijay": 2260,
      "yulwa": 2261,
      "hon": 2262,
      "Sahara": 2263,
      "Doon": 2264,
      "gunayaŋ": 2265,
      "Zidon": 2266,
      "coro": 2267,
      "Isumeyla": 2268,
      "Saharatu": 2269,
      "Doonkoy": 2270,
      "karaŋ": 2271,
      "biraw": 2272,
      "mbe": 2273,
      "sare": 2274,
      "jiyo": 2275,
      "baabey": 2276,
      "ganta": 2277,
      "cawandika": 2278,
      "Meyo": 2279,
      "efod": 2280,
      "umma": 2281,
      "taasi": 2282,
      "farga": 2283,
      "deesi": 2284,
      "burcin": 2285,
      "oho": 2286,
      "luna": 2287,
      "Gat": 2288,
      "Zabluna": 2289,
      "Gal": 2290,
      "mna": 2291,
      "suudi": 2292,
      "tiyos": 2293,
      "Annabey": 2294,
      "Sar": 2295,
      "Laabu": 2296,
      "Jilgal": 2297,
      "ibeeri": 2298,
      "kusa": 2299,
      "kurne": 2300,
      "Sanni": 2301,
      "deede": 2302,
      "Filibos": 2303,
      "Amaziya": 2304,
      "Boŋ": 2305,
      "hayrey": 2306,
      "dayo": 2307,
      "Bir": 2308,
      "bor": 2309,
      "iza": 2310,
      "daŋanta": 2311,
      "fisi": 2312,
      "ttu": 2313,
      "rim": 2314,
      "Masi": 2315,
      "karyaŋ": 2316,
      "gaabikooney": 2317,
      "hindiro": 2318,
      "kiri": 2319,
      "bugu": 2320,
      "taabo": 2321,
      "tanda": 2322,
      "duure": 2323,
      "nana": 2324,
      "Amin": 2325,
      "Ezer": 2326,
      "Arwa": 2327,
      "Mizpa": 2328,
      "zakka": 2329,
      "izetaray": 2330,
      "albarkante": 2331,
      "naanaykoy": 2332,
      "daaga": 2333,
      "Hittan": 2334,
      "curo": 2335,
      "tammahã": 2336,
      "jarey": 2337,
      "niizer": 2338,
      "bed": 2339,
      "sappe": 2340,
      "20": 2341,
      "bot": 2342,
      "koociya": 2343,
      "deedandi": 2344,
      "Ahaziya": 2345,
      "Tali": 2346,
      "bufu": 2347,
      "waza": 2348,
      "Buwaza": 2349,
      "hiijandi": 2350,
      "Jin": 2351,
      "sasare": 2352,
      "tajo": 2353,
      "zor": 2354,
      "jisiri": 2355,
      "Rama": 2356,
      "zunubikooney": 2357,
      "cabu": 2358,
      "seya": 2359,
      "des": 2360,
      "taafa": 2361,
      "hawey": 2362,
      "Kaleb": 2363,
      "Adili": 2364,
      "alfukaarey": 2365,
      "guddama": 2366,
      "ando": 2367,
      "kogo": 2368,
      "won": 2369,
      "Yesuwa": 2370,
      "jinayyaŋ": 2371,
      "yooje": 2372,
      "Zaaro": 2373,
      "Rey": 2374,
      "kolo": 2375,
      "kubandi": 2376,
      "jindi": 2377,
      "Benaya": 2378,
      "handariyayzey": 2379,
      "fahama": 2380,
      "zam": 2381,
      "cinarey": 2382,
      "kankamo": 2383,
      "Feej": 2384,
      "fta": 2385,
      "Kohat": 2386,
      "Ham": 2387,
      "Hes": 2388,
      "kaliyaŋ": 2389,
      "corey": 2390,
      "Tamar": 2391,
      "taba": 2392,
      "kana": 2393,
      "dotti": 2394,
      "wante": 2395,
      "kaley": 2396,
      "Yahuta": 2397,
      "dandiyaŋ": 2398,
      "boset": 2399,
      "Seyir": 2400,
      "hanseyaŋ": 2401,
      "Daraŋ": 2402,
      "Hama": 2403,
      "kkanta": 2404,
      "rus": 2405,
      "Hananiya": 2406,
      "Hil": 2407,
      "Nango": 2408,
      "londibuu": 2409,
      "munafi": 2410,
      "Wura": 2411,
      "ihinza": 2412,
      "maya": 2413,
      "hamno": 2414,
      "dirawey": 2415,
      "laabukoyey": 2416,
      "zambarey": 2417,
      "Fuwo": 2418,
      "zra": 2419,
      "ciyaŋ": 2420,
      "alatuu": 2421,
      "lisi": 2422,
      "nyuna": 2423,
      "nyaa": 2424,
      "guwa": 2425,
      "dungu": 2426,
      "cawyaŋ": 2427,
      "Laala": 2428,
      "Per": 2429,
      "Lotu": 2430,
      "Afa": 2431,
      "Win": 2432,
      "bori": 2433,
      "feemey": 2434,
      "daabirjey": 2435,
      "Mikaya": 2436,
      "Amnon": 2437,
      "Hananyankoyo": 2438,
      "beeja": 2439,
      "hirandi": 2440,
      "waymo": 2441,
      "Adilitaray": 2442,
      "Yu": 2443,
      "eka": 2444,
      "labu": 2445,
      "maro": 2446,
      "baar": 2447,
      "wayme": 2448,
      "Hesbon": 2449,
      "Aser": 2450,
      "tta": 2451,
      "zuray": 2452,
      "Sihon": 2453,
      "guusey": 2454,
      "asu": 2455,
      "lakaw": 2456,
      "yaaji": 2457,
      "haŋandi": 2458,
      "Handu": 2459,
      "Hananta": 2460,
      "Mera": 2461,
      "Nya": 2462,
      "cilla": 2463,
      "talfi": 2464,
      "Soo": 2465,
      "hansi": 2466,
      "saarayey": 2467,
      "darzan": 2468,
      "mayrayey": 2469,
      "dondonandiyaŋo": 2470,
      "Tar": 2471,
      "alwaa": 2472,
      "aran": 2473,
      "ziibo": 2474,
      "ahakkanta": 2475,
      "tiksa": 2476,
      "botogo": 2477,
      "alwaatey": 2478,
      "Az": 2479,
      "rani": 2480,
      "Ibrani": 2481,
      "gaayi": 2482,
      "Asaf": 2483,
      "kkey": 2484,
      "kaso": 2485,
      "gum": 2486,
      "tugante": 2487,
      "nancey": 2488,
      "hirriyaŋ": 2489,
      "daahirandi": 2490,
      "Nege": 2491,
      "Negeb": 2492,
      "Haa": 2493,
      "mwa": 2494,
      "hinjey": 2495,
      "Yefta": 2496,
      "haran": 2497,
      "Sinayi": 2498,
      "biyey": 2499,
      "kookari": 2500,
      "Ger": 2501,
      "canda": 2502,
      "Hamat": 2503,
      "Ada": 2504,
      "Haya": 2505,
      "boosu": 2506,
      "Semaya": 2507,
      "bambari": 2508,
      "Isakar": 2509,
      "Hilciya": 2510,
      "Bara": 2511,
      "cab": 2512,
      "koda": 2513,
      "silli": 2514,
      "wii": 2515,
      "Yonana": 2516,
      "aley": 2517,
      "duura": 2518,
      "ruyaŋ": 2519,
      "fahamandi": 2520,
      "Takuba": 2521,
      "kaaruwataray": 2522,
      "llayey": 2523,
      "mri": 2524,
      "Safan": 2525,
      "kuuyaŋo": 2526,
      "arkusu": 2527,
      "bangando": 2528,
      "Kan": 2529,
      "soolante": 2530,
      "tayo": 2531,
      "Kaysar": 2532,
      "laalayaŋo": 2533,
      "laabaa": 2534,
      "kayante": 2535,
      "ganjey": 2536,
      "buuyaŋo": 2537,
      "harandaŋ": 2538,
      "boray": 2539,
      "tiŋa": 2540,
      "zeeno": 2541,
      "Yaw": 2542,
      "gaarey": 2543,
      "boŋto": 2544,
      "Ayi": 2545,
      "sayir": 2546,
      "mbarandi": 2547,
      "Danji": 2548,
      "farkayey": 2549,
      "kawaatimi": 2550,
      "Laya": 2551,
      "zaban": 2552,
      "sera": 2553,
      "lum": 2554,
      "gaabu": 2555,
      "Iblisi": 2556,
      "burcini": 2557,
      "iddanta": 2558,
      "Gooru": 2559,
      "Yay": 2560,
      "hiila": 2561,
      "sogo": 2562,
      "res": 2563,
      "hantumkwa": 2564,
      "fafagu": 2565,
      "baara": 2566,
      "tamyaŋ": 2567,
      "Yehoyacim": 2568,
      "dambarandi": 2569,
      "Nazara": 2570,
      "tafayyaŋ": 2571,
      "Cawandi": 2572,
      "taniya": 2573,
      "gare": 2574,
      "gosi": 2575,
      "yanga": 2576,
      "tiraa": 2577,
      "kaanandi": 2578,
      "daabante": 2579,
      "Rabeka": 2580,
      "hẽeno": 2581,
      "lasaabuyaŋ": 2582,
      "fulanzamyaŋ": 2583,
      "Sintina": 2584,
      "ganga": 2585,
      "kuyaŋ": 2586,
      "boŋbeera": 2587,
      "suniya": 2588,
      "adamayze": 2589,
      "suntulo": 2590,
      "Haro": 2591,
      "kc": 2592,
      "boyaŋ": 2593,
      "dima": 2594,
      "bareyaŋ": 2595,
      "buuro": 2596,
      "fando": 2597,
      "ber": 2598,
      "zeyaŋo": 2599,
      "Yabe": 2600,
      "fumbu": 2601,
      "lokoto": 2602,
      "saaray": 2603,
      "Suba": 2604,
      "alaamey": 2605,
      "feejiyaŋ": 2606,
      "Batu": 2607,
      "daabiro": 2608,
      "Tuu": 2609,
      "salleyaŋ": 2610,
      "Tawretu": 2611,
      "ntaaso": 2612,
      "miiley": 2613,
      "amiru": 2614,
      "Rabbo": 2615,
      "liyaŋ": 2616,
      "himma": 2617,
      "marge": 2618,
      "Gedaliya": 2619,
      "heemar": 2620,
      "Merari": 2621,
      "Gerson": 2622,
      "naba": 2623,
      "fuyaŋ": 2624,
      "yaamey": 2625,
      "Barnaba": 2626,
      "aney": 2627,
      "Yere": 2628,
      "ceeciyaŋ": 2629,
      "Abiyatar": 2630,
      "wahakku": 2631,
      "mebarawey": 2632,
      "liiliwal": 2633,
      "ibara": 2634,
      "ses": 2635,
      "rot": 2636,
      "margante": 2637,
      "Sisera": 2638,
      "deedandiyaŋ": 2639,
      "bariyaŋ": 2640,
      "Cii": 2641,
      "Maaka": 2642,
      "wur": 2643,
      "dullu": 2644,
      "lat": 2645,
      "kayn": 2646,
      "yaajo": 2647,
      "fayyaŋ": 2648,
      "llam": 2649,
      "sasabandiyaŋo": 2650,
      "Asariya": 2651,
      "wkc": 2652,
      "bambatey": 2653,
      "Hiram": 2654,
      "kaatiyaŋ": 2655,
      "basi": 2656,
      "jidan": 2657,
      "teeriyaŋ": 2658,
      "Yoram": 2659,
      "alfagataray": 2660,
      "buro": 2661,
      "yoy": 2662,
      "alhakey": 2663,
      "jabuyaŋ": 2664,
      "Neyo": 2665,
      "jeyaŋ": 2666,
      "Yebusancey": 2667,
      "Neyomi": 2668,
      "sii": 2669,
      "banayaŋ": 2670,
      "feeni": 2671,
      "haaru": 2672,
      "haaley": 2673,
      "kubayni": 2674,
      "arzakante": 2675,
      "kaarimi": 2676,
      "yaasayey": 2677,
      "Fin": 2678,
      "kaayaŋo": 2679,
      "Ad": 2680,
      "Pi": 2681,
      "santa": 2682,
      "gaabikoono": 2683,
      "Ruta": 2684,
      "Mayray": 2685,
      "muraado": 2686,
      "Far": 2687,
      "yalla": 2688,
      "koli": 2689,
      "fur": 2690,
      "suku": 2691,
      "funandi": 2692,
      "beeriyaŋ": 2693,
      "Refay": 2694,
      "maani": 2695,
      "rib": 2696,
      "raya": 2697,
      "taala": 2698,
      "tunyaŋo": 2699,
      "pol": 2700,
      "Sallum": 2701,
      "Gare": 2702,
      "we": 2703,
      "satey": 2704,
      "tudo": 2705,
      "zagu": 2706,
      "dante": 2707,
      "kanjiyaŋ": 2708,
      "hangawey": 2709,
      "cawandiyano": 2710,
      "teeyaŋo": 2711,
      "torkoyaŋ": 2712,
      "ihinkanta": 2713,
      "hamney": 2714,
      "korti": 2715,
      "tuusuyaŋ": 2716,
      "Uzziya": 2717,
      "carmay": 2718,
      "CE": 2719,
      "anga": 2720,
      "yeej": 2721,
      "tilasandi": 2722,
      "lma": 2723,
      "dukuri": 2724,
      "fooru": 2725,
      "hartayaŋ": 2726,
      "doogarey": 2727,
      "goorey": 2728,
      "adil": 2729,
      "jaŋa": 2730,
      "fel": 2731,
      "Bat": 2732,
      "Nun": 2733,
      "dabal": 2734,
      "mani": 2735,
      "zaati": 2736,
      "saysay": 2737,
      "Seme": 2738,
      "Cimi": 2739,
      "Teeko": 2740,
      "ul": 2741,
      "batey": 2742,
      "dukur": 2743,
      "hayyaŋo": 2744,
      "Zanka": 2745,
      "mel": 2746,
      "dando": 2747,
      "joo": 2748,
      "kuuyaŋ": 2749,
      "Sanney": 2750,
      "kurnyey": 2751,
      "Ramot": 2752,
      "Karmel": 2753,
      "Adilante": 2754,
      "Nee": 2755,
      "fana": 2756,
      "yus": 2757,
      "Amalek": 2758,
      "daarijo": 2759,
      "Hir": 2760,
      "karayaŋ": 2761,
      "dabu": 2762,
      "sur": 2763,
      "kaaji": 2764,
      "ganakoy": 2765,
      "faadey": 2766,
      "filla": 2767,
      "guunu": 2768,
      "Zer": 2769,
      "yawyaŋ": 2770,
      "yayandi": 2771,
      "Annabi": 2772,
      "laabaari": 2773,
      "ddo": 2774,
      "karey": 2775,
      "mou": 2776,
      "bata": 2777,
      "moodabal": 2778,
      "tamtara": 2779,
      "bonday": 2780,
      "Abe": 2781,
      "Susu": 2782,
      "bayyaŋ": 2783,
      "beere": 2784,
      "alaadey": 2785,
      "taamuyaŋ": 2786,
      "kosongo": 2787,
      "koloŋay": 2788,
      "Ak": 2789,
      "Adoniya": 2790,
      "Zan": 2791,
      "for": 2792,
      "loo": 2793,
      "ciinay": 2794,
      "ciiney": 2795,
      "Sargay": 2796,
      "nyaale": 2797,
      "boriyandi": 2798,
      "Afooyaŋ": 2799,
      "Baru": 2800,
      "deyaŋ": 2801,
      "harta": 2802,
      "zunubikooni": 2803,
      "Humbu": 2804,
      "Baruk": 2805,
      "19": 2806,
      "nyayaŋ": 2807,
      "siw": 2808,
      "Persiya": 2809,
      "dukuro": 2810,
      "safari": 2811,
      "Fondo": 2812,
      "fune": 2813,
      "hillo": 2814,
      "saabey": 2815,
      "cam": 2816,
      "sanniyaŋ": 2817,
      "Abisay": 2818,
      "Nangoray": 2819,
      "Ahiya": 2820,
      "Yezabel": 2821,
      "Zerses": 2822,
      "dak": 2823,
      "kusuu": 2824,
      "bandey": 2825,
      "kaajey": 2826,
      "feerante": 2827,
      "Ciiti": 2828,
      "isey": 2829,
      "kuku": 2830,
      "badiya": 2831,
      "burey": 2832,
      "Gom": 2833,
      "barmayyaŋ": 2834,
      "torka": 2835,
      "jaase": 2836,
      "il": 2837,
      "igu": 2838,
      "gayyaŋ": 2839,
      "daya": 2840,
      "doonay": 2841,
      "maanaa": 2842,
      "Nabot": 2843,
      "linci": 2844,
      "eyor": 2845,
      "yangala": 2846,
      "Zey": 2847,
      "fongandi": 2848,
      "follayey": 2849,
      "Yowa": 2850,
      "walhã": 2851,
      "anzuray": 2852,
      "Talibey": 2853,
      "Ezra": 2854,
      "bis": 2855,
      "Sorro": 2856,
      "komyaŋ": 2857,
      "Tirey": 2858,
      "iciray": 2859,
      "stos": 2860,
      "taro": 2861,
      "gaakasina": 2862,
      "hantumo": 2863,
      "suubanantey": 2864,
      "Filistanca": 2865,
      "Amonancey": 2866,
      "Zik": 2867,
      "Ari": 2868,
      "gundo": 2869,
      "sari": 2870,
      "waaliya": 2871,
      "korfey": 2872,
      "hananyaŋo": 2873,
      "neesiji": 2874,
      "zeeney": 2875,
      "gunguray": 2876,
      "layaŋ": 2877,
      "gumandi": 2878,
      "kwaari": 2879,
      "Bonkooni": 2880,
      "garba": 2881,
      "almayaali": 2882,
      "alhaaley": 2883,
      "alfukaaru": 2884,
      "bna": 2885,
      "siiri": 2886,
      "hangaw": 2887,
      "zankataray": 2888,
      "dogonandi": 2889,
      "calu": 2890,
      "Acis": 2891,
      "Dee": 2892,
      "En": 2893,
      "sak": 2894,
      "tangam": 2895,
      "Masidoniya": 2896,
      "Saha": 2897,
      "Hano": 2898,
      "deedando": 2899,
      "konno": 2900,
      "dondonandiyaŋey": 2901,
      "itaaci": 2902,
      "ihinzanta": 2903,
      "guru": 2904,
      "fap": 2905,
      "wiya": 2906,
      "ceeyaŋ": 2907,
      "koobu": 2908,
      "waaniyaŋ": 2909,
      "alaada": 2910,
      "gurjay": 2911,
      "biiriima": 2912,
      "Kades": 2913,
      "nyumayyaŋ": 2914,
      "Zeruwiya": 2915,
      "wongaari": 2916,
      "DE": 2917,
      "iya": 2918,
      "kaana": 2919,
      "hirrey": 2920,
      "Laalante": 2921,
      "cora": 2922,
      "hawjiyey": 2923,
      "AO": 2924,
      "sis": 2925,
      "tolli": 2926,
      "futo": 2927,
      "manay": 2928,
      "hum": 2929,
      "nangorayey": 2930,
      "hananteyaŋ": 2931,
      "adilitaraykoy": 2932,
      "jase": 2933,
      "duvaŋo": 2934,
      "handayze": 2935,
      "Tarsis": 2936,
      "babel": 2937,
      "banando": 2938,
      "Hazay": 2939,
      "himandiyaŋ": 2940,
      "Zerubabel": 2941,
      "CEDE": 2942,
      "Semes": 2943,
      "Humburkumay": 2944,
      "Hazayel": 2945,
      "she": 2946,
      "maana": 2947,
      "koti": 2948,
      "cir": 2949,
      "hud": 2950,
      "Baasa": 2951,
      "Yotam": 2952,
      "Sanku": 2953,
      "zokoti": 2954,
      "fonguyaŋey": 2955,
      "yeenandi": 2956,
      "sifaw": 2957,
      "aloomaro": 2958,
      "Yabes": 2959,
      "CEDEAO": 2960,
      "shen": 2961,
      "Sab": 2962,
      "diyandi": 2963,
      "mantey": 2964,
      "funey": 2965,
      "saya": 2966,
      "goobey": 2967,
      "arzakan": 2968,
      "pat": 2969,
      "Noo": 2970,
      "laabiizetaray": 2971,
      "Hittancey": 2972,
      "baso": 2973,
      "mancey": 2974,
      "yaazi": 2975,
      "guusuyaŋey": 2976,
      "kataakey": 2977,
      "Ara": 2978,
      "Arawna": 2979,
      "calo": 2980,
      "ur": 2981,
      "zancey": 2982,
      "zaada": 2983,
      "faadancey": 2984,
      "alfagayaŋ": 2985,
      "zeeban": 2986,
      "gorokasiney": 2987,
      "Gomni": 2988,
      "Rim": 2989,
      "tarey": 2990,
      "kobay": 2991,
      "gundey": 2992,
      "Sad": 2993,
      "waatifo": 2994,
      "masii": 2995,
      "sintinay": 2996,
      "yagganta": 2997,
      "Rimmon": 2998,
      "ikayney": 2999,
      "abal": 3000,
      "hazi": 3001,
      "suugu": 3002,
      "eyas": 3003,
      "Yohanan": 3004,
      "laalakoyey": 3005,
      "tooruyaŋ": 3006,
      "Arnon": 3007,
      "alatuumi": 3008,
      "Fineyas": 3009,
      "kusuuma": 3010,
      "Obed": 3011,
      "moso": 3012,
      "saawar": 3013,
      "fargandi": 3014,
      "caha": 3015,
      "goojiyaŋ": 3016,
      "naanayo": 3017,
      "curay": 3018,
      "jiraytaray": 3019,
      "Ganji": 3020,
      "jabante": 3021,
      "kokobe": 3022,
      "kol": 3023,
      "hiyey": 3024,
      "jirsi": 3025,
      "casu": 3026,
      "buukoyaŋ": 3027,
      "haabu": 3028,
      "Sirus": 3029,
      "Uzzi": 3030,
      "sijirey": 3031,
      "Adamu": 3032,
      "Elam": 3033,
      "kaara": 3034,
      "kaajo": 3035,
      "maasa": 3036,
      "Kor": 3037,
      "seedayaŋ": 3038,
      "Sikka": 3039,
      "yaamoyaŋ": 3040,
      "kat": 3041,
      "mundi": 3042,
      "jawo": 3043,
      "Zera": 3044,
      "sooguyaŋ": 3045,
      "fataw": 3046,
      "Nabal": 3047,
      "hel": 3048,
      "motiyos": 3049,
      "kum": 3050,
      "hamisa": 3051,
      "tunay": 3052,
      "haawo": 3053,
      "halaciyaŋo": 3054,
      "tuuro": 3055,
      "fer": 3056,
      "Timotiyos": 3057,
      "joote": 3058,
      "riyus": 3059,
      "hambara": 3060,
      "sante": 3061,
      "mer": 3062,
      "cambu": 3063,
      "ŋwaarayyaŋo": 3064,
      "Yehowasa": 3065,
      "naanandi": 3066,
      "koŋŋey": 3067,
      "kobtey": 3068,
      "Tuuri": 3069,
      "Wandi": 3070,
      "ii": 3071,
      "gulinci": 3072,
      "sos": 3073,
      "furoyaŋo": 3074,
      "maanandi": 3075,
      "gomna": 3076,
      "guurusay": 3077,
      "Kambe": 3078,
      "Windi": 3079,
      "Hirro": 3080,
      "kazaama": 3081,
      "wana": 3082,
      "taasey": 3083,
      "farsi": 3084,
      "neesiyaŋo": 3085,
      "Kaynu": 3086,
      "Ami": 3087,
      "rata": 3088,
      "yad": 3089,
      "tuk": 3090,
      "Hag": 3091,
      "suubanante": 3092,
      "awiya": 3093,
      "Ninawiya": 3094,
      "Ahikam": 3095,
      "Ibraniyancey": 3096,
      "siirandi": 3097,
      "gaaro": 3098,
      "hawante": 3099,
      "bankaara": 3100,
      "wayga": 3101,
      "noorey": 3102,
      "zankaa": 3103,
      "nufey": 3104,
      "Misiran": 3105,
      "Hiban": 3106,
      "cahãyaŋ": 3107,
      "rizancey": 3108,
      "bande": 3109,
      "Dariyus": 3110,
      "Muusu": 3111,
      "Cira": 3112,
      "Perizancey": 3113,
      "Lu": 3114,
      "am": 3115,
      "anteyaŋ": 3116,
      "ciiri": 3117,
      "guyaŋ": 3118,
      "gundu": 3119,
      "tajey": 3120,
      "jitti": 3121,
      "hinkoyey": 3122,
      "furoyaŋ": 3123,
      "tanjay": 3124,
      "Bel": 3125,
      "Hez": 3126,
      "Mesu": 3127,
      "Wayborey": 3128,
      "fitilley": 3129,
      "bangayyaŋ": 3130,
      "gurzuga": 3131,
      "Ufra": 3132,
      "owan": 3133,
      "kul": 3134,
      "butal": 3135,
      "tante": 3136,
      "casanta": 3137,
      "Manowan": 3138,
      "garbey": 3139,
      "daabirjo": 3140,
      "handariya": 3141,
      "korbayey": 3142,
      "Ufratis": 3143,
      "Kari": 3144,
      "ibeerey": 3145,
      "folla": 3146,
      "yuu": 3147,
      "jareyaŋ": 3148,
      "almayaalo": 3149,
      "tammaha": 3150,
      "darzante": 3151,
      "Susubay": 3152,
      "Darza": 3153,
      "fine": 3154,
      "feyaŋ": 3155,
      "tofel": 3156,
      "Mat": 3157,
      "let": 3158,
      "batukoyaŋ": 3159,
      "Nebat": 3160,
      "Mowabancey": 3161,
      "Ahitofel": 3162,
      "Fonda": 3163,
      "Albarkan": 3164,
      "kambayze": 3165,
      "saawarey": 3166,
      "Daba": 3167,
      "zalla": 3168,
      "tiŋo": 3169,
      "sina": 3170,
      "yos": 3171,
      "tandey": 3172,
      "Hazor": 3173,
      "Hanney": 3174,
      "mayraykoyo": 3175,
      "Tondo": 3176,
      "beeraykoy": 3177,
      "Dumey": 3178,
      "follayyaŋ": 3179,
      "gagari": 3180,
      "waaney": 3181,
      "hindoonay": 3182,
      "mbari": 3183,
      "taliya": 3184,
      "lmaŋ": 3185,
      "Mesullam": 3186,
      "Haran": 3187,
      "niine": 3188,
      "ngaari": 3189,
      "jilla": 3190,
      "sando": 3191,
      "Yaasay": 3192,
      "windikoyo": 3193,
      "batandi": 3194,
      "naamo": 3195,
      "sisiri": 3196,
      "wiikoy": 3197,
      "Ede": 3198,
      "sinti": 3199,
      "taaru": 3200,
      "ŋwaara": 3201,
      "soojeyaŋ": 3202,
      "faasa": 3203,
      "reb": 3204,
      "cimikoy": 3205,
      "laaloyaŋ": 3206,
      "lokkoli": 3207,
      "daabirji": 3208,
      "Lacis": 3209,
      "Faabakwa": 3210,
      "munafici": 3211,
      "masiibey": 3212,
      "See": 3213,
      "boy": 3214,
      "gud": 3215,
      "bayaŋ": 3216,
      "taabal": 3217,
      "ndun": 3218,
      "feejo": 3219,
      "mayraykoy": 3220,
      "booriyaŋo": 3221,
      "kaanay": 3222,
      "adduwey": 3223,
      "Yehoram": 3224,
      "Timna": 3225,
      "Refayim": 3226,
      "Hibancey": 3227,
      "Aro": 3228,
      "Ziba": 3229,
      "koma": 3230,
      "tudu": 3231,
      "tutubu": 3232,
      "hinje": 3233,
      "hor": 3234,
      "abad": 3235,
      "Laabey": 3236,
      "tabba": 3237,
      "yaamaryaŋ": 3238,
      "Wiciri": 3239,
      "Afasos": 3240,
      "garena": 3241,
      "Yeya": 3242,
      "Zal": 3243,
      "uru": 3244,
      "taku": 3245,
      "waari": 3246,
      "faka": 3247,
      "wayanta": 3248,
      "soko": 3249,
      "goyyaŋ": 3250,
      "Alman": 3251,
      "faaji": 3252,
      "patar": 3253,
      "Maaseya": 3254,
      "Ek": 3255,
      "lee": 3256,
      "kas": 3257,
      "kabar": 3258,
      "bukka": 3259,
      "ngay": 3260,
      "zugu": 3261,
      "sarjilla": 3262,
      "Yowasa": 3263,
      "cawey": 3264,
      "cinakoy": 3265,
      "Yehowaha": 3266,
      "Ekron": 3267,
      "Yehowahaz": 3268,
      "NO": 3269,
      "mor": 3270,
      "kungandi": 3271,
      "goroko": 3272,
      "Mikal": 3273,
      "Kokor": 3274,
      "ciitikoy": 3275,
      "Heber": 3276,
      "kaaruwatara": 3277,
      "dottijo": 3278,
      "Og": 3279,
      "kangey": 3280,
      "daar": 3281,
      "faha": 3282,
      "goyteerey": 3283,
      "mulay": 3284,
      "ganako": 3285,
      "soote": 3286,
      "lekan": 3287,
      "Susan": 3288,
      "kankamandi": 3289,
      "Amalekan": 3290,
      "Asahel": 3291,
      "alkaaley": 3292,
      "kawaatimandi": 3293,
      "Naaman": 3294,
      "Haawi": 3295,
      "Hezron": 3296,
      "sama": 3297,
      "kalaa": 3298,
      "morata": 3299,
      "bili": 3300,
      "dod": 3301,
      "bulu": 3302,
      "laalante": 3303,
      "nufa": 3304,
      "Gomorata": 3305,
      "Asdod": 3306,
      "Taka": 3307,
      "mantawey": 3308,
      "Zeytun": 3309,
      "Yowas": 3310,
      "Gaza": 3311,
      "abey": 3312,
      "luya": 3313,
      "sip": 3314,
      "Alborey": 3315,
      "Alle": 3316,
      "karanga": 3317,
      "haawandi": 3318,
      "kuruko": 3319,
      "Alleluya": 3320,
      "Key": 3321,
      "lme": 3322,
      "kab": 3323,
      "kara": 3324,
      "ayandi": 3325,
      "siray": 3326,
      "mayko": 3327,
      "Macir": 3328,
      "ŋwaayandi": 3329,
      "Ner": 3330,
      "diiyaŋ": 3331,
      "adilandi": 3332,
      "Yeyarim": 3333,
      "Keyla": 3334,
      "yante": 3335,
      "maliyaŋ": 3336,
      "lutu": 3337,
      "funo": 3338,
      "subo": 3339,
      "sinay": 3340,
      "wiyaŋo": 3341,
      "nduɲ": 3342,
      "fayante": 3343,
      "Sela": 3344,
      "Danjo": 3345,
      "sabaabo": 3346,
      "Eliyab": 3347,
      "Arwaso": 3348,
      "Dabari": 3349,
      "Obadiya": 3350,
      "Saray": 3351,
      "bas": 3352,
      "tura": 3353,
      "ganday": 3354,
      "moorandi": 3355,
      "dondonandiko": 3356,
      "Lawiti": 3357,
      "Saamo": 3358,
      "summaara": 3359,
      "wongaarey": 3360,
      "Itamar": 3361,
      "Habila": 3362,
      "gaw": 3363,
      "ansa": 3364,
      "sazzar": 3365,
      "loko": 3366,
      "gandey": 3367,
      "gaabandiyaŋ": 3368,
      "haama": 3369,
      "Netaniya": 3370,
      "naaru": 3371,
      "Cis": 3372,
      "Albarka": 3373,
      "Im": 3374,
      "kaayaŋ": 3375,
      "alma": 3376,
      "baan": 3377,
      "kaymi": 3378,
      "wiiza": 3379,
      "faali": 3380,
      "gorokasino": 3381,
      "konn": 3382,
      "kataaku": 3383,
      "kabarandi": 3384,
      "Aram": 3385,
      "Yey": 3386,
      "wyaŋ": 3387,
      "gaako": 3388,
      "bayrey": 3389,
      "fas": 3390,
      "waygo": 3391,
      "taabey": 3392,
      "booso": 3393,
      "alaasiray": 3394,
      "Laara": 3395,
      "Gehazi": 3396,
      "danawey": 3397,
      "Yerebowam": 3398,
      "poltik": 3399,
      "sipres": 3400,
      "Le": 3401,
      "tanja": 3402,
      "koosu": 3403,
      "Seraya": 3404,
      "Arba": 3405,
      "Ahimelek": 3406,
      "korfoyaŋ": 3407,
      "wonkoyo": 3408,
      "boŋtobay": 3409,
      "armo": 3410,
      "ciyaŋo": 3411,
      "duda": 3412,
      "muray": 3413,
      "yance": 3414,
      "batukwa": 3415,
      "asibtey": 3416,
      "aloomar": 3417,
      "Ahima": 3418,
      "dudal": 3419,
      "misayaŋ": 3420,
      "ciitey": 3421,
      "yankoy": 3422,
      "kawye": 3423,
      "lokkoley": 3424,
      "gurfa": 3425,
      "sisiriyaŋ": 3426,
      "Albarkanteyaŋ": 3427,
      "sen": 3428,
      "diyaŋo": 3429,
      "tot": 3430,
      "tolme": 3431,
      "furku": 3432,
      "Zamana": 3433,
      "Kubay": 3434,
      "Malci": 3435,
      "doonkoy": 3436,
      "gungum": 3437,
      "Anatot": 3438,
      "dunguri": 3439,
      "Eden": 3440,
      "guddu": 3441,
      "?›": 3442,
      "Peyor": 3443,
      "pp": 3444,
      "ter": 3445,
      "dur": 3446,
      "wayya": 3447,
      "hayra": 3448,
      "kaydiya": 3449,
      "Yeru": 3450,
      "gayil": 3451,
      "yolla": 3452,
      "annasaara": 3453,
      "Abigayil": 3454,
      "sohoŋ": 3455,
      "Hor": 3456,
      "kaseetiyaŋ": 3457,
      "Antiyos": 3458,
      "Fansa": 3459,
      "caŋ": 3460,
      "rak": 3461,
      "alsi": 3462,
      "nyaize": 3463,
      "fiboset": 3464,
      "seew": 3465,
      "seese": 3466,
      "doole": 3467,
      "tuur": 3468,
      "darzakoy": 3469,
      "Mefiboset": 3470,
      "alhakkey": 3471,
      "Waatifo": 3472,
      "Cawandiyaŋ": 3473,
      "adamayzey": 3474,
      "timmante": 3475,
      "Fastos": 3476,
      ".)": 3477,
      "manne": 3478,
      "cinayaŋ": 3479,
      "zurey": 3480,
      "dond": 3481,
      "saajawo": 3482,
      "sambuyaŋ": 3483,
      "teekwa": 3484,
      "foori": 3485,
      "kerib": 3486,
      "Senna": 3487,
      "Nadab": 3488,
      "Cimb": 3489,
      "Rekab": 3490,
      "Husay": 3491,
      "tiksey": 3492,
      "jijiriyaŋ": 3493,
      "karangaley": 3494,
      "Sennakerib": 3495,
      "Ri": 3496,
      "ijina": 3497,
      "kke": 3498,
      "nyaizo": 3499,
      "nufaa": 3500,
      "birante": 3501,
      "sinjiyaŋ": 3502,
      "Heman": 3503,
      "Doo": 3504,
      "nyum": 3505,
      "finga": 3506,
      "Reyzin": 3507,
      "Batukoy": 3508,
      "Tan": 3509,
      "Wan": 3510,
      "garo": 3511,
      "daka": 3512,
      "Rabsa": 3513,
      "saamey": 3514,
      "daymi": 3515,
      "humburku": 3516,
      "darzakoyo": 3517,
      "jarekwa": 3518,
      "zankatara": 3519,
      "yeeni": 3520,
      "mursay": 3521,
      "Hoseya": 3522,
      "Bannya": 3523,
      "Teman": 3524,
      "tiney": 3525,
      "Elkana": 3526,
      "Tawreto": 3527,
      "Rabsake": 3528,
      "Aziya": 3529,
      "Cina": 3530,
      "Haba": 3531,
      "Jine": 3532,
      "haway": 3533,
      "izee": 3534,
      "saŋ": 3535,
      "faana": 3536,
      "kambeyaŋ": 3537,
      "Albora": 3538,
      "zaarey": 3539,
      "ceecikoy": 3540,
      "darzey": 3541,
      "batuko": 3542,
      "gurbi": 3543,
      "muuley": 3544,
      "yooja": 3545,
      "caadante": 3546,
      "Gallo": 3547,
      "Zankey": 3548,
      "kataru": 3549,
      "garenad": 3550,
      "sokonyaŋo": 3551,
      "In": 3552,
      "Tal": 3553,
      "habu": 3554,
      "ndaraŋ": 3555,
      "bantey": 3556,
      "wahayo": 3557,
      "sokon": 3558,
      "danj": 3559,
      "Nahor": 3560,
      "bangandiyaŋ": 3561,
      "Libna": 3562,
      "hilliyaŋ": 3563,
      "feejize": 3564,
      "Buuru": 3565,
      "kokora": 3566,
      "ndunɲa": 3567,
      "ot": 3568,
      "gaasu": 3569,
      "yaasa": 3570,
      "Mik": 3571,
      "Yowel": 3572,
      "follokom": 3573,
      "Sukko": 3574,
      "Tobiya": 3575,
      "soolam": 3576,
      "Sukkot": 3577,
      "Ataliya": 3578,
      "Zabu": 3579,
      "inga": 3580,
      "gorongaari": 3581,
      "Hannatu": 3582,
      "halliyaŋ": 3583,
      "gomnati": 3584,
      "Amalekancey": 3585,
      "Ahimaz": 3586,
      "hare": 3587,
      "tandi": 3588,
      "mongo": 3589,
      "dilla": 3590,
      "birawo": 3591,
      "tub": 3592,
      "laawal": 3593,
      "hanandiyaŋ": 3594,
      "wang": 3595,
      "wayboray": 3596,
      "kanjey": 3597,
      "ŋwaarayyaŋ": 3598,
      "bagubagu": 3599,
      "jarawo": 3600,
      "lakkalo": 3601,
      "hangasiney": 3602,
      "sijiro": 3603,
      "Barak": 3604,
      "Ela": 3605,
      "Nzar": 3606,
      "dumay": 3607,
      "buyaŋ": 3608,
      "tiŋ": 3609,
      "hini": 3610,
      "zuku": 3611,
      "nante": 3612,
      "barma": 3613,
      "faala": 3614,
      "dondonyaŋo": 3615,
      "hantumyaŋ": 3616,
      "Amasa": 3617,
      "Buuyaŋ": 3618,
      "ntaasu": 3619,
      "Yayel": 3620,
      "Anda": 3621,
      "Eg": 3622,
      "Tila": 3623,
      "jalla": 3624,
      "gotey": 3625,
      "tono": 3626,
      "lag": 3627,
      "tajandi": 3628,
      "kandi": 3629,
      "kange": 3630,
      "suuro": 3631,
      "warga": 3632,
      "alaamayaŋ": 3633,
      "lasaabuyaŋo": 3634,
      "Lor": 3635,
      "Saajo": 3636,
      "taalamante": 3637,
      "Ziklag": 3638,
      "munaficitaray": 3639,
      "humburkuma": 3640,
      "Manna": 3641,
      "ame": 3642,
      "kuban": 3643,
      "dumbari": 3644,
      "taakoy": 3645,
      "sartey": 3646,
      "naasu": 3647,
      "nzarfo": 3648,
      "Gera": 3649,
      "konnakoy": 3650,
      "Kaysariya": 3651,
      "Tirza": 3652,
      "hawzuyaŋ": 3653,
      "Neewo": 3654,
      "Seeda": 3655,
      "daaranta": 3656,
      "Ali": 3657,
      "Dandi": 3658,
      "cala": 3659,
      "wer": 3660,
      "arandi": 3661,
      "has": 3662,
      "mbutu": 3663,
      "Safe": 3664,
      "gomnikoy": 3665,
      "Ciiri": 3666,
      "baytuyaŋ": 3667,
      "Farisa": 3668,
      "Ahitub": 3669,
      "lokotey": 3670,
      "Safela": 3671,
      "Aga": 3672,
      "itaacanta": 3673,
      "mos": 3674,
      "alkuba": 3675,
      "kuti": 3676,
      "koyyaŋo": 3677,
      "zugey": 3678,
      "yaafayaŋ": 3679,
      "Sem": 3680,
      "lanteyaŋ": 3681,
      "jasa": 3682,
      "Elisama": 3683,
      "bunduyaŋ": 3684,
      "Amariya": 3685,
      "tikse": 3686,
      "balaawo": 3687,
      "Nebuzara": 3688,
      "londibuuno": 3689,
      "Yubili": 3690,
      "liiliwalo": 3691,
      "Arower": 3692,
      "Nebuzaradan": 3693,
      "daw": 3694,
      "dou": 3695,
      "tirayaŋ": 3696,
      "kaasu": 3697,
      "beele": 3698,
      "neezu": 3699,
      "Her": 3700,
      "fulanzama": 3701,
      "bangum": 3702,
      "toonanta": 3703,
      "korayo": 3704,
      "asuli": 3705,
      "bondayey": 3706,
      "tarot": 3707,
      "Takakwa": 3708,
      "Fansakwa": 3709,
      "karo": 3710,
      "gaan": 3711,
      "yazi": 3712,
      "nahum": 3713,
      "toni": 3714,
      "kwaaro": 3715,
      "zaaba": 3716,
      "farnahum": 3717,
      "birji": 3718,
      "jisiro": 3719,
      "ndiri": 3720,
      "Mesak": 3721,
      "Kafarnahum": 3722,
      "Yonadab": 3723,
      "Liyazi": 3724,
      "dnego": 3725,
      "potor": 3726,
      "yaarukom": 3727,
      "Abednego": 3728,
      "Sadrak": 3729,
      "Yerub": 3730,
      "Liyaziru": 3731,
      "Hara": 3732,
      "koniya": 3733,
      "alboray": 3734,
      "simbar": 3735,
      "bayto": 3736,
      "sanka": 3737,
      "yon": 3738,
      "cap": 3739,
      "Gaabi": 3740,
      "kooniyaŋ": 3741,
      "Gooro": 3742,
      "Hananyankoy": 3743,
      "wurrandi": 3744,
      "Ef": 3745,
      "sso": 3746,
      "kariyaŋ": 3747,
      "goboro": 3748,
      "arhiijo": 3749,
      "dutun": 3750,
      "Yedutun": 3751,
      "munna": 3752,
      "gantey": 3753,
      "teero": 3754,
      "yaney": 3755,
      "iddo": 3756,
      "toonandiyaŋ": 3757,
      "fintalyaŋ": 3758,
      "munaficey": 3759,
      "sukuto": 3760,
      "Zalmunna": 3761,
      "ffa": 3762,
      "siz": 3763,
      "gude": 3764,
      "taser": 3765,
      "santey": 3766,
      "hinkoy": 3767,
      "taaro": 3768,
      "haamey": 3769,
      "faabako": 3770,
      "windiyaŋ": 3771,
      "cinako": 3772,
      "Guuru": 3773,
      "Artaser": 3774,
      "Malciya": 3775,
      "Azawa": 3776,
      "Ganda": 3777,
      "dunduyaŋ": 3778,
      "Wandiya": 3779,
      "Cimbeeri": 3780,
      "Artasersiz": 3781,
      "ɲaa": 3782,
      "ansi": 3783,
      "doni": 3784,
      "gumbutu": 3785,
      "mance": 3786,
      "nyala": 3787,
      "taasayaŋ": 3788,
      "Yok": 3789,
      "Hasab": 3790,
      "Kunda": 3791,
      "kaniyaŋ": 3792,
      "Bari": 3793,
      "Zimri": 3794,
      "konnari": 3795,
      "Marta": 3796,
      "Zoba": 3797,
      "tuurin": 3798,
      "Nzarfu": 3799,
      "Hermon": 3800,
      ").": 3801,
      "Sila": 3802,
      "un": 3803,
      "kottu": 3804,
      "lub": 3805,
      "wowo": 3806,
      "fumbo": 3807,
      "laasaabey": 3808,
      "kayandiyaŋ": 3809,
      "sabayaŋ": 3810,
      "booro": 3811,
      "yoti": 3812,
      "dumiyaŋ": 3813,
      "faransi": 3814,
      "Suu": 3815,
      "gomdo": 3816,
      "Gog": 3817,
      "takahari": 3818,
      "Diyey": 3819,
      "sisirey": 3820,
      "sandayey": 3821,
      "asulo": 3822,
      "Soojey": 3823,
      "alsilaa": 3824,
      "es": 3825,
      "garay": 3826,
      "anda": 3827,
      "daarey": 3828,
      "yaharay": 3829,
      "waazo": 3830,
      "faz": 3831,
      "binj": 3832,
      "zuga": 3833,
      "neya": 3834,
      "Hajara": 3835,
      "ŋwaarayyaŋey": 3836,
      "garbe": 3837,
      "Gosen": 3838,
      "Titos": 3839,
      "wul": 3840,
      "dillaŋey": 3841,
      "kaasumante": 3842,
      "Hajaratu": 3843,
      "Ca": 3844,
      "ssa": 3845,
      "kaama": 3846,
      "kobi": 3847,
      "ciraa": 3848,
      "silmaŋ": 3849,
      "dusi": 3850,
      "Rabba": 3851,
      "taafeyaŋ": 3852,
      "Sadusi": 3853,
      "koogandi": 3854,
      "Bil": 3855,
      "Reyul": 3856,
      "boŋtoba": 3857,
      "Kariyoti": 3858,
      "tiŋandi": 3859,
      "Cu": 3860,
      "bab": 3861,
      "gaani": 3862,
      "koyciya": 3863,
      "cili": 3864,
      "laasaabo": 3865,
      "danay": 3866,
      "ganayaŋo": 3867,
      "yolley": 3868,
      "farmi": 3869,
      "hãa": 3870,
      "cambey": 3871,
      "kaniya": 3872,
      "Zabura": 3873,
      "Tilas": 3874,
      "Agari": 3875,
      "Ikulu": 3876,
      "Mey": 3877,
      "Omri": 3878,
      "kaarandi": 3879,
      "ayim": 3880,
      "masan": 3881,
      "alti": 3882,
      "kumna": 3883,
      "alamba": 3884,
      "saf": 3885,
      "laab": 3886,
      "Ayya": 3887,
      "Boo": 3888,
      "Nim": 3889,
      "gorokwa": 3890,
      "Hamor": 3891,
      "kurmey": 3892,
      "batuyaŋ": 3893,
      "Tondey": 3894,
      "ziimey": 3895,
      "jasey": 3896,
      "gursu": 3897,
      "cansa": 3898,
      "Hur": 3899,
      "Zif": 3900,
      "kurmuyaŋ": 3901,
      "Horon": 3902,
      "Horeb": 3903,
      "laakalkooniyaŋ": 3904,
      "tangami": 3905,
      "Zunu": 3906,
      "jabba": 3907,
      "Birno": 3908,
      "Jinda": 3909,
      "gangano": 3910,
      "kaynayaŋ": 3911,
      "Laarabey": 3912,
      "Cinari": 3913,
      "Agariba": 3914,
      "Cino": 3915,
      "atta": 3916,
      "ibeero": 3917,
      "yeeri": 3918,
      "yar": 3919,
      "sahã": 3920,
      "tufa": 3921,
      "biniy": 3922,
      "sogon": 3923,
      "zukku": 3924,
      "yaasey": 3925,
      "cebeeri": 3926,
      "faata": 3927,
      "kuubi": 3928,
      "binegaabi": 3929,
      "Hando": 3930,
      "beerandiyaŋ": 3931,
      "Zeba": 3932,
      "jeeni": 3933,
      "rawos": 3934,
      "Masiiba": 3935,
      "Andarawos": 3936,
      "biniyay": 3937,
      "Haray": 3938,
      "Iddo": 3939,
      "Ki": 3940,
      "azaaba": 3941,
      "nyoo": 3942,
      "rantey": 3943,
      "daliili": 3944,
      "niina": 3945,
      "manteyaŋ": 3946,
      "soso": 3947,
      "kayyaŋo": 3948,
      "Elifaz": 3949,
      "Geba": 3950,
      "Arza": 3951,
      "humburandiyaŋ": 3952,
      "yulwante": 3953,
      "dottijey": 3954,
      "nyooti": 3955,
      "Ebed": 3956,
      "gani": 3957,
      "kondo": 3958,
      "koruyaŋ": 3959,
      "diyancey": 3960,
      "wiyo": 3961,
      "zanjar": 3962,
      "zillay": 3963,
      "casey": 3964,
      "Hetu": 3965,
      "Amoz": 3966,
      "Barzillay": 3967,
      "Bananta": 3968,
      "yaarukomey": 3969,
      "wurru": 3970,
      "kaynandiyaŋ": 3971,
      "kortimey": 3972,
      "Haggay": 3973,
      "dudalo": 3974,
      "Efron": 3975,
      "ciraariyaŋ": 3976,
      "Bin": 3977,
      "yacine": 3978,
      "dullo": 3979,
      "bul": 3980,
      "saku": 3981,
      "zawul": 3982,
      "baajiney": 3983,
      "ndug": 3984,
      "karhã": 3985,
      "karjiyaŋ": 3986,
      "hãã": 3987,
      "Too": 3988,
      "arkuso": 3989,
      "fijiyaŋ": 3990,
      "saajawko": 3991,
      "Pasur": 3992,
      "Saabuyaŋ": 3993,
      "Kareya": 3994,
      "Uzza": 3995,
      "Amina": 3996,
      "200": 3997,
      "yaddayaŋ": 3998,
      "tabbatante": 3999,
      "cilili": 4000,
      "bbas": 4001,
      "kaŋyaŋo": 4002,
      "nama": 4003,
      "niyel": 4004,
      "bisey": 4005,
      "gure": 4006,
      "tuku": 4007,
      "cinayaŋo": 4008,
      "tunfaana": 4009,
      "yollo": 4010,
      "haaga": 4011,
      "Hazar": 4012,
      "Hantu": 4013,
      "Bere": 4014,
      "Kur": 4015,
      "Toma": 4016,
      "Nebo": 4017,
      "cantey": 4018,
      "koŋŋo": 4019,
      "fonday": 4020,
      "Eliyacim": 4021,
      "waddi": 4022,
      "Barabbas": 4023,
      "Uzziyel": 4024,
      "Misiranca": 4025,
      "kuband": 4026,
      "Care": 4027,
      "Yee": 4028,
      "zabad": 4029,
      "gara": 4030,
      "foyaŋ": 4031,
      "Yaffa": 4032,
      "funna": 4033,
      "waymey": 4034,
      "Yefunna": 4035,
      "Mil": 4036,
      "Baakasinay": 4037,
      "hargu": 4038,
      "feeriyaŋ": 4039,
      "kaariyaŋ": 4040,
      "kankamyaŋ": 4041,
      "caram": 4042,
      "Eliyasib": 4043,
      "Taabi": 4044,
      "Anak": 4045,
      "alatuumey": 4046,
      "Gareku": 4047,
      "fatawci": 4048,
      "lubban": 4049,
      "Zunubi": 4050,
      "Aminadab": 4051,
      "Mali": 4052,
      "cciya": 4053,
      "dakey": 4054,
      "mari": 4055,
      "kubanda": 4056,
      "miyel": 4057,
      "liyos": 4058,
      "meame": 4059,
      "maafe": 4060,
      "dana": 4061,
      "Mis": 4062,
      "fitiney": 4063,
      "annabiyaŋ": 4064,
      "Aske": 4065,
      "Adamize": 4066,
      "naanaykoyyaŋ": 4067,
      "Kena": 4068,
      "fulanzamyaŋo": 4069,
      "Rahab": 4070,
      "konni": 4071,
      "llayaŋ": 4072,
      "Zidonancey": 4073,
      "Yawey": 4074,
      "urs": 4075,
      "Mattaniya": 4076,
      "Abina": 4077,
      "Har": 4078,
      "Ihinkanta": 4079,
      "fara": 4080,
      "tto": 4081,
      "biyaŋ": 4082,
      "dodo": 4083,
      "hanayim": 4084,
      "sance": 4085,
      "yaari": 4086,
      "Mahanayim": 4087,
      "sooli": 4088,
      "Koo": 4089,
      "kwaaraa": 4090,
      "ziima": 4091,
      "Biiri": 4092,
      "maaney": 4093,
      "bonjarey": 4094,
      "carawey": 4095,
      "cararayaŋ": 4096,
      "sekelo": 4097,
      "Beye": 4098,
      "cabeyaŋ": 4099,
      "Yayir": 4100,
      "arzakantey": 4101,
      "Abinadab": 4102,
      "Wodin": 4103,
      "bla": 4104,
      "mas": 4105,
      "kowa": 4106,
      "tuwel": 4107,
      "boŋdaray": 4108,
      "tontoni": 4109,
      "Niizer": 4110,
      "humburey": 4111,
      "dondonyaŋey": 4112,
      "wayboroyaŋ": 4113,
      "Sefa": 4114,
      "Kuru": 4115,
      "cawandiko": 4116,
      "sallanta": 4117,
      "Lokko": 4118,
      "lakkaley": 4119,
      "Amram": 4120,
      "Tekowa": 4121,
      "Fundikooni": 4122,
      "Wiiza": 4123,
      "Batukwa": 4124,
      "Abel": 4125,
      "Efra": 4126,
      "iney": 4127,
      "kuso": 4128,
      "diiba": 4129,
      "bimbi": 4130,
      "tesazzar": 4131,
      "sufar": 4132,
      "kaakaa": 4133,
      "wanga": 4134,
      "kanje": 4135,
      "Isti": 4136,
      "taafey": 4137,
      "Yaawo": 4138,
      "Dagon": 4139,
      "ciitiko": 4140,
      "Sele": 4141,
      "fariyaŋ": 4142,
      "dabarikoono": 4143,
      "gaayyaŋ": 4144,
      "jamayaŋ": 4145,
      "kawaatimo": 4146,
      "hahaarayaŋ": 4147,
      "mebaraw": 4148,
      "Birni": 4149,
      "Arwasey": 4150,
      "Cawandiyaŋo": 4151,
      "Batama": 4152,
      "Beltesazzar": 4153,
      "patarmi": 4154,
      "masangu": 4155,
      "bimbil": 4156,
      "Harey": 4157,
      "kaay": 4158,
      "gabu": 4159,
      "jisante": 4160,
      "Nil": 4161,
      "zugay": 4162,
      "saajey": 4163,
      "tunyaŋ": 4164,
      "teeley": 4165,
      "haalo": 4166,
      "Hanun": 4167,
      "Baana": 4168,
      "Gezer": 4169,
      "Tabor": 4170,
      "Diya": 4171,
      "Zora": 4172,
      "Kwaarey": 4173,
      "kazaamataray": 4174,
      "Tangari": 4175,
      "Aze": 4176,
      "Asib": 4177,
      "Pu": 4178,
      "igaw": 4179,
      "niigaw": 4180,
      "fottu": 4181,
      "tombi": 4182,
      "banji": 4183,
      "dekoy": 4184,
      "Mag": 4185,
      "zaaday": 4186,
      "tanteyaŋ": 4187,
      "fitina": 4188,
      "Baaley": 4189,
      "teelo": 4190,
      "cat": 4191,
      "almanyaŋ": 4192,
      "cangare": 4193,
      "Adamizey": 4194,
      "ahat": 4195,
      "saamotara": 4196,
      "hangasinay": 4197,
      "Fundikooney": 4198,
      "caadan": 4199,
      "201": 4200,
      "GA": 4201,
      "tte": 4202,
      "zandi": 4203,
      "mafaa": 4204,
      "kaŋa": 4205,
      "riyel": 4206,
      "gor": 4207,
      "arme": 4208,
      "wahayey": 4209,
      "zadak": 4210,
      "liba": 4211,
      "saarey": 4212,
      "mundey": 4213,
      "toori": 4214,
      "hawyaŋo": 4215,
      "foobo": 4216,
      "Mese": 4217,
      "Nahas": 4218,
      "Bayray": 4219,
      "hanandiyaŋo": 4220,
      "tangarikom": 4221,
      "Kedes": 4222,
      "hinciney": 4223,
      "kataakuyaŋ": 4224,
      "laabiizey": 4225,
      "camsey": 4226,
      "kumsay": 4227,
      "yuumay": 4228,
      "Hasabiya": 4229,
      "Ihanna": 4230,
      "Ofir": 4231,
      "mata": 4232,
      "boko": 4233,
      "gungo": 4234,
      "lasaabey": 4235,
      "rayzey": 4236,
      "tubey": 4237,
      "fafey": 4238,
      "zamu": 4239,
      "tongo": 4240,
      "hayni": 4241,
      "Yehi": 4242,
      "Yetro": 4243,
      "Yedaya": 4244,
      "tunandiyaŋ": 4245,
      "nooni": 4246,
      "ayaŋey": 4247,
      "koote": 4248,
      "kookaro": 4249,
      "Yoya": 4250,
      "Has": 4251,
      "Beriya": 4252,
      "kaarukoy": 4253,
      "Amaana": 4254,
      "katiyaŋ": 4255,
      "murteyaŋo": 4256,
      "andaaba": 4257,
      "Diri": 4258,
      "Po": 4259,
      "oney": 4260,
      "gazama": 4261,
      "lamb": 4262,
      "wayhiijo": 4263,
      "yoyaŋ": 4264,
      "Mun": 4265,
      "teere": 4266,
      "caso": 4267,
      "Bonkooney": 4268,
      "idron": 4269,
      "alkaali": 4270,
      "Feema": 4271,
      "Taali": 4272,
      "Faabako": 4273,
      "dogonay": 4274,
      "Debir": 4275,
      "leemun": 4276,
      "furkutaray": 4277,
      "Beyerot": 4278,
      "Efrata": 4279,
      "Aho": 4280,
      "Bani": 4281,
      "os": 4282,
      "sti": 4283,
      "maliya": 4284,
      "beebe": 4285,
      "taabante": 4286,
      "jofo": 4287,
      "hawgara": 4288,
      "kuukandi": 4289,
      "yantey": 4290,
      "Beeney": 4291,
      "Wayhiijo": 4292,
      "gurbo": 4293,
      "Baalzabu": 4294,
      "bakarawo": 4295,
      "waddo": 4296,
      "farsimi": 4297,
      "lokkoliizey": 4298,
      "altiyel": 4299,
      "bimbilko": 4300,
      "Baalzabula": 4301,
      "!›": 4302,
      "Ce": 4303,
      "Paran": 4304,
      "Zaba": 4305,
      "kocciya": 4306,
      "kubante": 4307,
      "irikoyyaŋ": 4308,
      "Yazer": 4309,
      "baako": 4310,
      "maykoy": 4311,
      "Woofo": 4312,
      "aruyaŋ": 4313,
      "ganakoyaŋ": 4314,
      "faree": 4315,
      "fiya": 4316,
      "foolo": 4317,
      "Baytaniya": 4318,
      "Assiriyancey": 4319,
      "ballat": 4320,
      "Gallu": 4321,
      "sariyey": 4322,
      "nduɲɲaa": 4323,
      "Zabadi": 4324,
      "ibareyaŋ": 4325,
      "rat": 4326,
      "bok": 4327,
      "rongo": 4328,
      "fufuyaŋ": 4329,
      "sasara": 4330,
      "hinkaa": 4331,
      "zaarayaŋ": 4332,
      "soosay": 4333,
      "zim": 4334,
      "haari": 4335,
      "Handa": 4336,
      "hannoyaŋ": 4337,
      "Bela": 4338,
      "Don": 4339,
      "tajiyaŋ": 4340,
      "waygunu": 4341,
      "farkayyaŋ": 4342,
      "Tera": 4343,
      "ibaretaray": 4344,
      "handayzo": 4345,
      "fappe": 4346,
      "fondayzey": 4347,
      "AN": 4348,
      "Adamay": 4349,
      "Eley": 4350,
      "Iz": 4351,
      "daara": 4352,
      "malla": 4353,
      "bil": 4354,
      "dor": 4355,
      "ciciri": 4356,
      "jifa": 4357,
      "irikoy": 4358,
      "beela": 4359,
      "meku": 4360,
      "siney": 4361,
      "zurandi": 4362,
      "kayla": 4363,
      "marganta": 4364,
      "Yaamo": 4365,
      "Muu": 4366,
      "tantab": 4367,
      "zinjiyaŋ": 4368,
      "hẽy": 4369,
      "wandeyaŋ": 4370,
      "Adilantey": 4371,
      "hatta": 4372,
      "Lameku": 4373,
      "wadde": 4374,
      "waddey": 4375,
      "Windo": 4376,
      "aleyel": 4377,
      "Yeyel": 4378,
      "Munkayla": 4379,
      "mallaka": 4380,
      "tantabal": 4381,
      "ibi": 4382,
      "kaabe": 4383,
      "nom": 4384,
      "biir": 4385,
      "ciriya": 4386,
      "tofa": 4387,
      "had": 4388,
      "tafo": 4389,
      "mir": 4390,
      "hiiri": 4391,
      "sabb": 4392,
      "ŋwaayaŋ": 4393,
      "firko": 4394,
      "jirbo": 4395,
      "Sib": 4396,
      "Sim": 4397,
      "Gaal": 4398,
      "Netofa": 4399,
      "Mena": 4400,
      "Elihu": 4401,
      "guusuyaŋ": 4402,
      "Peka": 4403,
      "doorikomey": 4404,
      "por": 4405,
      "Hinnom": 4406,
      "Ittay": 4407,
      "polti": 4408,
      "fahamante": 4409,
      "Eglon": 4410,
      "Askelon": 4411,
      "NGA": 4412,
      "ON": 4413,
      "kusey": 4414,
      "lunku": 4415,
      "wone": 4416,
      "fufu": 4417,
      "sub": 4418,
      "sutura": 4419,
      "ruu": 4420,
      "wangay": 4421,
      "hisso": 4422,
      "nkon": 4423,
      "hayjina": 4424,
      "Yera": 4425,
      "boona": 4426,
      "Boroyaŋ": 4427,
      "fimbo": 4428,
      "koogay": 4429,
      "suuraa": 4430,
      "buuda": 4431,
      "ret": 4432,
      "Gur": 4433,
      "korni": 4434,
      "alboroyaŋ": 4435,
      "Melek": 4436,
      "yeejey": 4437,
      "bangandiyaŋo": 4438,
      "Tiraa": 4439,
      "Nangey": 4440,
      "yanjekaaro": 4441,
      "Padan": 4442,
      "muudo": 4443,
      "Laakalkooni": 4444,
      "Rehob": 4445,
      "jiraytara": 4446,
      "Simeya": 4447,
      "foyray": 4448,
      "heemaro": 4449,
      "Sefatiya": 4450,
      "Asibti": 4451,
      "ju": 4452,
      "yawo": 4453,
      "kaŋyaŋ": 4454,
      "fumbi": 4455,
      "hiyaŋ": 4456,
      "meyel": 4457,
      "mumu": 4458,
      "fayaŋo": 4459,
      "Datan": 4460,
      "Dambe": 4461,
      "humbura": 4462,
      "Jib": 4463,
      "mbaro": 4464,
      "Betuwel": 4465,
      "booriyankoy": 4466,
      "almano": 4467,
      "banakwa": 4468,
      "mursandi": 4469,
      "Gesur": 4470,
      "Abiram": 4471,
      "Remaliya": 4472,
      "Zijiyaŋ": 4473,
      "balaawey": 4474,
      "walhẽy": 4475,
      "Dibon": 4476,
      "talkatara": 4477,
      "kortimi": 4478,
      "mouni": 4479,
      "durmi": 4480,
      "dakeyaŋ": 4481,
      "jofolo": 4482,
      "rongome": 4483,
      "Arku": 4484,
      "Amiru": 4485,
      "Miri": 4486,
      "Yana": 4487,
      "en": 4488,
      "maaba": 4489,
      "bone": 4490,
      "riba": 4491,
      "nizee": 4492,
      "dusu": 4493,
      "laana": 4494,
      "waado": 4495,
      "zadaka": 4496,
      "Yaha": 4497,
      "lim": 4498,
      "baajine": 4499,
      "saalay": 4500,
      "Alkuraana": 4501,
      "zaamayaŋ": 4502,
      "soolayaŋ": 4503,
      "filaana": 4504,
      "teenay": 4505,
      "Sanballat": 4506,
      "Neriya": 4507,
      "Meriba": 4508,
      "biirii": 4509,
      "cantu": 4510,
      "Abihu": 4511,
      "Rezin": 4512,
      "yanjekaari": 4513,
      "Ram": 4514,
      "Marga": 4515,
      "boŋbeeraykoyey": 4516,
      "danawyaŋ": 4517,
      "ranteyaŋ": 4518,
      "Romance": 4519,
      "Dedan": 4520,
      "Yeremot": 4521,
      "fanakey": 4522,
      "199": 4523,
      "curayzey": 4524,
      "Malcizadaka": 4525,
      "Bereciya": 4526,
      "Kenaz": 4527,
      "Yehiyel": 4528,
      "nizeer": 4529,
      "Abo": 4530,
      "Dal": 4531,
      "Ehud": 4532,
      "KO": 4533,
      "Zin": 4534,
      "asariyey": 4535,
      "fandi": 4536,
      "maabey": 4537,
      "moyaŋ": 4538,
      "alandaaba": 4539,
      "dungay": 4540,
      "waya": 4541,
      "sarto": 4542,
      "Alka": 4543,
      "yonu": 4544,
      "fita": 4545,
      "suura": 4546,
      "marguyaŋ": 4547,
      "Suwa": 4548,
      "Zak": 4549,
      "Koytaray": 4550,
      "kaarukwa": 4551,
      "suubanyaŋ": 4552,
      "Dor": 4553,
      "Edomancey": 4554,
      "Kedar": 4555,
      "takayaŋ": 4556,
      "Barneya": 4557,
      "talibiyaŋ": 4558,
      "Feejizo": 4559,
      "Ibraniyance": 4560,
      "kulba": 4561,
      "kalaaso": 4562,
      "Lordi": 4563,
      "kutijo": 4564,
      "Suuji": 4565,
      "Dina": 4566,
      "Jee": 4567,
      "ikogo": 4568,
      "jaban": 4569,
      "rka": 4570,
      "nim": 4571,
      "doono": 4572,
      "nanta": 4573,
      "sarey": 4574,
      "hawgarey": 4575,
      "haame": 4576,
      "cinakwa": 4577,
      "deen": 4578,
      "beri": 4579,
      "Halaciyaŋ": 4580,
      "bonkooniyaŋ": 4581,
      "kuruyaŋ": 4582,
      "Astarot": 4583,
      "Arhiijo": 4584,
      "Duumi": 4585,
      "pota": 4586,
      "Roma": 4587,
      "kambayzey": 4588,
      "Cawandika": 4589,
      "Zikri": 4590,
      "Wangaari": 4591,
      "gursuney": 4592,
      "Manta": 4593,
      "handi": 4594,
      "ikwaaray": 4595,
      "cira": 4596,
      "dunga": 4597,
      "tibi": 4598,
      "wayaŋ": 4599,
      "sallante": 4600,
      "karyaŋo": 4601,
      "annasaarey": 4602,
      "cawko": 4603,
      "goobara": 4604,
      "Kub": 4605,
      "fanos": 4606,
      "Nehe": 4607,
      "Medancey": 4608,
      "Zip": 4609,
      "laaliyaŋo": 4610,
      "handayzey": 4611,
      "Milka": 4612,
      "Istifanos": 4613,
      "Magdaliya": 4614,
      "hissop": 4615,
      "Fay": 4616,
      "Taray": 4617,
      "afirko": 4618,
      "tniyel": 4619,
      "walha": 4620,
      "kaya": 4621,
      "dir": 4622,
      "gunu": 4623,
      "bugandi": 4624,
      "butugu": 4625,
      "taana": 4626,
      "jiyey": 4627,
      "Bon": 4628,
      "taarey": 4629,
      "mut": 4630,
      "ceyaŋ": 4631,
      "cedirawo": 4632,
      "Muraa": 4633,
      "Suri": 4634,
      "moola": 4635,
      "ziibey": 4636,
      "tayim": 4637,
      "neesijo": 4638,
      "cuusu": 4639,
      "hirrimo": 4640,
      "tuubiyaŋ": 4641,
      "sabaabey": 4642,
      "HinaKulu": 4643,
      "Feeji": 4644,
      "laabiize": 4645,
      "Jinde": 4646,
      "burcinitaray": 4647,
      "kukure": 4648,
      "Nooyaŋ": 4649,
      "kazaamatara": 4650,
      "wayborayzo": 4651,
      "Ayyalon": 4652,
      "Akaya": 4653,
      "Cir": 4654,
      "Izey": 4655,
      "Waraŋ": 4656,
      "ksa": 4657,
      "wara": 4658,
      "kanga": 4659,
      "kasam": 4660,
      "sil": 4661,
      "tuyaŋ": 4662,
      "jiddo": 4663,
      "wazi": 4664,
      "dekoyey": 4665,
      "fakaaray": 4666,
      "yezer": 4667,
      "kanday": 4668,
      "leyaŋ": 4669,
      "tantey": 4670,
      "fito": 4671,
      "haagu": 4672,
      "Hanani": 4673,
      "barim": 4674,
      "arzakaa": 4675,
      "Kuu": 4676,
      "moorey": 4677,
      "Filikos": 4678,
      "cimandiyaŋ": 4679,
      "guurubi": 4680,
      "Mejiddo": 4681,
      "kwaarayaŋ": 4682,
      "bonjare": 4683,
      "Keni": 4684,
      "munye": 4685,
      "kaatiyaŋo": 4686,
      "yoole": 4687,
      "londibuunay": 4688,
      "Mayraykoyey": 4689,
      "furkange": 4690,
      "yuuma": 4691,
      "HinaKuluKoyo": 4692,
      "janta": 4693,
      "uu": 4694,
      "zal": 4695,
      "andey": 4696,
      "fotto": 4697,
      "gaasi": 4698,
      "rayim": 4699,
      "sankey": 4700,
      "wangaarey": 4701,
      "funyaŋ": 4702,
      "kayantey": 4703,
      "Madiyancey": 4704,
      "nuhu": 4705,
      "tooyaŋo": 4706,
      "tansi": 4707,
      "teeni": 4708,
      "cambo": 4709,
      "abata": 4710,
      "Jiiro": 4711,
      "talfo": 4712,
      "waaniwaani": 4713,
      "daabuyaŋ": 4714,
      "daabula": 4715,
      "Kuro": 4716,
      "albarkanteyaŋ": 4717,
      "zayyaŋ": 4718,
      "neerakoy": 4719,
      "hasarawo": 4720,
      "toonanteyaŋ": 4721,
      "boŋbeeraykoy": 4722,
      "kunkunante": 4723,
      "Seyaltiyel": 4724,
      "Hinkoyo": 4725,
      "Buukoy": 4726,
      "Annuhu": 4727,
      "Fundikoono": 4728,
      "Yehoyacin": 4729,
      "curayze": 4730,
      "Ribla": 4731,
      "Selemiya": 4732,
      "),": 4733,
      "Adu": 4734,
      "faniya": 4735,
      "ijiney": 4736,
      "ayano": 4737,
      "anaa": 4738,
      "rab": 4739,
      "yas": 4740,
      "niliyos": 4741,
      "gumbo": 4742,
      "fuusu": 4743,
      "manda": 4744,
      "sancine": 4745,
      "lofe": 4746,
      "misey": 4747,
      "lisiya": 4748,
      "maari": 4749,
      "boobey": 4750,
      "fayfay": 4751,
      "fatala": 4752,
      "gunakoy": 4753,
      "marguyaŋo": 4754,
      "dontonkwa": 4755,
      "Zafaniya": 4756,
      "Soko": 4757,
      "laalakoy": 4758,
      "Hefer": 4759,
      "zinga": 4760,
      "fanes": 4761,
      "Filistiya": 4762,
      "tayandi": 4763,
      "Basti": 4764,
      "Zelofe": 4765,
      "malaykayaŋ": 4766,
      "Hayrayey": 4767,
      "Arzaka": 4768,
      "Jamaa": 4769,
      "Tafanes": 4770,
      "Annabo": 4771,
      "marayyaŋ": 4772,
      "camse": 4773,
      "Korniliyos": 4774,
      "fatawc": 4775,
      "takula": 4776,
      "laawaley": 4777,
      "Adullam": 4778,
      "Zelofehad": 4779,
      "Aben": 4780,
      "Iway": 4781,
      "Samma": 4782,
      "Yar": 4783,
      "mre": 4784,
      "zaleyel": 4785,
      "garu": 4786,
      "data": 4787,
      "komo": 4788,
      "albeeri": 4789,
      "gullay": 4790,
      "rayaŋo": 4791,
      "zamuu": 4792,
      "Ayim": 4793,
      "sopota": 4794,
      "dangandi": 4795,
      "Mamre": 4796,
      "Alkaw": 4797,
      "ŋwaakoy": 4798,
      "farra": 4799,
      "tanji": 4800,
      "deemo": 4801,
      "zambaryaŋ": 4802,
      "Bezaleyel": 4803,
      "Neko": 4804,
      "Mesopota": 4805,
      "gaarayyaŋ": 4806,
      "hanganyaŋ": 4807,
      "sifawo": 4808,
      "hinzante": 4809,
      "carawo": 4810,
      "Fata": 4811,
      "Amihud": 4812,
      "Misirance": 4813,
      "sintili": 4814,
      "Horma": 4815,
      "Mikmas": 4816,
      "Wangaaritaray": 4817,
      "Kubrus": 4818,
      "Mesopotamiya": 4819,
      "Adoni": 4820,
      "Iy": 4821,
      "RA": 4822,
      "Sare": 4823,
      "gaayaŋ": 4824,
      "koru": 4825,
      "siiro": 4826,
      "bayim": 4827,
      "waykuuru": 4828,
      "barbare": 4829,
      "soofo": 4830,
      "Millo": 4831,
      "kwaayey": 4832,
      "gooye": 4833,
      "Sema": 4834,
      "fansayaŋ": 4835,
      "zumbuyaŋo": 4836,
      "elaya": 4837,
      "Zebul": 4838,
      "Amos": 4839,
      "kurayey": 4840,
      "Hayo": 4841,
      "Futay": 4842,
      "jiraykooni": 4843,
      "hangasino": 4844,
      "Naama": 4845,
      "londibuuney": 4846,
      "sintilo": 4847,
      "dumayze": 4848,
      "alsilaama": 4849,
      "sahãkooney": 4850,
      "biiriimay": 4851,
      ",»": 4852,
      "Ahãa": 4853,
      "Beyor": 4854,
      "Kaya": 4855,
      "Kidron": 4856,
      "Tab": 4857,
      "candiyaŋ": 4858,
      "karaa": 4859,
      "dim": 4860,
      "dogon": 4861,
      "ndarka": 4862,
      "bukkey": 4863,
      "mis": 4864,
      "Mig": 4865,
      "Sap": 4866,
      "hõse": 4867,
      "Selo": 4868,
      "zoŋo": 4869,
      "moori": 4870,
      "Laabi": 4871,
      "baguyaŋ": 4872,
      "Mero": 4873,
      "jarsa": 4874,
      "balan": 4875,
      "dalbuwo": 4876,
      "Yeroham": 4877,
      "gunguney": 4878,
      "duurey": 4879,
      "gurum": 4880,
      "bulungo": 4881,
      "Immer": 4882,
      "Agag": 4883,
      "yarda": 4884,
      "hããyaŋ": 4885,
      "karaasi": 4886,
      "Abarim": 4887,
      "Kad": 4888,
      "Otniyel": 4889,
      "us": 4890,
      "albeerey": 4891,
      "nisi": 4892,
      "dib": 4893,
      "safir": 4894,
      "mand": 4895,
      "waŋ": 4896,
      "lok": 4897,
      "zur": 4898,
      "dondayaŋ": 4899,
      "nance": 4900,
      "saruu": 4901,
      "zano": 4902,
      "laabukoy": 4903,
      "haggoyyaŋ": 4904,
      "fanda": 4905,
      "Danaw": 4906,
      "Amonance": 4907,
      "kunji": 4908,
      "mantaw": 4909,
      "Hinkoy": 4910,
      "Naamey": 4911,
      "botoga": 4912,
      "caley": 4913,
      "Debora": 4914,
      "Talibi": 4915,
      "kaajiro": 4916,
      "moumouni": 4917,
      "Deene": 4918,
      "Sadday": 4919,
      "takubey": 4920,
      "Hantum": 4921,
      "Izhar": 4922,
      "Abolos": 4923,
      "Kayafa": 4924,
      "Etam": 4925,
      "Ja": 4926,
      "Zee": 4927,
      "bni": 4928,
      "fal": 4929,
      "jancey": 4930,
      "ks": 4931,
      "anay": 4932,
      "ini": 4933,
      "aato": 4934,
      "bokoyaŋ": 4935,
      "motaray": 4936,
      "dimma": 4937,
      "citila": 4938,
      "sifayaŋo": 4939,
      "samo": 4940,
      "bangumo": 4941,
      "banantey": 4942,
      "mimanda": 4943,
      "Almayaa": 4944,
      "ŋwaarey": 4945,
      "ziiri": 4946,
      "talaato": 4947,
      "Sil": 4948,
      "Hanantey": 4949,
      "addin": 4950,
      "Hele": 4951,
      "talibo": 4952,
      "Toon": 4953,
      "Molek": 4954,
      "toorutooru": 4955,
      "kurukoy": 4956,
      "sundurku": 4957,
      "dumbuyaŋ": 4958,
      "janga": 4959,
      "Tam": 4960,
      "hincino": 4961,
      "ttim": 4962,
      "Dum": 4963,
      "Estayo": 4964,
      "Hittanca": 4965,
      "Pis": 4966,
      "Hanoku": 4967,
      "karasi": 4968,
      "alambaana": 4969,
      "attaciriya": 4970,
      "Arzakante": 4971,
      "Dondon": 4972,
      "Yahaz": 4973,
      "Estayol": 4974,
      "AY": 4975,
      "par": 4976,
      "gas": 4977,
      "dol": 4978,
      "gungey": 4979,
      "gulla": 4980,
      "tiro": 4981,
      "tiyaŋ": 4982,
      "izabata": 4983,
      "mit": 4984,
      "wayyaŋ": 4985,
      "soŋay": 4986,
      "Alizabata": 4987,
      "ŋwaako": 4988,
      "harayzey": 4989,
      "zangey": 4990,
      "Subu": 4991,
      "Zafe": 4992,
      "bet": 4993,
      "lancey": 4994,
      "Filistanco": 4995,
      "hiija": 4996,
      "yeeno": 4997,
      "zeenay": 4998,
      "Karga": 4999,
      "Zowar": 5000,
      "gorandiyaŋ": 5001,
      "laalayaŋey": 5002,
      "Cawandikey": 5003,
      "Farkay": 5004,
      "furanta": 5005,
      "looma": 5006,
      "fahamantey": 5007,
      "sokonyaŋ": 5008,
      "Gerar": 5009,
      "nyalaw": 5010,
      "zanjarmi": 5011,
      "Zakkur": 5012,
      "Zafetu": 5013,
      "Ed": 5014,
      "GO": 5015,
      "nyey": 5016,
      "taniyel": 5017,
      "gondo": 5018,
      "alumma": 5019,
      "abay": 5020,
      "bize": 5021,
      "wodin": 5022,
      "safar": 5023,
      "hinayaŋ": 5024,
      "zura": 5025,
      "sayante": 5026,
      "sayel": 5027,
      "tancey": 5028,
      "hawfuno": 5029,
      "Baaro": 5030,
      "Yozabad": 5031,
      "nanguyaŋ": 5032,
      "ciitikwa": 5033,
      "seyaŋ": 5034,
      "doogari": 5035,
      "Nataniyel": 5036,
      "alhaku": 5037,
      "Elife": 5038,
      "Tubal": 5039,
      "Hawfuno": 5040,
      "korbayyaŋ": 5041,
      "timmanta": 5042,
      "adilanta": 5043,
      "Handariyay": 5044,
      "ruubu": 5045,
      "farrati": 5046,
      "jangalo": 5047,
      "Er": 5048,
      "Ofra": 5049,
      "Tara": 5050,
      "zayaŋ": 5051,
      "kasi": 5052,
      "gasandi": 5053,
      "ance": 5054,
      "bida": 5055,
      "lulu": 5056,
      "del": 5057,
      "boogu": 5058,
      "zir": 5059,
      "doorey": 5060,
      "dooney": 5061,
      "mbarey": 5062,
      "albarkanta": 5063,
      "gomney": 5064,
      "bankaarayyaŋ": 5065,
      "Mere": 5066,
      "Nason": 5067,
      "Dooni": 5068,
      "hem": 5069,
      "darayaŋ": 5070,
      "kunsum": 5071,
      "Alaama": 5072,
      "goobuyaŋ": 5073,
      "fuuma": 5074,
      "Malaykey": 5075,
      "Boŋbeeray": 5076,
      "curoyaŋ": 5077,
      "Laalakoyey": 5078,
      "Kanandi": 5079,
      "forti": 5080,
      "finetaro": 5081,
      "nduɲɲa": 5082,
      "nduggaa": 5083,
      "mumuru": 5084,
      "Afe": 5085,
      "Yare": 5086,
      "ihanna": 5087,
      "mã": 5088,
      "bonku": 5089,
      "goney": 5090,
      "arhiiji": 5091,
      "dugo": 5092,
      "sasa": 5093,
      "sataa": 5094,
      "hanko": 5095,
      "lis": 5096,
      "Iskanda": 5097,
      "Yekoniya": 5098,
      "muwel": 5099,
      "Wongo": 5100,
      "karkoy": 5101,
      "Musi": 5102,
      "Misa": 5103,
      "tanel": 5104,
      "hawru": 5105,
      "caan": 5106,
      "cawaŋ": 5107,
      "Yobab": 5108,
      "margasinay": 5109,
      "hantumi": 5110,
      "Sita": 5111,
      "guuni": 5112,
      "Sebna": 5113,
      "dumari": 5114,
      "hangawo": 5115,
      "Netanel": 5116,
      "Moo": 5117,
      "naaji": 5118,
      "Yehozadak": 5119,
      "Dodo": 5120,
      "birniyaŋ": 5121,
      "jeeriyaŋ": 5122,
      "Geber": 5123,
      "Rehum": 5124,
      "dangayyaŋ": 5125,
      "Kefas": 5126,
      "Duv": 5127,
      "Harim": 5128,
      "Follayey": 5129,
      "kuraanaa": 5130,
      "gooruyaŋ": 5131,
      "Sahãadinsahãadin": 5132,
      "Taafe": 5133,
      "Zur": 5134,
      "Arwasu": 5135,
      "gangani": 5136,
      "Farhã": 5137,
      "arzakandi": 5138,
      "lokkoliize": 5139,
      "bilsa": 5140,
      "Pisga": 5141,
      "bonkunga": 5142,
      "Adar": 5143,
      "Fine": 5144,
      "Talka": 5145,
      "YA": 5146,
      "amand": 5147,
      "pee": 5148,
      "saraŋ": 5149,
      "ware": 5150,
      "dada": 5151,
      "maayaŋo": 5152,
      "mabet": 5153,
      "nes": 5154,
      "diny": 5155,
      "gugu": 5156,
      "tilla": 5157,
      "tuyaŋo": 5158,
      "banta": 5159,
      "loley": 5160,
      "wangey": 5161,
      "hiya": 5162,
      "funsar": 5163,
      "nkoyaŋ": 5164,
      "Bozra": 5165,
      "dondo": 5166,
      "yaama": 5167,
      "kargey": 5168,
      "zaamaano": 5169,
      "zetaray": 5170,
      "fimbi": 5171,
      "Safat": 5172,
      "foorey": 5173,
      "buulal": 5174,
      "Fitilla": 5175,
      "bariyo": 5176,
      "Sefar": 5177,
      "kaaruwey": 5178,
      "Zebadiya": 5179,
      "taamutaamu": 5180,
      "alkawley": 5181,
      "sunfa": 5182,
      "ihannoyaŋ": 5183,
      "Karmi": 5184,
      "liise": 5185,
      "wonkoyey": 5186,
      "sukutey": 5187,
      "Luz": 5188,
      "finetarey": 5189,
      "zaadayaŋo": 5190,
      "caadanteyaŋ": 5191,
      "Dalila": 5192,
      "Adaya": 5193,
      "Asaya": 5194,
      "ami": 5195,
      "sbi": 5196,
      "gazan": 5197,
      "korayey": 5198,
      "gusamo": 5199,
      "taayaŋ": 5200,
      "rayot": 5201,
      "tugantey": 5202,
      "baya": 5203,
      "saaru": 5204,
      "dayey": 5205,
      "boosay": 5206,
      "karha": 5207,
      "haŋyaŋo": 5208,
      "kwaarandi": 5209,
      "tanje": 5210,
      "kooko": 5211,
      "buuno": 5212,
      "Biciri": 5213,
      "zoo": 5214,
      "Tofe": 5215,
      "dabarikooney": 5216,
      "Merayot": 5217,
      "zankam": 5218,
      "Tisbi": 5219,
      "cawandiyaŋey": 5220,
      "Furo": 5221,
      "dondacaray": 5222,
      "Yonatan": 5223,
      "Pele": 5224,
      "hindirey": 5225,
      "konday": 5226,
      "oniks": 5227,
      "Cindey": 5228,
      "Hinkoyey": 5229,
      "Kaaru": 5230,
      "funsuyaŋo": 5231,
      "kambayzo": 5232,
      "darzantey": 5233,
      "Garekey": 5234,
      "ppu": 5235,
      "fareeje": 5236,
      "Muraadu": 5237,
      "Tofet": 5238,
      "Eze": 5239,
      "Ibarey": 5240,
      "jal": 5241,
      "ssal": 5242,
      "taya": 5243,
      "gasancey": 5244,
      "mali": 5245,
      "disiya": 5246,
      "bunku": 5247,
      "wodisiya": 5248,
      "takooko": 5249,
      "tuna": 5250,
      "sane": 5251,
      "faku": 5252,
      "tond": 5253,
      "Yahat": 5254,
      "Matti": 5255,
      "Makke": 5256,
      "wiyey": 5257,
      "barsi": 5258,
      "barmey": 5259,
      "sayda": 5260,
      "farhandi": 5261,
      "zek": 5262,
      "suujey": 5263,
      "zimbi": 5264,
      "Silisiya": 5265,
      "goota": 5266,
      "kundaa": 5267,
      "korfa": 5268,
      "maanu": 5269,
      "kawya": 5270,
      "Bezek": 5271,
      "zoŋey": 5272,
      "jisirey": 5273,
      "cimandikoy": 5274,
      "ziirante": 5275,
      "nzarfey": 5276,
      "gurbey": 5277,
      "bangayyaŋo": 5278,
      "ceericeeri": 5279,
      "Baytsayda": 5280,
      "anowa": 5281,
      "bonza": 5282,
      "biriyo": 5283,
      "Jirgasancey": 5284,
      "Pelet": 5285,
      "Kayna": 5286,
      "gaabikooniyaŋ": 5287,
      "goojiyaŋo": 5288,
      "ubacar": 5289,
      "Zobal": 5290,
      "Lawodisiya": 5291,
      "faaruyaŋ": 5292,
      "zorti": 5293,
      "koloŋa": 5294,
      "Yabez": 5295,
      "Aksa": 5296,
      "Akbor": 5297,
      "fortu": 5298,
      "bulungu": 5299,
      "Cawo": 5300,
      "Biirimay": 5301,
      "dusungu": 5302,
      "bunkus": 5303,
      "Makkeda": 5304,
      "Kanka": 5305,
      "Obida": 5306,
      "Wando": 5307,
      "Yab": 5308,
      "Zare": 5309,
      "irey": 5310,
      "ibambata": 5311,
      "iguwanta": 5312,
      "nni": 5313,
      "sim": 5314,
      "dubi": 5315,
      "ngaarey": 5316,
      "gaakur": 5317,
      "tunanta": 5318,
      "waali": 5319,
      "laara": 5320,
      "wahay": 5321,
      "beejandi": 5322,
      "Yacin": 5323,
      "hibi": 5324,
      "taamo": 5325,
      "Niko": 5326,
      "Yeter": 5327,
      "sabu": 5328,
      "Mak": 5329,
      "Mata": 5330,
      "Wongaarey": 5331,
      "feerantey": 5332,
      "karjey": 5333,
      "soolanteyaŋ": 5334,
      "ziyon": 5335,
      "Hakko": 5336,
      "laabukoyo": 5337,
      "Hena": 5338,
      "paksa": 5339,
      "begunu": 5340,
      "gariyo": 5341,
      "Gomer": 5342,
      "Nof": 5343,
      "Dowe": 5344,
      "firsi": 5345,
      "Arpaksa": 5346,
      "Libi": 5347,
      "saamoyaŋ": 5348,
      "sedrey": 5349,
      "biniya": 5350,
      "suntulu": 5351,
      "coroyaŋ": 5352,
      "tabakwa": 5353,
      "Persancey": 5354,
      "feeniyaŋ": 5355,
      "fanaka": 5356,
      "batame": 5357,
      "libama": 5358,
      "Alkawlo": 5359,
      "Kankami": 5360,
      "Doweg": 5361,
      "Arpaksadu": 5362,
      "Dar": 5363,
      "Etan": 5364,
      "Nyaŋo": 5365,
      "Tahat": 5366,
      "ch": 5367,
      "gla": 5368,
      "kki": 5369,
      "’’": 5370,
      "dik": 5371,
      "wowey": 5372,
      "banayaŋo": 5373,
      "sanna": 5374,
      "Ayin": 5375,
      "hiney": 5376,
      "goonoyaŋo": 5377,
      "danante": 5378,
      "hayyaŋey": 5379,
      "kambandi": 5380,
      "mul": 5381,
      "beyon": 5382,
      "nuwel": 5383,
      "jombo": 5384,
      "tandarayaŋ": 5385,
      "foola": 5386,
      "rebiya": 5387,
      "talen": 5388,
      "yanca": 5389,
      "Sisak": 5390,
      "doora": 5391,
      "Beena": 5392,
      "korba": 5393,
      "Serebiya": 5394,
      "alfagatara": 5395,
      "naaruyaŋ": 5396,
      "adilitaraykoyyaŋ": 5397,
      "Eliyel": 5398,
      "Cison": 5399,
      "Zibeyon": 5400,
      "Penuwel": 5401,
      "Kebar": 5402,
      "Taana": 5403,
      "kosarayyaŋ": 5404,
      "Markos": 5405,
      "Balaaw": 5406,
      "Saaware": 5407,
      "tinay": 5408,
      "Fahamay": 5409,
      "Sooje": 5410,
      "Kande": 5411,
      "yeejize": 5412,
      "loogu": 5413,
      "patarmey": 5414,
      "tuurinya": 5415,
      "mirtal": 5416,
      "Menahem": 5417,
      "Sappa": 5418,
      "Kadmiyel": 5419,
      "talent": 5420,
      "Oreb": 5421,
      "Sali": 5422,
      "mina": 5423,
      "st": 5424,
      "um": 5425,
      "dawa": 5426,
      "bobo": 5427,
      "koga": 5428,
      "alkuraanaa": 5429,
      "niyo": 5430,
      "bidi": 5431,
      "turu": 5432,
      "wayhiiji": 5433,
      "sinki": 5434,
      "taaku": 5435,
      "karra": 5436,
      "yoku": 5437,
      "Misayel": 5438,
      "tandayaŋ": 5439,
      "hampa": 5440,
      "Yosi": 5441,
      "margumargu": 5442,
      "Silmaŋ": 5443,
      "hantumkoy": 5444,
      "guurey": 5445,
      "ker": 5446,
      "deedey": 5447,
      "moora": 5448,
      "dondonandikoyaŋ": 5449,
      "dabarikooniyaŋ": 5450,
      "sintiney": 5451,
      "Filistance": 5452,
      "Abdon": 5453,
      "ngor": 5454,
      "daabiri": 5455,
      "zaytaray": 5456,
      "guusuyaŋo": 5457,
      "Dumo": 5458,
      "Sinar": 5459,
      "yulwandi": 5460,
      "wuri": 5461,
      "danawtaray": 5462,
      "Hawjiyey": 5463,
      "cale": 5464,
      "durayyaŋo": 5465,
      "Ariyoku": 5466,
      "Haggi": 5467,
      "dunguriyo": 5468,
      "karangaleyaŋ": 5469,
      "yeenikoono": 5470,
      "Azeka": 5471,
      "jabantey": 5472,
      "Nehemiya": 5473,
      "mãsancine": 5474,
      ",›": 5475,
      "Akan": 5476,
      "Biri": 5477,
      "Izeyaŋ": 5478,
      "Layi": 5479,
      "Nayo": 5480,
      "Uri": 5481,
      "Yaban": 5482,
      "cante": 5483,
      "itajo": 5484,
      "oo": 5485,
      "kafo": 5486,
      "kaaba": 5487,
      "karayaŋo": 5488,
      "moni": 5489,
      "korab": 5490,
      "kufu": 5491,
      "guray": 5492,
      "danandi": 5493,
      "kayo": 5494,
      "yaara": 5495,
      "yaawo": 5496,
      "ndunna": 5497,
      "yowe": 5498,
      "faabu": 5499,
      "kuuwayaŋ": 5500,
      "cail": 5501,
      "cawyaŋo": 5502,
      "hantumko": 5503,
      "Sawul": 5504,
      "Kuray": 5505,
      "candiko": 5506,
      "tunandiyaŋo": 5507,
      "Goyey": 5508,
      "Eliyowe": 5509,
      "dunkayo": 5510,
      "Tiya": 5511,
      "cangarey": 5512,
      "Kataaku": 5513,
      "Zil": 5514,
      "Kenancey": 5515,
      "dambanguyaŋo": 5516,
      "hindiriyaŋ": 5517,
      "zinjiyaŋo": 5518,
      "Foo": 5519,
      "muraaduyaŋ": 5520,
      "fattayaŋ": 5521,
      "yulbey": 5522,
      "Cawkey": 5523,
      "Seyan": 5524,
      "sunsumyaŋ": 5525,
      "Azmabet": 5526,
      "Yeyus": 5527,
      "izeena": 5528,
      "alborayze": 5529,
      "toorimi": 5530,
      "Mesek": 5531,
      "Zippor": 5532,
      "Yarmut": 5533,
      "Edrey": 5534,
      "Afek": 5535,
      "amirey": 5536,
      "Peleg": 5537,
      "Layis": 5538,
      "Nayot": 5539,
      "caille": 5540,
      "Eliyowenay": 5541,
      "Akku": 5542,
      "Elon": 5543,
      "Ibare": 5544,
      "Pal": 5545,
      "Zabad": 5546,
      "gatey": 5547,
      "bowa": 5548,
      "boney": 5549,
      "sem": 5550,
      "niiney": 5551,
      "nem": 5552,
      "bisayaŋ": 5553,
      "lun": 5554,
      "manci": 5555,
      "der": 5556,
      "izefutu": 5557,
      "kayniyo": 5558,
      "windante": 5559,
      "Matta": 5560,
      "faabayaŋ": 5561,
      "Sambu": 5562,
      "buurey": 5563,
      "buunu": 5564,
      "margasina": 5565,
      "ŋwaarayey": 5566,
      "darzandi": 5567,
      "Sunem": 5568,
      "hantumkey": 5569,
      "kii": 5570,
      "eyaŋo": 5571,
      "Sekaniya": 5572,
      "Hel": 5573,
      "liyat": 5574,
      "Laaliyaŋ": 5575,
      "Goliyat": 5576,
      "Elim": 5577,
      "komkoy": 5578,
      "Kakaw": 5579,
      "sambante": 5580,
      "janca": 5581,
      "Pedaya": 5582,
      "Kemos": 5583,
      "Tappu": 5584,
      "habey": 5585,
      "diiyaŋo": 5586,
      "hahaaray": 5587,
      "jabey": 5588,
      "Romancey": 5589,
      "Jilbowa": 5590,
      "Yebus": 5591,
      "gondiyaŋ": 5592,
      "birawey": 5593,
      "Zangu": 5594,
      "Belsazzar": 5595,
      "baanay": 5596,
      "sosoro": 5597,
      "sakulla": 5598,
      "danawo": 5599,
      "Kuuko": 5600,
      "zamuuyaŋ": 5601,
      "Elifelet": 5602,
      "Akkub": 5603,
      "Tappuwa": 5604,
      "Eno": 5605,
      "Ira": 5606,
      "Jara": 5607,
      "Mare": 5608,
      "kri": 5609,
      "rawa": 5610,
      "razim": 5611,
      "alba": 5612,
      "bii": 5613,
      "sila": 5614,
      "dungo": 5615,
      "habo": 5616,
      "tatanji": 5617,
      "tur": 5618,
      "jijir": 5619,
      "laamey": 5620,
      "sandey": 5621,
      "fakay": 5622,
      "binji": 5623,
      "wantey": 5624,
      "met": 5625,
      "kanjar": 5626,
      "zure": 5627,
      "Maday": 5628,
      "markasina": 5629,
      "gando": 5630,
      "zaadayaŋ": 5631,
      "faakaaray": 5632,
      "Koso": 5633,
      "kooma": 5634,
      "zijanta": 5635,
      "sanniizey": 5636,
      "Jisiyaŋ": 5637,
      "Sundu": 5638,
      "Sududu": 5639,
      "Hanga": 5640,
      "albarkey": 5641,
      "eyaŋey": 5642,
      "Gaaham": 5643,
      "Gaakasinay": 5644,
      "Semi": 5645,
      "feeriyaŋo": 5646,
      "annabitara": 5647,
      "dambangan": 5648,
      "kaanikoy": 5649,
      "Nazir": 5650,
      "dondako": 5651,
      "Perazim": 5652,
      "Tassal": 5653,
      "muuso": 5654,
      "kaatiyaŋey": 5655,
      "dumizey": 5656,
      "Cinne": 5657,
      "jantekomey": 5658,
      "timmandi": 5659,
      "Zabdi": 5660,
      "taarifi": 5661,
      "darzanta": 5662,
      "wiiko": 5663,
      "Mayraykoyo": 5664,
      "Sabaniya": 5665,
      "Adamayzey": 5666,
      "jukke": 5667,
      "Sarezar": 5668,
      "alsilaamataray": 5669,
      "Enosu": 5670,
      "Maresa": 5671,
      "jijirandi": 5672,
      "Sududuyaŋ": 5673,
      "Tassaloni": 5674,
      "Elat": 5675,
      "fri": 5676,
      "glat": 5677,
      "pad": 5678,
      "‘’": 5679,
      "kabo": 5680,
      "gagaro": 5681,
      "eyel": 5682,
      "gond": 5683,
      "temo": 5684,
      "cita": 5685,
      "futandi": 5686,
      "tusu": 5687,
      "hayjiney": 5688,
      "arel": 5689,
      "sayyaŋ": 5690,
      "leser": 5691,
      "Baabey": 5692,
      "kasiney": 5693,
      "Big": 5694,
      "kawra": 5695,
      "suubananteyaŋ": 5696,
      "Filibi": 5697,
      "Tola": 5698,
      "Naanay": 5699,
      "Bulosyaŋ": 5700,
      "mursu": 5701,
      "Tiglat": 5702,
      "Arpad": 5703,
      "Kenan": 5704,
      "Kayrawa": 5705,
      "kalimakoy": 5706,
      "Estemo": 5707,
      "yulbe": 5708,
      "Laakalkooney": 5709,
      "toonyantey": 5710,
      "Tema": 5711,
      "laamikoyey": 5712,
      "tinayey": 5713,
      "wangaaritarey": 5714,
      "caada": 5715,
      "Hittance": 5716,
      "Azarel": 5717,
      "arkusuyaŋ": 5718,
      "gangara": 5719,
      "Pileser": 5720,
      "sukutu": 5721,
      "wongaariyaŋ": 5722,
      "hindoonayyaŋ": 5723,
      "Aholibama": 5724,
      "gaasiyey": 5725,
      "Sefarbayim": 5726,
      "Ir": 5727,
      "Jan": 5728,
      "imey": 5729,
      "ikaynayaŋ": 5730,
      "ttay": 5731,
      "int": 5732,
      "bona": 5733,
      "yab": 5734,
      "konkon": 5735,
      "guwey": 5736,
      "latak": 5737,
      "jifey": 5738,
      "sanca": 5739,
      "Yabok": 5740,
      "baabay": 5741,
      "Bone": 5742,
      "taabantey": 5743,
      "Yesaya": 5744,
      "mutar": 5745,
      "nukum": 5746,
      "toonya": 5747,
      "fatayaŋ": 5748,
      "suuta": 5749,
      "cacar": 5750,
      "Had": 5751,
      "Suwal": 5752,
      "kubayaŋ": 5753,
      "kawrey": 5754,
      "warankanta": 5755,
      "aros": 5756,
      "fansantey": 5757,
      "Yahudanceyaŋ": 5758,
      "yeejiyaŋ": 5759,
      "Nob": 5760,
      "Dayo": 5761,
      "Gedor": 5762,
      "Fulan": 5763,
      "darayyaŋ": 5764,
      "Libni": 5765,
      "Hodiya": 5766,
      "Yahudanca": 5767,
      "Follay": 5768,
      "Bannyey": 5769,
      "Ladan": 5770,
      "duuyaŋ": 5771,
      "Hirodiya": 5772,
      "Beeraykoy": 5773,
      "handariyayze": 5774,
      "Nooru": 5775,
      "Korint": 5776,
      "kalaasey": 5777,
      "dumayzey": 5778,
      "Jeejay": 5779,
      "Finetar": 5780,
      "Hakkoz": 5781,
      "Taanak": 5782,
      "sinkita": 5783,
      "mutard": 5784,
      "Aru": 5785,
      "Abisa": 5786,
      "BON": 5787,
      "Eziyon": 5788,
      "Gala": 5789,
      "Hã": 5790,
      "Nda": 5791,
      "Onan": 5792,
      "Saruna": 5793,
      "Yan": 5794,
      "ilaaley": 5795,
      "isayaŋ": 5796,
      "ver": 5797,
      "ziri": 5798,
      "ŋayaŋ": 5799,
      "bota": 5800,
      "nami": 5801,
      "luk": 5802,
      "sillo": 5803,
      "siir": 5804,
      "dubu": 5805,
      "duday": 5806,
      "izii": 5807,
      "sati": 5808,
      "sasar": 5809,
      "bayot": 5810,
      "zamey": 5811,
      "lolo": 5812,
      "liyo": 5813,
      "maykwa": 5814,
      "zukwa": 5815,
      "sabbize": 5816,
      "Waazukwa": 5817,
      "karba": 5818,
      "karmaari": 5819,
      "fayyaŋo": 5820,
      "sayaŋo": 5821,
      "Sata": 5822,
      "hawfunay": 5823,
      "hawjiyaŋ": 5824,
      "fooray": 5825,
      "windikoyey": 5826,
      "Siji": 5827,
      "darzaa": 5828,
      "daranta": 5829,
      "Sunami": 5830,
      "addi": 5831,
      "Setar": 5832,
      "Sefer": 5833,
      "gartu": 5834,
      "kaanu": 5835,
      "dabarikooni": 5836,
      "gaaraykoy": 5837,
      "zeeriyaŋ": 5838,
      "jari": 5839,
      "teekoyaŋ": 5840,
      "yeesi": 5841,
      "Gesem": 5842,
      "Arte": 5843,
      "ciriyey": 5844,
      "Hurim": 5845,
      "bonzayaŋ": 5846,
      "naanaykoyo": 5847,
      "Tuk": 5848,
      "Baalyaŋ": 5849,
      "koŋŋayaŋ": 5850,
      "kuukuyaŋ": 5851,
      "Malluk": 5852,
      "wufa": 5853,
      "funsuyaŋ": 5854,
      "borbota": 5855,
      "Susuba": 5856,
      "camsa": 5857,
      "dunguriyandi": 5858,
      "sogonyano": 5859,
      "ziimataray": 5860,
      "mafaaro": 5861,
      "Yerameyel": 5862,
      "nesco": 5863,
      "Abisag": 5864,
      "BONKO": 5865,
      "Galatiya": 5866,
      "iziibo": 5867,
      "Faro": 5868,
      "Lal": 5869,
      "Mala": 5870,
      "Nizee": 5871,
      "Wal": 5872,
      "asa": 5873,
      "kabay": 5874,
      "nam": 5875,
      "kutubo": 5876,
      "doram": 5877,
      "baana": 5878,
      "dumar": 5879,
      "dumbaro": 5880,
      "wongey": 5881,
      "wani": 5882,
      "hayjine": 5883,
      "Madiyan": 5884,
      "Mawon": 5885,
      "Massa": 5886,
      "dayyaŋ": 5887,
      "gaabey": 5888,
      "Miila": 5889,
      "hamyaŋ": 5890,
      "Yoha": 5891,
      "Jitti": 5892,
      "Buru": 5893,
      "fonguyaŋo": 5894,
      "ibaayo": 5895,
      "dabariyaŋ": 5896,
      "Nafa": 5897,
      "Goni": 5898,
      "Zeraya": 5899,
      "Zeboy": 5900,
      "Nooni": 5901,
      "taŋyaŋ": 5902,
      "taŋante": 5903,
      "sarayaŋ": 5904,
      "jarawey": 5905,
      "ayos": 5906,
      "Abisuwa": 5907,
      "tangarikomey": 5908,
      "hukum": 5909,
      "barmaykoy": 5910,
      "dumbukwa": 5911,
      "Hogla": 5912,
      "gaaruyaŋ": 5913,
      "Dison": 5914,
      "toonyante": 5915,
      "wandiyotaray": 5916,
      "nyunayaŋ": 5917,
      "BeerayBeeri": 5918,
      "Isumeylancey": 5919,
      "boryandi": 5920,
      "fongandiyaŋ": 5921,
      "jareyaŋo": 5922,
      "finetar": 5923,
      "Timnat": 5924,
      "caŋey": 5925,
      "Doonko": 5926,
      "wargayaŋ": 5927,
      "goborotaray": 5928,
      "Eleyasa": 5929,
      "wazibo": 5930,
      "deemokarasi": 5931,
      "bunkusyaŋ": 5932,
      "laarabu": 5933,
      "Tassalonika": 5934,
      "Nizeer": 5935,
      "Zeboyim": 5936,
      "Ahino": 5937,
      "Fanta": 5938,
      "Ilaala": 5939,
      "Jaŋ": 5940,
      "Tel": 5941,
      "Urim": 5942,
      "dwan": 5943,
      "kwara": 5944,
      "landi": 5945,
      "garawo": 5946,
      "boubacar": 5947,
      "yamin": 5948,
      "gongor": 5949,
      "kurandi": 5950,
      "dio": 5951,
      "didi": 5952,
      "dimu": 5953,
      "abdou": 5954,
      "biyayaŋ": 5955,
      "dukurandi": 5956,
      "amali": 5957,
      "jisanta": 5958,
      "hana": 5959,
      "bindey": 5960,
      "funyaŋo": 5961,
      "funeyaŋ": 5962,
      "sor": 5963,
      "taako": 5964,
      "taata": 5965,
      "nooko": 5966,
      "nune": 5967,
      "nuwi": 5968,
      "suurandi": 5969,
      "halacikwa": 5970,
      "Haggoy": 5971,
      "Jihon": 5972,
      "windikoy": 5973,
      "ciitikoyaŋ": 5974,
      "adilanteyaŋ": 5975,
      "Zamaney": 5976,
      "zarmey": 5977,
      "kurru": 5978,
      "Selu": 5979,
      "sinjiyaŋo": 5980,
      "Mayra": 5981,
      "Hegay": 5982,
      "yuttu": 5983,
      "Lawito": 5984,
      "toonandiyaŋo": 5985,
      "tubuko": 5986,
      "kurukwa": 5987,
      "Kaf": 5988,
      "Hosanna": 5989,
      "kosaraykoy": 5990,
      "dooruyaŋo": 5991,
      "munyaŋ": 5992,
      "Duu": 5993,
      "kaseetiyaŋo": 5994,
      "jeera": 5995,
      "fattanta": 5996,
      "Zowan": 5997,
      "Bankaaray": 5998,
      "Salmon": 5999,
      "Zuru": 6000,
      "Romey": 6001,
      "jaabo": 6002,
      "barzuyaŋ": 6003,
      "hawzukey": 6004,
      "Zeyeb": 6005,
      "Ariyel": 6006,
      "ceeyaŋo": 6007,
      "Sabaa": 6008,
      "Karita": 6009,
      "wargayaŋo": 6010,
      "Meyon": 6011,
      "Binnuwi": 6012,
      "Nikodimu": 6013,
      "izefututaray": 6014,
      "Ahinowam": 6015,
      "gongormandi": 6016,
      "Atarot": 6017,
      "BI": 6018,
      "Delaya": 6019,
      "Enan": 6020,
      "Par": 6021,
      "Paros": 6022,
      "cura": 6023,
      "mmin": 6024,
      "ny": 6025,
      "pal": 6026,
      "waraŋ": 6027,
      "yandiyaŋ": 6028,
      "gasi": 6029,
      "matu": 6030,
      "mollo": 6031,
      "goŋ": 6032,
      "sena": 6033,
      "sematu": 6034,
      "tonga": 6035,
      "hawantey": 6036,
      "tafandi": 6037,
      "boŋjina": 6038,
      "waare": 6039,
      "kaasum": 6040,
      "zakkey": 6041,
      "baarey": 6042,
      "baafun": 6043,
      "goyteeri": 6044,
      "medata": 6045,
      "muulu": 6046,
      "leyaŋo": 6047,
      "fayan": 6048,
      "hola": 6049,
      "Baalat": 6050,
      "Yongo": 6051,
      "haawa": 6052,
      "Kaldiya": 6053,
      "Suhi": 6054,
      "kormo": 6055,
      "Bene": 6056,
      "fondoyaŋ": 6057,
      "Bukki": 6058,
      "Toy": 6059,
      "Metu": 6060,
      "Mehola": 6061,
      "Basematu": 6062,
      "Zere": 6063,
      "zankayaŋ": 6064,
      "ganjiyaŋ": 6065,
      "Donda": 6066,
      "murtanteyaŋ": 6067,
      "Gedi": 6068,
      "Arcita": 6069,
      "kankamyaŋo": 6070,
      "saawarekoy": 6071,
      "List": 6072,
      "feejizey": 6073,
      "Saaji": 6074,
      "Gata": 6075,
      "Eskol": 6076,
      "tilamyaŋ": 6077,
      "Hawey": 6078,
      "hanseyano": 6079,
      "mantawo": 6080,
      "foyma": 6081,
      "buguyaŋ": 6082,
      "Hammedata": 6083,
      "dunguriya": 6084,
      "zunubikooniyaŋ": 6085,
      "Amiyel": 6086,
      "Bariyey": 6087,
      "Bildad": 6088,
      "Migdol": 6089,
      "zoogay": 6090,
      "BeerayBeeriKoyo": 6091,
      "Listra": 6092,
      "Ikoniya": 6093,
      "Jare": 6094,
      "Ngo": 6095,
      "gama": 6096,
      "gazandi": 6097,
      "dala": 6098,
      "raton": 6099,
      "dumayaŋ": 6100,
      "laŋ": 6101,
      "gaaso": 6102,
      "irikoyo": 6103,
      "mannandi": 6104,
      "hinzo": 6105,
      "lot": 6106,
      "Boze": 6107,
      "danyano": 6108,
      "kayniya": 6109,
      "feemayaŋ": 6110,
      "ŋwaayaŋo": 6111,
      "faara": 6112,
      "Kolo": 6113,
      "haamayaŋ": 6114,
      "guutu": 6115,
      "kawla": 6116,
      "Kus": 6117,
      "takubakoyyaŋ": 6118,
      "beton": 6119,
      "banako": 6120,
      "saraw": 6121,
      "Bato": 6122,
      "tubukwa": 6123,
      "murtantey": 6124,
      "Fuu": 6125,
      "Horiyancey": 6126,
      "walhe": 6127,
      "diibante": 6128,
      "Annasaara": 6129,
      "Lotan": 6130,
      "gonitara": 6131,
      "Eliyada": 6132,
      "pidi": 6133,
      "timmantey": 6134,
      "BeyerSeba": 6135,
      "durayyaŋ": 6136,
      "Galley": 6137,
      "Adilitaraykoyo": 6138,
      "bareyaŋo": 6139,
      "yaaziyaŋ": 6140,
      "taabaley": 6141,
      "Refayimyaŋ": 6142,
      "Zalmon": 6143,
      "follokomtaray": 6144,
      "Agagi": 6145,
      "nyalawyaŋ": 6146,
      "Curo": 6147,
      "ndugga": 6148,
      "Toorey": 6149,
      "Kurmu": 6150,
      "Lokkol": 6151,
      "Simron": 6152,
      "Jibbeton": 6153,
      "yaspidi": 6154,
      "Meremot": 6155,
      "bidile": 6156,
      "Pallu": 6157,
      "Sundurko": 6158,
      "yababe": 6159,
      "Artemis": 6160,
      "Ebal": 6161,
      "Gari": 6162,
      "Gamali": 6163,
      "Iii": 6164,
      "Kaw": 6165,
      "fni": 6166,
      "haraŋ": 6167,
      "iciya": 6168,
      "itaji": 6169,
      "mfi": 6170,
      "mbanta": 6171,
      "unesco": 6172,
      "ale": 6173,
      "tegoyey": 6174,
      "siini": 6175,
      "ture": 6176,
      "kaajiri": 6177,
      "Ayo": 6178,
      "hinkante": 6179,
      "mbandi": 6180,
      "Yamin": 6181,
      "waneyaŋ": 6182,
      "som": 6183,
      "sobay": 6184,
      "goyizey": 6185,
      "maafa": 6186,
      "nyatte": 6187,
      "zumbanta": 6188,
      "Yesi": 6189,
      "sabii": 6190,
      "saaf": 6191,
      "mura": 6192,
      "Alha": 6193,
      "feeranteyaŋ": 6194,
      "Koŋ": 6195,
      "Sasab": 6196,
      "kuura": 6197,
      "sanniizo": 6198,
      "faabakwa": 6199,
      "Jiirey": 6200,
      "yanja": 6201,
      "doodo": 6202,
      "Gun": 6203,
      "daabule": 6204,
      "Sera": 6205,
      "liyab": 6206,
      "zinjandi": 6207,
      "gisi": 6208,
      "guuruyaŋ": 6209,
      "Yehohanan": 6210,
      "taamuyaŋey": 6211,
      "Elimelek": 6212,
      "koytarayey": 6213,
      "kuuruyaŋ": 6214,
      "kkari": 6215,
      "jand": 6216,
      "Kenana": 6217,
      "Ahiyezer": 6218,
      "caraw": 6219,
      "kunta": 6220,
      "Dumbari": 6221,
      "waanawaana": 6222,
      "Fondey": 6223,
      "gunguri": 6224,
      "Bangandi": 6225,
      "Feejey": 6226,
      "mehawyaŋ": 6227,
      "yaarukomyaŋ": 6228,
      "diibiyaŋ": 6229,
      "Mizpe": 6230,
      "jaabi": 6231,
      "Kanay": 6232,
      "Adma": 6233,
      "taalamey": 6234,
      "Ciitikwa": 6235,
      "zuguley": 6236,
      "Lehi": 6237,
      "Talkey": 6238,
      "londibuunoyaŋ": 6239,
      "captu": 6240,
      "Nimsi": 6241,
      "Koociya": 6242,
      "kaakaaci": 6243,
      "Azel": 6244,
      "Eleyale": 6245,
      "dirgan": 6246,
      "Toonye": 6247,
      "Yaredu": 6248,
      "Estemowa": 6249,
      "verset": 6250,
      "didijante": 6251,
      "Gamaliyel": 6252,
      "Ahiyo": 6253,
      "Atina": 6254,
      "Hare": 6255,
      "Ibeero": 6256,
      "Ofel": 6257,
      "Pahat": 6258,
      "amey": 6259,
      "akkari": 6260,
      "is": 6261,
      "idda": 6262,
      "kasance": 6263,
      "rit": 6264,
      "bisandi": 6265,
      "sana": 6266,
      "fam": 6267,
      "lond": 6268,
      "mim": 6269,
      "Niamey": 6270,
      "Mahalal": 6271,
      "wiyante": 6272,
      "Alfu": 6273,
      "zango": 6274,
      "sayyaŋo": 6275,
      "sooja": 6276,
      "dumidumey": 6277,
      "farre": 6278,
      "tooyaŋ": 6279,
      "ciiko": 6280,
      "Hagar": 6281,
      "Hasaraw": 6282,
      "yeyaŋo": 6283,
      "darantey": 6284,
      "daabuley": 6285,
      "jeje": 6286,
      "mooray": 6287,
      "jaŋey": 6288,
      "sintinayey": 6289,
      "kankamey": 6290,
      "kaaniyo": 6291,
      "tubuyaŋ": 6292,
      "catuyaŋ": 6293,
      "Kambey": 6294,
      "Tudey": 6295,
      "jandey": 6296,
      "Farilla": 6297,
      "Horo": 6298,
      "Hosa": 6299,
      "lambayaŋ": 6300,
      "kokoranta": 6301,
      "Banayaŋ": 6302,
      "Bangando": 6303,
      "pela": 6304,
      "ilaaloyaŋ": 6305,
      "kobtoyaŋ": 6306,
      "Soobay": 6307,
      "Haali": 6308,
      "cabay": 6309,
      "hartayaŋey": 6310,
      "Neesiyaŋ": 6311,
      "198": 6312,
      "Talmay": 6313,
      "Curayzey": 6314,
      "gorkasina": 6315,
      "bokwey": 6316,
      "Suriyance": 6317,
      "saruusey": 6318,
      "addino": 6319,
      "Mattitiya": 6320,
      "gaakurante": 6321,
      "Makpela": 6322,
      "lunkey": 6323,
      "Jangal": 6324,
      "Mahalalel": 6325,
      "Dab": 6326,
      "ES": 6327,
      "Ihinka": 6328,
      "Risa": 6329,
      "TE": 6330,
      "ita": 6331,
      "lar": 6332,
      "kaayi": 6333,
      "maram": 6334,
      "matiya": 6335,
      "mohama": 6336,
      "nafaa": 6337,
      "alciri": 6338,
      "dirandi": 6339,
      "gurayzey": 6340,
      "duwa": 6341,
      "latiya": 6342,
      "gaakuro": 6343,
      "takunku": 6344,
      "tambe": 6345,
      "takubayaŋ": 6346,
      "tullu": 6347,
      "waaso": 6348,
      "rug": 6349,
      "zaŋa": 6350,
      "hinko": 6351,
      "Yason": 6352,
      "hiino": 6353,
      "mehawo": 6354,
      "hayzaŋay": 6355,
      "taaco": 6356,
      "kayyaŋey": 6357,
      "yaajey": 6358,
      "margaa": 6359,
      "cediraw": 6360,
      "hãayaŋ": 6361,
      "ziyel": 6362,
      "zijandi": 6363,
      "Baala": 6364,
      "teer": 6365,
      "gumogumo": 6366,
      "alfari": 6367,
      "darancey": 6368,
      "Sur": 6369,
      "fooyaŋey": 6370,
      "Gundo": 6371,
      "birantey": 6372,
      "Serug": 6373,
      "arzakanta": 6374,
      "neesiyaŋey": 6375,
      "Goyo": 6376,
      "jarandi": 6377,
      "tubukoyaŋ": 6378,
      "komko": 6379,
      "komso": 6380,
      "tabbatanta": 6381,
      "Kaayey": 6382,
      "tangarikomyaŋ": 6383,
      "Rehu": 6384,
      "Rekam": 6385,
      "barmayyaŋo": 6386,
      "barmayyaney": 6387,
      "daaruyaŋ": 6388,
      "Amasay": 6389,
      "Gadarancey": 6390,
      "Sammay": 6391,
      "cansekom": 6392,
      "kusuyaŋ": 6393,
      "Cinaro": 6394,
      "llandi": 6395,
      "bangandey": 6396,
      "durayyaŋey": 6397,
      "zorme": 6398,
      "Reyaya": 6399,
      "Azriyel": 6400,
      "looti": 6401,
      "siiriyaŋ": 6402,
      "kolba": 6403,
      "yaddante": 6404,
      "Imla": 6405,
      "dudaley": 6406,
      "wayborayzey": 6407,
      "mafaari": 6408,
      "Poti": 6409,
      "Iyye": 6410,
      "Dondonandiyaŋ": 6411,
      "gasandiyaŋ": 6412,
      "Iskandari": 6413,
      "Duvan": 6414,
      "Tiyatira": 6415,
      "Zilpa": 6416,
      "kayniyaw": 6417,
      "takunkum": 6418,
      "tulluwa": 6419,
      "BBI": 6420,
      "Min": 6421,
      "ONO": 6422,
      "Sala": 6423,
      "Zanowa": 6424,
      "et": 6425,
      "ffo": 6426,
      "pan": 6427,
      "tala": 6428,
      "gawal": 6429,
      "maabay": 6430,
      "gob": 6431,
      "diiney": 6432,
      "siri": 6433,
      "gurey": 6434,
      "basu": 6435,
      "basey": 6436,
      "topa": 6437,
      "lada": 6438,
      "tita": 6439,
      "rayyaŋ": 6440,
      "sus": 6441,
      "waaro": 6442,
      "waaru": 6443,
      "wasi": 6444,
      "wafaku": 6445,
      "bayko": 6446,
      "deba": 6447,
      "hankoy": 6448,
      "handey": 6449,
      "hansiyaŋ": 6450,
      "sann": 6451,
      "zaw": 6452,
      "zafa": 6453,
      "misaa": 6454,
      "Yacine": 6455,
      "goykasin": 6456,
      "hayel": 6457,
      "nyage": 6458,
      "Yeday": 6459,
      "gorokoyaŋ": 6460,
      "saafo": 6461,
      "mug": 6462,
      "muwa": 6463,
      "sambuyaŋo": 6464,
      "sayo": 6465,
      "ninyaŋ": 6466,
      "fira": 6467,
      "Jiyo": 6468,
      "Sidon": 6469,
      "gooje": 6470,
      "deenay": 6471,
      "jezey": 6472,
      "Oholiba": 6473,
      "Molada": 6474,
      "gaaykwa": 6475,
      "Medeba": 6476,
      "biyatan": 6477,
      "zeyandi": 6478,
      "fahamandiyaŋ": 6479,
      "Bak": 6480,
      "Goray": 6481,
      "Zeres": 6482,
      "naanandey": 6483,
      "Abihayel": 6484,
      "Argob": 6485,
      "aliya": 6486,
      "bonjara": 6487,
      "biriyaŋ": 6488,
      "Peda": 6489,
      "kunfayaŋ": 6490,
      "Dumbaro": 6491,
      "Barzu": 6492,
      "fuulayaŋ": 6493,
      "Zofar": 6494,
      "deeniyaŋ": 6495,
      "fafagay": 6496,
      "jindeyaŋ": 6497,
      "mantawyaŋ": 6498,
      "Zaamaani": 6499,
      "hirrimiyaŋ": 6500,
      "Birney": 6501,
      "nyaaleyaŋo": 6502,
      "asuley": 6503,
      "Tarsus": 6504,
      "Addar": 6505,
      "Piraton": 6506,
      "Akila": 6507,
      "munaficitara": 6508,
      "Lebiyatan": 6509,
      "Doori": 6510,
      "zanjarmey": 6511,
      "Yeeji": 6512,
      "Yoyarib": 6513,
      "poltiko": 6514,
      "Arkusu": 6515,
      "cantukoyo": 6516,
      "Suriyanca": 6517,
      "RABBI": 6518,
      "Hantumkwa": 6519,
      "Tarawasa": 6520,
      "dondonkoyaŋ": 6521,
      "Yabin": 6522,
      "Haggit": 6523,
      "Birisila": 6524,
      "Kosongu": 6525,
      "addiino": 6526,
      "BONKOONO": 6527,
      "Walhã": 6528,
      "dioffo": 6529,
      "maabayzo": 6530,
      "topaz": 6531,
      "Yedayel": 6532,
      "Adin": 6533,
      "Fila": 6534,
      "Fofo": 6535,
      "Farka": 6536,
      "Hẽ": 6537,
      "Hana": 6538,
      "Halfa": 6539,
      "Italiya": 6540,
      "kin": 6541,
      "ou": 6542,
      "zayey": 6543,
      "anan": 6544,
      "daana": 6545,
      "mariya": 6546,
      "bak": 6547,
      "duru": 6548,
      "dubiyaŋ": 6549,
      "raylu": 6550,
      "bangey": 6551,
      "irikoyey": 6552,
      "beeleyaŋ": 6553,
      "Yadin": 6554,
      "Yatti": 6555,
      "deyaŋo": 6556,
      "mayyaŋ": 6557,
      "mayzo": 6558,
      "metar": 6559,
      "danca": 6560,
      "Mad": 6561,
      "ganj": 6562,
      "cekayante": 6563,
      "booney": 6564,
      "noor": 6565,
      "Hattu": 6566,
      "Jiray": 6567,
      "windikoyyaŋ": 6568,
      "darb": 6569,
      "bekay": 6570,
      "Abba": 6571,
      "Gemariya": 6572,
      "Cimo": 6573,
      "dondakoy": 6574,
      "neerako": 6575,
      "Tatte": 6576,
      "saajawkoy": 6577,
      "taabandikoy": 6578,
      "Patros": 6579,
      "kosarayko": 6580,
      "sahãadinsahãadin": 6581,
      "kunsu": 6582,
      "Dungu": 6583,
      "Saal": 6584,
      "Karji": 6585,
      "anzurayey": 6586,
      "galluyaŋ": 6587,
      "Zoŋey": 6588,
      "alfukaaro": 6589,
      "Goobo": 6590,
      "wangaaritara": 6591,
      "randey": 6592,
      "lalabuyaŋ": 6593,
      "lalabukoy": 6594,
      "Mizrayim": 6595,
      "arwasuyaŋ": 6596,
      "Zuf": 6597,
      "mebarawyaŋ": 6598,
      "timmanteyaŋ": 6599,
      "Silowam": 6600,
      "Itri": 6601,
      "miisi": 6602,
      "Sardi": 6603,
      "koloŋayyaŋ": 6604,
      "tolliyaŋ": 6605,
      "Wandiyey": 6606,
      "turaare": 6607,
      "Doogarey": 6608,
      "alborayzo": 6609,
      "Yoktan": 6610,
      "attaciriyey": 6611,
      "Sibbekay": 6612,
      "Simsay": 6613,
      "Jibraylu": 6614,
      "Alkama": 6615,
      "gullayze": 6616,
      "balancawey": 6617,
      "gugusi": 6618,
      "Cinnerot": 6619,
      "Lalabu": 6620,
      "Bozenay": 6621,
      "deenayzey": 6622,
      "Hẽeni": 6623,
      "Hanameyel": 6624,
      "Yattir": 6625,
      "Hattus": 6626,
      "Tattenay": 6627,
      "()": 6628,
      "Can": 6629,
      "Itaacanta": 6630,
      "Joo": 6631,
      "Para": 6632,
      "asuuta": 6633,
      "haba": 6634,
      "gad": 6635,
      "dacara": 6636,
      "madar": 6637,
      "kongu": 6638,
      "armey": 6639,
      "doy": 6640,
      "dobo": 6641,
      "cirandi": 6642,
      "dinari": 6643,
      "safa": 6644,
      "tari": 6645,
      "takey": 6646,
      "manca": 6647,
      "hancey": 6648,
      "Irikoytara": 6649,
      "zuro": 6650,
      "daŋyaŋo": 6651,
      "sabayano": 6652,
      "Maayaŋ": 6653,
      "mudu": 6654,
      "markasinay": 6655,
      "wiyantey": 6656,
      "Wongaari": 6657,
      "Alhaalo": 6658,
      "dumidumi": 6659,
      "Koyey": 6660,
      "Baafunay": 6661,
      "kuusay": 6662,
      "Hatak": 6663,
      "ceeciyaŋo": 6664,
      "hantumey": 6665,
      "ciitiyaŋ": 6666,
      "Gundu": 6667,
      "zarma": 6668,
      "maanante": 6669,
      "kurku": 6670,
      "kaarukoyaŋ": 6671,
      "Buro": 6672,
      "Oholiyab": 6673,
      "rkoyaŋ": 6674,
      "Dotti": 6675,
      "Hilli": 6676,
      "Abiyezer": 6677,
      "siyas": 6678,
      "Edomanca": 6679,
      "waazuko": 6680,
      "balga": 6681,
      "muulo": 6682,
      "Fongu": 6683,
      "wus": 6684,
      "Baladan": 6685,
      "sisiro": 6686,
      "carma": 6687,
      "kilometar": 6688,
      "guddamayaŋ": 6689,
      "Jinayey": 6690,
      "Hamni": 6691,
      "zeenoyaŋ": 6692,
      "ulle": 6693,
      "Nooro": 6694,
      "kulbey": 6695,
      "sandoyaŋ": 6696,
      "mortu": 6697,
      "hiniyaŋ": 6698,
      "Lordo": 6699,
      "Boosi": 6700,
      "jeeniyaŋ": 6701,
      "zaadayano": 6702,
      "caadantey": 6703,
      "Ahohi": 6704,
      "Selomot": 6705,
      "Laabiizetaray": 6706,
      "Merodak": 6707,
      "janceyaŋo": 6708,
      "peelu": 6709,
      "baabayzey": 6710,
      "zoogayo": 6711,
      "Joote": 6712,
      "Taari": 6713,
      "Tanga": 6714,
      "eney": 6715,
      "gel": 6716,
      "zaniya": 6717,
      "ŋwe": 6718,
      "ɲaŋo": 6719,
      "kama": 6720,
      "kangay": 6721,
      "ayzetaray": 6722,
      "maga": 6723,
      "inti": 6724,
      "yadin": 6725,
      "kuma": 6726,
      "koyyano": 6727,
      "fofo": 6728,
      "duwo": 6729,
      "dumbarey": 6730,
      "buka": 6731,
      "hagay": 6732,
      "sacey": 6733,
      "sakali": 6734,
      "sakaliyaŋ": 6735,
      "tugari": 6736,
      "banteyaŋ": 6737,
      "laam": 6738,
      "hinkoyo": 6739,
      "tonkwa": 6740,
      "taasu": 6741,
      "sabbo": 6742,
      "murku": 6743,
      "kalam": 6744,
      "ganteyaŋ": 6745,
      "zerot": 6746,
      "fidim": 6747,
      "Hawo": 6748,
      "Hamisa": 6749,
      "Hadoram": 6750,
      "Hazerot": 6751,
      "Jilo": 6752,
      "cimicimo": 6753,
      "zotti": 6754,
      "Tongo": 6755,
      "farillayaŋ": 6756,
      "tuguyaŋo": 6757,
      "naajo": 6758,
      "daminti": 6759,
      "bayraykooni": 6760,
      "Naziri": 6761,
      "alhako": 6762,
      "Bamfi": 6763,
      "Goro": 6764,
      "Zefon": 6765,
      "fitiyaŋ": 6766,
      "Baytu": 6767,
      "Bayrayey": 6768,
      "Refidim": 6769,
      "Hofni": 6770,
      "asibto": 6771,
      "diiyaŋey": 6772,
      "Teenay": 6773,
      "zerbo": 6774,
      "alowe": 6775,
      "BenHadad": 6776,
      "kaanokoy": 6777,
      "fuusi": 6778,
      "kunfakoyaŋ": 6779,
      "Banda": 6780,
      "Sekel": 6781,
      "Naamu": 6782,
      "Zuri": 6783,
      "Anniya": 6784,
      "Rogel": 6785,
      "timme": 6786,
      "Yebusanca": 6787,
      "gurzugayey": 6788,
      "hawzuyano": 6789,
      "burciney": 6790,
      "wonkoy": 6791,
      "burcinitara": 6792,
      "baarabaara": 6793,
      "Refaya": 6794,
      "Sargayey": 6795,
      "feyaŋo": 6796,
      "zugula": 6797,
      "Nergal": 6798,
      "ppim": 6799,
      "Talmon": 6800,
      "laawalo": 6801,
      "alsilaamotaray": 6802,
      "sosorandi": 6803,
      "Yeesi": 6804,
      "fatawcizey": 6805,
      "Kurukwa": 6806,
      "Lokkolo": 6807,
      "Arkusey": 6808,
      "Ramses": 6809,
      "KOY": 6810,
      "beril": 6811,
      "Helez": 6812,
      "Salim": 6813,
      "gurayze": 6814,
      "Bigbay": 6815,
      "Selumiyel": 6816,
      "Metusala": 6817,
      "murkutuk": 6818,
      "Bamfiliya": 6819,
      "alowes": 6820,
      "EY": 6821,
      "Gayos": 6822,
      "Kab": 6823,
      "Kim": 6824,
      "Mara": 6825,
      "Ono": 6826,
      "lda": 6827,
      "nye": 6828,
      "pta": 6829,
      "swa": 6830,
      "star": 6831,
      "kaabey": 6832,
      "gazeyaŋ": 6833,
      "dadab": 6834,
      "bokwa": 6835,
      "rikam": 6836,
      "moda": 6837,
      "gombo": 6838,
      "diga": 6839,
      "cimey": 6840,
      "guruyaŋ": 6841,
      "buci": 6842,
      "buti": 6843,
      "lawo": 6844,
      "fuizey": 6845,
      "saw": 6846,
      "tafar": 6847,
      "tus": 6848,
      "jisantey": 6849,
      "mando": 6850,
      "baytey": 6851,
      "hindoon": 6852,
      "beeno": 6853,
      "beebey": 6854,
      "lit": 6855,
      "funkoy": 6856,
      "Isbi": 6857,
      "Issaya": 6858,
      "taabu": 6859,
      "taaso": 6860,
      "Yezer": 6861,
      "naniya": 6862,
      "dayko": 6863,
      "Alhaali": 6864,
      "feeray": 6865,
      "karkwa": 6866,
      "sooley": 6867,
      "tanka": 6868,
      "Yozadak": 6869,
      "haarey": 6870,
      "yanteyaŋ": 6871,
      "dondonyano": 6872,
      "Simri": 6873,
      "Sittim": 6874,
      "Zam": 6875,
      "nayim": 6876,
      "Guu": 6877,
      "kel": 6878,
      "cimikoyyaŋ": 6879,
      "Sedor": 6880,
      "Beker": 6881,
      "alaadayaŋ": 6882,
      "mayraykoyyaŋ": 6883,
      "zolla": 6884,
      "gart": 6885,
      "gartandi": 6886,
      "Bur": 6887,
      "Ohola": 6888,
      "Nebayot": 6889,
      "Mou": 6890,
      "beerandiyaŋo": 6891,
      "gaayko": 6892,
      "Danay": 6893,
      "Gozan": 6894,
      "murtante": 6895,
      "catucatu": 6896,
      "sasabey": 6897,
      "naanaykoyey": 6898,
      "Tummin": 6899,
      "Assir": 6900,
      "jando": 6901,
      "saajawkwa": 6902,
      "gera": 6903,
      "Jirbiyaŋ": 6904,
      "Teerey": 6905,
      "Annama": 6906,
      "Saamey": 6907,
      "Nufa": 6908,
      "dalbukoy": 6909,
      "Zohar": 6910,
      "Goobey": 6911,
      "marayyaŋo": 6912,
      "talkataray": 6913,
      "Eliyasaf": 6914,
      "Anat": 6915,
      "Annura": 6916,
      "karjikoyyaŋ": 6917,
      "munadamay": 6918,
      "Adilitaraykoy": 6919,
      "Merab": 6920,
      "Azrikam": 6921,
      "Refayimey": 6922,
      "Gares": 6923,
      "Arimatiya": 6924,
      "Aristar": 6925,
      "Deeda": 6926,
      "Deemo": 6927,
      "Yaasayey": 6928,
      "leebu": 6929,
      "Purim": 6930,
      "Yoyada": 6931,
      "Adamayze": 6932,
      "foyrayyaŋ": 6933,
      "Mantawo": 6934,
      "dibba": 6935,
      "janceyaŋ": 6936,
      "hawfunoyaŋ": 6937,
      "doogariyaŋ": 6938,
      "Boŋbeeraykoyey": 6939,
      "Zaretan": 6940,
      "friki": 6941,
      "Naanaykoy": 6942,
      "Finetaryaŋ": 6943,
      "sasareyaŋey": 6944,
      "taatagay": 6945,
      "Kimham": 6946,
      "lawomer": 6947,
      "hindoonayey": 6948,
      "Sedorlawomer": 6949,
      "Aristarkos": 6950,
      "..": 6951,
      "12": 6952,
      "Isi": 6953,
      "Ibara": 6954,
      "Ihinzanta": 6955,
      "Kiri": 6956,
      "On": 6957,
      "Onisi": 6958,
      "Riz": 6959,
      "UD": 6960,
      "as": 6961,
      "ilaala": 6962,
      "kazaa": 6963,
      "gasu": 6964,
      "dabe": 6965,
      "kollo": 6966,
      "kosara": 6967,
      "koddo": 6968,
      "gog": 6969,
      "tela": 6970,
      "fotti": 6971,
      "gaakwa": 6972,
      "tir": 6973,
      "hambu": 6974,
      "sajo": 6975,
      "sasarey": 6976,
      "tuwo": 6977,
      "jidiga": 6978,
      "waasay": 6979,
      "laamo": 6980,
      "ded": 6981,
      "demot": 6982,
      "santeyaŋ": 6983,
      "binta": 6984,
      "misi": 6985,
      "Yafiya": 6986,
      "wayce": 6987,
      "waytaaca": 6988,
      "mayaŋo": 6989,
      "halacandi": 6990,
      "zuu": 6991,
      "Magog": 6992,
      "gayyaŋo": 6993,
      "mukan": 6994,
      "mudun": 6995,
      "sarre": 6996,
      "sambukoy": 6997,
      "Almaney": 6998,
      "ŋwaakoyaŋ": 6999,
      "Dambara": 7000,
      "zena": 7001,
      "hamnay": 7002,
      "fitta": 7003,
      "fooyaŋo": 7004,
      "cinariyaŋ": 7005,
      "neerandey": 7006,
      "Gulinci": 7007,
      "Bebay": 7008,
      "Bezer": 7009,
      "Kuri": 7010,
      "Kusan": 7011,
      "hangayaŋ": 7012,
      "kaaney": 7013,
      "Laasaabu": 7014,
      "Nekoda": 7015,
      "dabarikoy": 7016,
      "Memukan": 7017,
      "gaaraykwa": 7018,
      "Nahat": 7019,
      "Noha": 7020,
      "Bitrosyaŋ": 7021,
      "Geri": 7022,
      "zijiyaŋo": 7023,
      "cando": 7024,
      "banguyaŋ": 7025,
      "wowkoy": 7026,
      "Kedemot": 7027,
      "Tamo": 7028,
      "sunfay": 7029,
      "bakarandi": 7030,
      "Disan": 7031,
      "diire": 7032,
      "Gagari": 7033,
      "Sammuwa": 7034,
      "Barnisi": 7035,
      "Tunfaana": 7036,
      "Cawyaŋ": 7037,
      "mottey": 7038,
      "sarkuyaŋ": 7039,
      "burcino": 7040,
      "Rehobot": 7041,
      "Abiyam": 7042,
      "hamisey": 7043,
      "yaarutaray": 7044,
      "Buukwa": 7045,
      "tangamo": 7046,
      "jantekom": 7047,
      "Debar": 7048,
      "wiikwa": 7049,
      "bareyaŋey": 7050,
      "Tuuro": 7051,
      "Finiciya": 7052,
      "Farha": 7053,
      "fanag": 7054,
      "arzakanteyaŋ": 7055,
      "curayzeyaŋ": 7056,
      "tukize": 7057,
      "hassane": 7058,
      "alborayzey": 7059,
      "gursuna": 7060,
      "Hantumo": 7061,
      "Harsa": 7062,
      "farap": 7063,
      "Hassub": 7064,
      "Zeeban": 7065,
      "Furoyaŋo": 7066,
      "waaliyayaŋ": 7067,
      "yulbeyaŋ": 7068,
      "Zered": 7069,
      "Sasabandi": 7070,
      "Risatayim": 7071,
      "zawra": 7072,
      "Bakbu": 7073,
      "kazaamandi": 7074,
      "fittaw": 7075,
      "Dabe": 7076,
      "Ez": 7077,
      "Eben": 7078,
      "Fon": 7079,
      "SE": 7080,
      "jaro": 7081,
      "kaka": 7082,
      "anni": 7083,
      "inaa": 7084,
      "nafey": 7085,
      "alyanga": 7086,
      "almug": 7087,
      "neharay": 7088,
      "dollo": 7089,
      "cikos": 7090,
      "gudey": 7091,
      "tou": 7092,
      "dubal": 7093,
      "duwaaru": 7094,
      "safayaŋ": 7095,
      "turantey": 7096,
      "jihaa": 7097,
      "mane": 7098,
      "baykoy": 7099,
      "hans": 7100,
      "haney": 7101,
      "hinjeyaŋ": 7102,
      "baari": 7103,
      "hiir": 7104,
      "medaabu": 7105,
      "kayanteyaŋ": 7106,
      "Yeka": 7107,
      "dayze": 7108,
      "leyam": 7109,
      "barme": 7110,
      "zaaray": 7111,
      "farrey": 7112,
      "faat": 7113,
      "toorante": 7114,
      "Mur": 7115,
      "Mib": 7116,
      "zib": 7117,
      "zika": 7118,
      "casantey": 7119,
      "haarandi": 7120,
      "dontoney": 7121,
      "follonko": 7122,
      "Sutela": 7123,
      "Hangan": 7124,
      "cimikoyey": 7125,
      "zunubikoono": 7126,
      "feeriko": 7127,
      "seedakoy": 7128,
      "yuwo": 7129,
      "fansayaŋo": 7130,
      "feko": 7131,
      "farikoy": 7132,
      "tuuriyaŋ": 7133,
      "gorayey": 7134,
      "manuwel": 7135,
      "alwaatiyaŋ": 7136,
      "Mefaat": 7137,
      "adilitarayjaŋay": 7138,
      "jawaa": 7139,
      "Ticikos": 7140,
      "Gede": 7141,
      "Gebal": 7142,
      "tabbatandiyaŋ": 7143,
      "Kambu": 7144,
      "gunayaŋo": 7145,
      "barmayyaŋey": 7146,
      "Tubu": 7147,
      "Zimma": 7148,
      "patipati": 7149,
      "Kefira": 7150,
      "Malon": 7151,
      "Dugu": 7152,
      "Foy": 7153,
      "Teekwa": 7154,
      "jeerey": 7155,
      "Yehudi": 7156,
      "fuuru": 7157,
      "gunguni": 7158,
      "kawaatimey": 7159,
      "fatakoy": 7160,
      "Sayir": 7161,
      "Lak": 7162,
      "Hindi": 7163,
      "Natanel": 7164,
      "adamayzo": 7165,
      "Zuwar": 7166,
      "jabbey": 7167,
      "hawzuyaŋo": 7168,
      "Laalakoy": 7169,
      "adamayzetaray": 7170,
      "kaynayaŋo": 7171,
      "forgay": 7172,
      "funetara": 7173,
      "zugulayaŋ": 7174,
      "Immanuwel": 7175,
      "kutijey": 7176,
      "tuurinyaŋey": 7177,
      "Toonante": 7178,
      "fareeja": 7179,
      "Menahat": 7180,
      "Gursu": 7181,
      "Suujikoy": 7182,
      "sillaa": 7183,
      "wazibi": 7184,
      "Selomit": 7185,
      "dibbey": 7186,
      "Farkayey": 7187,
      "sedreyaŋ": 7188,
      "dikteero": 7189,
      "siirante": 7190,
      "Duurey": 7191,
      "Yesimot": 7192,
      "Salaŋ": 7193,
      "Sardisu": 7194,
      "Abin": 7195,
      "Ater": 7196,
      "Et": 7197,
      "Efa": 7198,
      "II": 7199,
      "Imna": 7200,
      "Je": 7201,
      "Zay": 7202,
      "Zeyaŋo": 7203,
      "itajiyaŋ": 7204,
      "lala": 7205,
      "owam": 7206,
      "pom": 7207,
      "sba": 7208,
      "tana": 7209,
      "zayo": 7210,
      "Ɲa": 7211,
      "gagarey": 7212,
      "gasinay": 7213,
      "bokey": 7214,
      "rimi": 7215,
      "mona": 7216,
      "diyaŋey": 7217,
      "bim": 7218,
      "citi": 7219,
      "gura": 7220,
      "tombo": 7221,
      "gaadogo": 7222,
      "alam": 7223,
      "fuo": 7224,
      "izur": 7225,
      "tahiya": 7226,
      "turi": 7227,
      "banyaŋ": 7228,
      "sungay": 7229,
      "hinyaŋ": 7230,
      "Yahazi": 7231,
      "baafuney": 7232,
      "hirot": 7233,
      "somb": 7234,
      "sorkoyaŋ": 7235,
      "deyur": 7236,
      "Boto": 7237,
      "meyam": 7238,
      "Yeraya": 7239,
      "gayante": 7240,
      "Alhaaley": 7241,
      "farmey": 7242,
      "tooyanta": 7243,
      "Muulu": 7244,
      "Miyamin": 7245,
      "Konkon": 7246,
      "foobey": 7247,
      "Haz": 7248,
      "Hahirot": 7249,
      "seesa": 7250,
      "Sihor": 7251,
      "neerandi": 7252,
      "neezo": 7253,
      "Zamba": 7254,
      "tuuyaŋ": 7255,
      "darzakoyey": 7256,
      "Sesba": 7257,
      "Sedeyur": 7258,
      "zon": 7259,
      "Heres": 7260,
      "Kun": 7261,
      "suubanyaŋo": 7262,
      "mookaraasi": 7263,
      "dabarikwa": 7264,
      "Mebara": 7265,
      "bayraykooney": 7266,
      "Baji": 7267,
      "taamuko": 7268,
      "taamukwa": 7269,
      "gurja": 7270,
      "diyataray": 7271,
      "Cittim": 7272,
      "kwaarayey": 7273,
      "kabuyaŋ": 7274,
      "Petahiya": 7275,
      "Edomance": 7276,
      "Hori": 7277,
      "Sintinay": 7278,
      "Gazama": 7279,
      "jeeney": 7280,
      "Bartala": 7281,
      "daabirjiyaŋ": 7282,
      "Cawka": 7283,
      "Faadancey": 7284,
      "Elizur": 7285,
      "Taway": 7286,
      "Buuro": 7287,
      "Beeraykoyo": 7288,
      "Baanikooney": 7289,
      "2019": 7290,
      "Yustos": 7291,
      "labucare": 7292,
      "gaayiyaŋ": 7293,
      "laabaarey": 7294,
      "harandaŋo": 7295,
      "Ciito": 7296,
      "forto": 7297,
      "safarikoy": 7298,
      "Arad": 7299,
      "kolbo": 7300,
      "cambuyaŋ": 7301,
      "Ludu": 7302,
      "Mattana": 7303,
      "zugayaŋ": 7304,
      "kaakaacey": 7305,
      "kaakaaciyaŋ": 7306,
      "Puwa": 7307,
      "toorimo": 7308,
      "Henadad": 7309,
      "Romanceyaŋ": 7310,
      "dambangantey": 7311,
      "Hagarancey": 7312,
      "Pedazur": 7313,
      "Gerizim": 7314,
      "Abinowam": 7315,
      "lalabo": 7316,
      "Yahaziyel": 7317,
      "Sesbazzar": 7318,
      "Bartalami": 7319,
      "HUD": 7320,
      "Jante": 7321,
      "Ok": 7322,
      "Omar": 7323,
      "Tad": 7324,
      "ddel": 7325,
      "icangarey": 7326,
      "rdi": 7327,
      "sny": 7328,
      "kau": 7329,
      "dara": 7330,
      "dabiya": 7331,
      "dambe": 7332,
      "ramandi": 7333,
      "bou": 7334,
      "rima": 7335,
      "kot": 7336,
      "koba": 7337,
      "gono": 7338,
      "sef": 7339,
      "naana": 7340,
      "nardi": 7341,
      "nir": 7342,
      "dia": 7343,
      "diso": 7344,
      "rod": 7345,
      "ciyo": 7346,
      "baay": 7347,
      "jiyel": 7348,
      "waafakay": 7349,
      "rudu": 7350,
      "zamay": 7351,
      "Yasub": 7352,
      "baakoyaŋ": 7353,
      "mena": 7354,
      "hayandi": 7355,
      "nyagas": 7356,
      "Mari": 7357,
      "Waaliya": 7358,
      "cedirawey": 7359,
      "salam": 7360,
      "dumitara": 7361,
      "Mit": 7362,
      "Samir": 7363,
      "lem": 7364,
      "harramandi": 7365,
      "rez": 7366,
      "dirakoy": 7367,
      "Jiddel": 7368,
      "seekoy": 7369,
      "Hanana": 7370,
      "Guni": 7371,
      "maanay": 7372,
      "kurna": 7373,
      "haggoyyaŋo": 7374,
      "daabuyaŋo": 7375,
      "Gaas": 7376,
      "Gaako": 7377,
      "Sed": 7378,
      "Senir": 7379,
      "gomnan": 7380,
      "Hetan": 7381,
      "Helon": 7382,
      "pas": 7383,
      "mooley": 7384,
      "kaniyaŋo": 7385,
      "bez": 7386,
      "ziibantey": 7387,
      "Moza": 7388,
      "tuguray": 7389,
      "Merib": 7390,
      "Yehozabad": 7391,
      "Gondo": 7392,
      "yeero": 7393,
      "het": 7394,
      "Abidan": 7395,
      "BaytSemes": 7396,
      "Cilla": 7397,
      "bonjareyaŋ": 7398,
      "daahirante": 7399,
      "Perez": 7400,
      "Ahira": 7401,
      "Ahiman": 7402,
      "gundekoyey": 7403,
      "Pajiyel": 7404,
      "hirrimey": 7405,
      "ger": 7406,
      "jandiizey": 7407,
      "yaamaryaŋo": 7408,
      "sasabandiko": 7409,
      "Paseya": 7410,
      "fonnayyaŋ": 7411,
      "wuro": 7412,
      "Bango": 7413,
      "laamikoy": 7414,
      "burɲ": 7415,
      "wandiyoyaŋ": 7416,
      "wandiyotara": 7417,
      "nyunyaŋ": 7418,
      "dooniyaŋ": 7419,
      "daarijey": 7420,
      "tangamey": 7421,
      "Zaaku": 7422,
      "Harod": 7423,
      "Faree": 7424,
      "CEY": 7425,
      "bondayyaŋ": 7426,
      "garenadey": 7427,
      "faajikaaray": 7428,
      "kalaasu": 7429,
      "Takahari": 7430,
      "Gaabikooni": 7431,
      "tuurinyaŋo": 7432,
      "Suudi": 7433,
      "binjizo": 7434,
      "Meyey": 7435,
      "Nimrudu": 7436,
      "hããyaŋey": 7437,
      "2017": 7438,
      "beebetaray": 7439,
      "ANCEY": 7440,
      "Sibma": 7441,
      "poltikey": 7442,
      "Almayaali": 7443,
      "Handariyayzey": 7444,
      "YAHUD": 7445,
      "ders": 7446,
      "kriso": 7447,
      "sukutum": 7448,
      "Haddon": 7449,
      "Fulanzamay": 7450,
      "Kaftor": 7451,
      "Paradiso": 7452,
      "kurkutu": 7453,
      "Fonguyaŋ": 7454,
      "Okran": 7455,
      "snyders": 7456,
      "YAHUDANCEY": 7457,
      "21": 7458,
      "Asan": 7459,
      "Akor": 7460,
      "Baray": 7461,
      "Efer": 7462,
      "Farey": 7463,
      "Ihanno": 7464,
      "Uriyel": 7465,
      "au": 7466,
      "it": 7467,
      "ihanney": 7468,
      "ikomey": 7469,
      "ramot": 7470,
      "yalu": 7471,
      "alan": 7472,
      "alzan": 7473,
      "alzam": 7474,
      "niin": 7475,
      "diko": 7476,
      "koysa": 7477,
      "koyday": 7478,
      "dolley": 7479,
      "ciko": 7480,
      "siyaŋo": 7481,
      "gaasey": 7482,
      "gaakoonu": 7483,
      "fulaŋ": 7484,
      "bandayaŋ": 7485,
      "laafi": 7486,
      "wak": 7487,
      "wakii": 7488,
      "hinayey": 7489,
      "hinkoyaŋ": 7490,
      "tontono": 7491,
      "goyteeriyaŋ": 7492,
      "maako": 7493,
      "kanjari": 7494,
      "Isey": 7495,
      "sambuko": 7496,
      "barbata": 7497,
      "Yaakan": 7498,
      "Yaazaniya": 7499,
      "kwaaso": 7500,
      "sayko": 7501,
      "saykwa": 7502,
      "Kol": 7503,
      "Samur": 7504,
      "jirmay": 7505,
      "foobante": 7506,
      "Hadi": 7507,
      "Hawa": 7508,
      "hõseyaŋ": 7509,
      "Bisa": 7510,
      "Kalaa": 7511,
      "Sifayaŋ": 7512,
      "saabuyaŋo": 7513,
      "doonko": 7514,
      "Zambar": 7515,
      "birjo": 7516,
      "waaniyaŋo": 7517,
      "zambaro": 7518,
      "Kubayyaŋ": 7519,
      "zumbuyaŋ": 7520,
      "jaŋka": 7521,
      "Tob": 7522,
      "ziibante": 7523,
      "naasey": 7524,
      "farhãyaŋo": 7525,
      "damsi": 7526,
      "Mesil": 7527,
      "beeraykoyey": 7528,
      "Amoran": 7529,
      "yeera": 7530,
      "Dotan": 7531,
      "Hitti": 7532,
      "Tik": 7533,
      "yawyaŋo": 7534,
      "Turo": 7535,
      "kuurufuwo": 7536,
      "cinarikoy": 7537,
      "Pelatiya": 7538,
      "waazuyaŋo": 7539,
      "kaseetey": 7540,
      "feejizo": 7541,
      "Saarayey": 7542,
      "yoonay": 7543,
      "pora": 7544,
      "kunfako": 7545,
      "HadadEzer": 7546,
      "korayyaŋ": 7547,
      "Kwaari": 7548,
      "Taabal": 7549,
      "taabley": 7550,
      "Salma": 7551,
      "laabize": 7552,
      "Fatta": 7553,
      "guddamey": 7554,
      "taarifo": 7555,
      "Wiyaŋ": 7556,
      "murteyaŋey": 7557,
      "miile": 7558,
      "Galliyo": 7559,
      "Birji": 7560,
      "Nyaizey": 7561,
      "Semer": 7562,
      "joota": 7563,
      "Wandiyo": 7564,
      "Albarkantey": 7565,
      "kankamandikoy": 7566,
      "kankamandikwa": 7567,
      "Amalekance": 7568,
      "Miklot": 7569,
      "Binikomey": 7570,
      "Biirima": 7571,
      "Hassane": 7572,
      "Bontos": 7573,
      "kangayey": 7574,
      "deemokaraasi": 7575,
      "falulle": 7576,
      "Almayaalo": 7577,
      "Tamtaray": 7578,
      "kasize": 7579,
      "Moolo": 7580,
      "dadabe": 7581,
      "Ezem": 7582,
      "waaliyey": 7583,
      "Semiramot": 7584,
      "sillori": 7585,
      "Alhakko": 7586,
      "Alfukaarey": 7587,
      "Gorokasin": 7588,
      "Guuso": 7589,
      "Rizpa": 7590,
      "alzanna": 7591,
      "Samurna": 7592,
      "Mesille": 7593,
      "15": 7594,
      "Aya": 7595,
      "HAN": 7596,
      "Id": 7597,
      "Ilaaley": 7598,
      "Ulam": 7599,
      "War": 7600,
      "Yalam": 7601,
      "Ziza": 7602,
      "carey": 7603,
      "eme": 7604,
      "emet": 7605,
      "itafo": 7606,
      "ikayniyo": 7607,
      "tayaŋo": 7608,
      "ɲano": 7609,
      "gaano": 7610,
      "goda": 7611,
      "kunga": 7612,
      "nibarsi": 7613,
      "diyus": 7614,
      "lutey": 7615,
      "siyu": 7616,
      "gullu": 7617,
      "gudeyaŋ": 7618,
      "bafuna": 7619,
      "follandi": 7620,
      "dumbo": 7621,
      "tijina": 7622,
      "tisiyu": 7623,
      "hagoy": 7624,
      "sariyaŋ": 7625,
      "sajeera": 7626,
      "tuf": 7627,
      "tuganta": 7628,
      "sukuru": 7629,
      "borowi": 7630,
      "run": 7631,
      "londey": 7632,
      "miyaŋ": 7633,
      "waymayzo": 7634,
      "dananteyaŋ": 7635,
      "nyakafo": 7636,
      "taacante": 7637,
      "taakama": 7638,
      "Niine": 7639,
      "yaajiyaŋ": 7640,
      "saafi": 7641,
      "musay": 7642,
      "salan": 7643,
      "Yesurun": 7644,
      "sardiyus": 7645,
      "Alemet": 7646,
      "nuku": 7647,
      "soogante": 7648,
      "fargantey": 7649,
      "Dam": 7650,
      "ciiyaŋ": 7651,
      "ciiyaŋo": 7652,
      "Midiyancey": 7653,
      "fisiyaŋ": 7654,
      "filim": 7655,
      "hawfun": 7656,
      "halaciko": 7657,
      "Kalo": 7658,
      "darante": 7659,
      "Suuru": 7660,
      "hantumyaŋo": 7661,
      "Sobab": 7662,
      "zanguyaŋ": 7663,
      "Gaakwa": 7664,
      "Berit": 7665,
      "dumaro": 7666,
      "fansanteyaŋ": 7667,
      "jaŋyaŋ": 7668,
      "Ibleyam": 7669,
      "bela": 7670,
      "berey": 7671,
      "cimandiyaŋo": 7672,
      "jarekoy": 7673,
      "Nemuwel": 7674,
      "Nefilim": 7675,
      "beerandiyano": 7676,
      "hiilantey": 7677,
      "Abdi": 7678,
      "Yehosaba": 7679,
      "neesikwa": 7680,
      "yeeti": 7681,
      "lliyo": 7682,
      "fitillayaŋ": 7683,
      "Asbela": 7684,
      "Tibe": 7685,
      "subasi": 7686,
      "baytukoy": 7687,
      "saawarekasina": 7688,
      "Holon": 7689,
      "Hobaya": 7690,
      "takaharey": 7691,
      "Rafa": 7692,
      "hirriyaŋo": 7693,
      "Kayando": 7694,
      "Dibla": 7695,
      "cirayyaŋ": 7696,
      "konney": 7697,
      "Teera": 7698,
      "Hananeyel": 7699,
      "motta": 7700,
      "lalabay": 7701,
      "Tela": 7702,
      "Goobu": 7703,
      "liisey": 7704,
      "Taasi": 7705,
      "Ros": 7706,
      "Fati": 7707,
      "corotaray": 7708,
      "kkeyaŋ": 7709,
      "daahirandiyaŋ": 7710,
      "adamayzetara": 7711,
      "Adna": 7712,
      "furtajey": 7713,
      "RamotJileyad": 7714,
      "Neesiji": 7715,
      "guunuyaŋ": 7716,
      "197": 7717,
      "gumandiyaŋ": 7718,
      "Deedando": 7719,
      "Arama": 7720,
      "ObedEdom": 7721,
      "Wande": 7722,
      "Harar": 7723,
      "Nimra": 7724,
      "Milkom": 7725,
      "yaarima": 7726,
      "biirma": 7727,
      "jukkeyaŋ": 7728,
      "jabanteyaŋ": 7729,
      "Zippora": 7730,
      "Fayanka": 7731,
      "Fataw": 7732,
      "delfiya": 7733,
      "Zarefat": 7734,
      "’’.": 7735,
      "Semida": 7736,
      "Madiyance": 7737,
      "Sabaabu": 7738,
      "Gariyo": 7739,
      "Dabaro": 7740,
      "larantey": 7741,
      "mohamad": 7742,
      "Filadelfiya": 7743,
      "inaasey": 7744,
      "Hindiro": 7745,
      "koydaye": 7746,
      "Kalaaso": 7747,
      "Tikba": 7748,
      "Waranka": 7749,
      "emerod": 7750,
      "Azu": 7751,
      "Are": 7752,
      "Aner": 7753,
      "Cee": 7754,
      "Enam": 7755,
      "Emim": 7756,
      "Firi": 7757,
      "Feeri": 7758,
      "Hid": 7759,
      "Iyon": 7760,
      "Jandi": 7761,
      "Jam": 7762,
      "Neya": 7763,
      "Oded": 7764,
      "Pul": 7765,
      "Sara": 7766,
      "Yara": 7767,
      "at": 7768,
      "che": 7769,
      "dgoda": 7770,
      "fiz": 7771,
      "fante": 7772,
      "ira": 7773,
      "iguwa": 7774,
      "ihinkante": 7775,
      "ss": 7776,
      "stal": 7777,
      "ɲu": 7778,
      "ɲayzetaray": 7779,
      "gamos": 7780,
      "ayaa": 7781,
      "anu": 7782,
      "ankoyey": 7783,
      "kokari": 7784,
      "alfarey": 7785,
      "kus": 7786,
      "dila": 7787,
      "neton": 7788,
      "siyel": 7789,
      "bucey": 7790,
      "lami": 7791,
      "laŋey": 7792,
      "lamotaray": 7793,
      "hame": 7794,
      "jiya": 7795,
      "banday": 7796,
      "subi": 7797,
      "faji": 7798,
      "faani": 7799,
      "lola": 7800,
      "lonko": 7801,
      "mesanni": 7802,
      "maakoy": 7803,
      "taakwa": 7804,
      "jingar": 7805,
      "gayta": 7806,
      "neyam": 7807,
      "Alma": 7808,
      "boosey": 7809,
      "nookey": 7810,
      "Yaamar": 7811,
      "yot": 7812,
      "sayantey": 7813,
      "farhan": 7814,
      "Koray": 7815,
      "Kosaray": 7816,
      "hawra": 7817,
      "lel": 7818,
      "annasuwa": 7819,
      "teekey": 7820,
      "fooro": 7821,
      "cawkwa": 7822,
      "haaguyaŋ": 7823,
      "Hatti": 7824,
      "hantumantey": 7825,
      "yankoyey": 7826,
      "seyel": 7827,
      "darfan": 7828,
      "darfanda": 7829,
      "doonkoyaŋ": 7830,
      "goori": 7831,
      "Gudgoda": 7832,
      "deeli": 7833,
      "deeso": 7834,
      "deemookaraasi": 7835,
      "afofo": 7836,
      "layim": 7837,
      "kurtunandi": 7838,
      "baanikom": 7839,
      "Mayim": 7840,
      "fantayaŋ": 7841,
      "Laabaari": 7842,
      "feg": 7843,
      "Nefeg": 7844,
      "rammelek": 7845,
      "dabariko": 7846,
      "Wayhiiji": 7847,
      "Golan": 7848,
      "jinaykoyey": 7849,
      "tabayaŋ": 7850,
      "mursa": 7851,
      "duumikoy": 7852,
      "Baytfaji": 7853,
      "sasabay": 7854,
      "Husa": 7855,
      "Husam": 7856,
      "Tuguyaŋ": 7857,
      "saawarekasiney": 7858,
      "Ketura": 7859,
      "Patar": 7860,
      "Duma": 7861,
      "Dullu": 7862,
      "Londi": 7863,
      "fattayaŋo": 7864,
      "yulwanta": 7865,
      "erre": 7866,
      "fayankayaŋ": 7867,
      "hattayaŋ": 7868,
      "Goojiyaŋ": 7869,
      "dumbay": 7870,
      "dumize": 7871,
      "yaarutara": 7872,
      "daariji": 7873,
      "taabandiyaŋ": 7874,
      "garawkooni": 7875,
      "Saleka": 7876,
      "laabizey": 7877,
      "kosongukoy": 7878,
      "sartiyaŋ": 7879,
      "dundum": 7880,
      "suntuley": 7881,
      "Birgamos": 7882,
      "Jinneton": 7883,
      "zambantey": 7884,
      "londibuuna": 7885,
      "Gersom": 7886,
      "Kanjey": 7887,
      "Adrammelek": 7888,
      "furkanga": 7889,
      "moodabalkoy": 7890,
      "Akzib": 7891,
      "Arastos": 7892,
      "Aramancey": 7893,
      "Ararat": 7894,
      "gomnato": 7895,
      "gomnatey": 7896,
      "Seera": 7897,
      "Dabarikwa": 7898,
      "Saamotaray": 7899,
      "lokota": 7900,
      "Laarabu": 7901,
      "alsilamotaray": 7902,
      "Aliyu": 7903,
      "Alihud": 7904,
      "simbarko": 7905,
      "Yoksan": 7906,
      "Yokneyam": 7907,
      "yaarimey": 7908,
      "kazaamatarayey": 7909,
      "Yoyacim": 7910,
      "Handariya": 7911,
      "ANTE": 7912,
      "Nehelami": 7913,
      "gullayzo": 7914,
      "Semariya": 7915,
      "Tabita": 7916,
      "zoŋoyaŋ": 7917,
      "lokk": 7918,
      "saruusi": 7919,
      "Danawey": 7920,
      "Duvaŋo": 7921,
      "gazantey": 7922,
      "Darba": 7923,
      "kristal": 7924,
      "Sijirey": 7925,
      "Nooniyaŋ": 7926,
      "Horonayim": 7927,
      "Dungur": 7928,
      "Kabseyel": 7929,
      "hamburu": 7930,
      "zuure": 7931,
      "Fondayze": 7932,
      "ciyoma": 7933,
      "HANANTE": 7934,
      "Azuba": 7935,
      "Firijiya": 7936,
      "fizaw": 7937,
      "hamed": 7938,
      "darfandayaŋ": 7939,
      "Patarmi": 7940,
      "10": 7941,
      "Atta": 7942,
      "Attay": 7943,
      "Cidron": 7944,
      "Din": 7945,
      "Ebiya": 7946,
      "Enon": 7947,
      "Hab": 7948,
      "Izra": 7949,
      "Ikke": 7950,
      "Kabu": 7951,
      "Obot": 7952,
      "Onam": 7953,
      "WO": 7954,
      "Zina": 7955,
      "ddim": 7956,
      "jamma": 7957,
      "mbay": 7958,
      "qu": 7959,
      "uje": 7960,
      "unim": 7961,
      "ve": 7962,
      "kabiya": 7963,
      "ayanta": 7964,
      "anayaŋ": 7965,
      "dale": 7966,
      "maayanta": 7967,
      "bolet": 7968,
      "yabu": 7969,
      "kota": 7970,
      "goŋo": 7971,
      "algayta": 7972,
      "kumbu": 7973,
      "diy": 7974,
      "biyante": 7975,
      "cila": 7976,
      "kuluuje": 7977,
      "dungandi": 7978,
      "saay": 7979,
      "saceyaŋ": 7980,
      "tatari": 7981,
      "turan": 7982,
      "surancey": 7983,
      "manna": 7984,
      "waay": 7985,
      "fambu": 7986,
      "fasar": 7987,
      "fakey": 7988,
      "lomey": 7989,
      "binya": 7990,
      "mil": 7991,
      "Yazey": 7992,
      "baabu": 7993,
      "baasa": 7994,
      "soura": 7995,
      "mekuurey": 7996,
      "yaazey": 7997,
      "aniyaŋ": 7998,
      "daykoy": 7999,
      "ceyaw": 8000,
      "ganja": 8001,
      "ŋwaakwa": 8002,
      "karko": 8003,
      "karrey": 8004,
      "Yaasey": 8005,
      "farso": 8006,
      "len": 8007,
      "lemiya": 8008,
      "koomey": 8009,
      "gunakoyaŋ": 8010,
      "beerikoy": 8011,
      "beerikoyaŋ": 8012,
      "Haga": 8013,
      "Hasum": 8014,
      "Hacila": 8015,
      "sannize": 8016,
      "rem": 8017,
      "lordiyaŋ": 8018,
      "Sis": 8019,
      "Sike": 8020,
      "Siddim": 8021,
      "cinakoyaŋ": 8022,
      "Hansiyaŋ": 8023,
      "Zattu": 8024,
      "deesiyaŋ": 8025,
      "cabeko": 8026,
      "Sobak": 8027,
      "cimikoyo": 8028,
      "Gaasiya": 8029,
      "Sesan": 8030,
      "Bezor": 8031,
      "hananyankoy": 8032,
      "feeriji": 8033,
      "laalakoyo": 8034,
      "Buzu": 8035,
      "Bundu": 8036,
      "Torko": 8037,
      "ndiya": 8038,
      "bonkoonitaray": 8039,
      "Abdou": 8040,
      "fahamyaŋ": 8041,
      "Baptisma": 8042,
      "hangankoy": 8043,
      "naanu": 8044,
      "sarayey": 8045,
      "tuusuyaŋo": 8046,
      "Hayra": 8047,
      "nyuturu": 8048,
      "Aran": 8049,
      "Rehab": 8050,
      "kwaarayyaŋ": 8051,
      "Fun": 8052,
      "bonkaanay": 8053,
      "Ziha": 8054,
      "tilasandiyaŋ": 8055,
      "Lidda": 8056,
      "Ndug": 8057,
      "Hosaya": 8058,
      "Tahan": 8059,
      "Dikabo": 8060,
      "Dumbi": 8061,
      "muusey": 8062,
      "Lod": 8063,
      "Lokota": 8064,
      "alkaalo": 8065,
      "Saarayim": 8066,
      "jeero": 8067,
      "Samla": 8068,
      "toonantekoy": 8069,
      "fuuley": 8070,
      "gungumandi": 8071,
      "wurey": 8072,
      "talkayaŋ": 8073,
      "fundikooniyaŋ": 8074,
      "halalantey": 8075,
      "Eliyam": 8076,
      "Hawyaŋ": 8077,
      "Faada": 8078,
      "Elte": 8079,
      "Naamo": 8080,
      "Gannim": 8081,
      "taarifey": 8082,
      "zambante": 8083,
      "liiliwaley": 8084,
      "siirey": 8085,
      "furantey": 8086,
      "kortimo": 8087,
      "Hirrimi": 8088,
      "moodabalkoyey": 8089,
      "Aksaf": 8090,
      "alfukaarutara": 8091,
      "Eder": 8092,
      "taabalyaŋ": 8093,
      "tabbati": 8094,
      "daarandi": 8095,
      "simbarkoy": 8096,
      "Meyunim": 8097,
      "alambaanayaŋ": 8098,
      "Booso": 8099,
      "bulbulu": 8100,
      "Bered": 8101,
      "mariyo": 8102,
      "Meselemiya": 8103,
      "1999": 8104,
      "cuusuyaŋ": 8105,
      "gaasiyayaŋ": 8106,
      "balancawyaŋ": 8107,
      "Handariyayze": 8108,
      "kasizey": 8109,
      "yaamarey": 8110,
      "gazante": 8111,
      "Matata": 8112,
      "dikteer": 8113,
      "albahaaru": 8114,
      "biikoy": 8115,
      "dambanganteyaŋ": 8116,
      "sukutumo": 8117,
      "Irkoy": 8118,
      "Hãã": 8119,
      "Fuuma": 8120,
      "muradu": 8121,
      "Koŋŋa": 8122,
      "Hareset": 8123,
      "kuusayzey": 8124,
      "mortukwa": 8125,
      "Tangami": 8126,
      "anniyaa": 8127,
      "Gederot": 8128,
      "Lakkal": 8129,
      "Gursuna": 8130,
      "bandayano": 8131,
      "Ebiyasaf": 8132,
      "Ikkes": 8133,
      "turanto": 8134,
      "Yazeyel": 8135,
      "sourate": 8136,
      "Rehabiya": 8137,
      "Dikabolis": 8138,
      "11": 8139,
      "Ata": 8140,
      "Asena": 8141,
      "Co": 8142,
      "DI": 8143,
      "Gana": 8144,
      "Hamma": 8145,
      "Ii": 8146,
      "Igal": 8147,
      "Jina": 8148,
      "KA": 8149,
      "Kaba": 8150,
      "SI": 8151,
      "Yanowa": 8152,
      "gne": 8153,
      "iga": 8154,
      "itayo": 8155,
      "idungo": 8156,
      "kina": 8157,
      "kwayo": 8158,
      "mti": 8159,
      "ste": 8160,
      "stan": 8161,
      "émi": 8162,
      "ɲɲa": 8163,
      "damari": 8164,
      "ral": 8165,
      "yallay": 8166,
      "mongu": 8167,
      "alwaate": 8168,
      "algaru": 8169,
      "biro": 8170,
      "gulley": 8171,
      "basa": 8172,
      "bakey": 8173,
      "baayi": 8174,
      "dug": 8175,
      "gaakaa": 8176,
      "til": 8177,
      "haka": 8178,
      "bangante": 8179,
      "suru": 8180,
      "borotaray": 8181,
      "mano": 8182,
      "mansi": 8183,
      "faano": 8184,
      "zamo": 8185,
      "hinna": 8186,
      "Yarib": 8187,
      "lita": 8188,
      "baagasinay": 8189,
      "mbur": 8190,
      "dance": 8191,
      "hayante": 8192,
      "Niger": 8193,
      "zurantey": 8194,
      "Maharay": 8195,
      "Mattan": 8196,
      "saatarey": 8197,
      "muni": 8198,
      "harimo": 8199,
      "dayoni": 8200,
      "sarfa": 8201,
      "ganandiyaŋ": 8202,
      "karjo": 8203,
      "nooyante": 8204,
      "fayantey": 8205,
      "Yaaji": 8206,
      "gaabay": 8207,
      "faajo": 8208,
      "tooranteyaŋ": 8209,
      "jomba": 8210,
      "hawlandi": 8211,
      "beeribeeri": 8212,
      "kuusayaŋ": 8213,
      "Yog": 8214,
      "humburo": 8215,
      "Habor": 8216,
      "Hamul": 8217,
      "yeyaŋ": 8218,
      "Fitina": 8219,
      "Fitiney": 8220,
      "Sif": 8221,
      "doonu": 8222,
      "doogono": 8223,
      "Zaanan": 8224,
      "tuuyaŋo": 8225,
      "waaniyaŋey": 8226,
      "deesey": 8227,
      "barikarey": 8228,
      "kursa": 8229,
      "Gaakuri": 8230,
      "Bero": 8231,
      "Bedan": 8232,
      "zollo": 8233,
      "zurukoy": 8234,
      "garma": 8235,
      "Kuku": 8236,
      "fandu": 8237,
      "jisiyaŋey": 8238,
      "Togarma": 8239,
      "guuruyaŋo": 8240,
      "alborotaray": 8241,
      "himcarey": 8242,
      "gaabakasina": 8243,
      "Abbi": 8244,
      "hẽeney": 8245,
      "zeerimi": 8246,
      "Gomna": 8247,
      "laabeydacara": 8248,
      "kuruyaŋo": 8249,
      "Hayrey": 8250,
      "Asna": 8251,
      "hes": 8252,
      "Gedayoni": 8253,
      "canto": 8254,
      "Hulda": 8255,
      "aliciyoma": 8256,
      "Zilla": 8257,
      "wayguno": 8258,
      "coy": 8259,
      "jantey": 8260,
      "hanseko": 8261,
      "Lisiyas": 8262,
      "Hodabiya": 8263,
      "Kera": 8264,
      "Kelita": 8265,
      "konnaro": 8266,
      "waazukoyaŋ": 8267,
      "hirriyaŋey": 8268,
      "sooguyaŋo": 8269,
      "walay": 8270,
      "fong": 8271,
      "jeer": 8272,
      "doorikom": 8273,
      "Tirhaka": 8274,
      "Cawey": 8275,
      "kaanoyaŋ": 8276,
      "halliko": 8277,
      "Izefuto": 8278,
      "Eliza": 8279,
      "hangasinyaŋ": 8280,
      "Naarat": 8281,
      "Anti": 8282,
      "CiriyatYeyarim": 8283,
      "karjikoy": 8284,
      "jaabey": 8285,
      "caakay": 8286,
      "caaca": 8287,
      "binikomey": 8288,
      "fisiyaŋo": 8289,
      "Jinay": 8290,
      "koloo": 8291,
      "nyaaleyaŋ": 8292,
      "Azmon": 8293,
      "Azgad": 8294,
      "wurdi": 8295,
      "moussa": 8296,
      "forta": 8297,
      "looko": 8298,
      "hangawyaŋ": 8299,
      "alatuumiyaŋ": 8300,
      "gudron": 8301,
      "Arobasa": 8302,
      "basta": 8303,
      "boŋtobayey": 8304,
      "Malciyel": 8305,
      "Cimbeero": 8306,
      "danjizeyaŋ": 8307,
      "Kundaa": 8308,
      "alambaaney": 8309,
      "waymeyaŋ": 8310,
      "Kuruko": 8311,
      "Kurubu": 8312,
      "hiiriyaŋ": 8313,
      "poltiki": 8314,
      "Gurzugay": 8315,
      "Alkaaley": 8316,
      "dirgay": 8317,
      "zalba": 8318,
      "Jamayaŋ": 8319,
      "Mered": 8320,
      "buulalkoyo": 8321,
      "mulfi": 8322,
      "Helkat": 8323,
      "Fulanzam": 8324,
      "sorra": 8325,
      "Kawyey": 8326,
      "Gunayaŋ": 8327,
      "Minni": 8328,
      "kunsumi": 8329,
      "peeluyaŋ": 8330,
      "mudunyaŋ": 8331,
      "Bakbuciya": 8332,
      "Daberat": 8333,
      "Sedre": 8334,
      "Hetance": 8335,
      "Asenata": 8336,
      "yallayalla": 8337,
      "Elizafan": 8338,
      "18": 8339,
      "Ahaba": 8340,
      "Balan": 8341,
      "Daari": 8342,
      "Ele": 8343,
      "Faha": 8344,
      "Gi": 8345,
      "Gar": 8346,
      "IR": 8347,
      "Igu": 8348,
      "KU": 8349,
      "LU": 8350,
      "Ndo": 8351,
      "Palti": 8352,
      "Pelaya": 8353,
      "UN": 8354,
      "ase": 8355,
      "afriki": 8356,
      "bala": 8357,
      "iguuso": 8358,
      "jaray": 8359,
      "ly": 8360,
      "lgo": 8361,
      "lti": 8362,
      "pu": 8363,
      "rfu": 8364,
      "uni": 8365,
      "zzam": 8366,
      "».": 8367,
      "dame": 8368,
      "makka": 8369,
      "rize": 8370,
      "riyos": 8371,
      "goboroyaŋ": 8372,
      "sedoni": 8373,
      "kuta": 8374,
      "nifer": 8375,
      "abbin": 8376,
      "tet": 8377,
      "dosiya": 8378,
      "ciyel": 8379,
      "gub": 8380,
      "gudug": 8381,
      "bazay": 8382,
      "dubango": 8383,
      "bugantey": 8384,
      "ngarfu": 8385,
      "gaakasin": 8386,
      "fuizo": 8387,
      "banyaŋo": 8388,
      "manaŋ": 8389,
      "deda": 8390,
      "hani": 8391,
      "Yaso": 8392,
      "sobe": 8393,
      "goyandi": 8394,
      "maasayaŋ": 8395,
      "Boŋo": 8396,
      "sino": 8397,
      "Isboset": 8398,
      "taaji": 8399,
      "Nis": 8400,
      "zukuyaŋ": 8401,
      "jindo": 8402,
      "nantey": 8403,
      "sabbu": 8404,
      "kalsedoni": 8405,
      "Mafaa": 8406,
      "saafey": 8407,
      "beyam": 8408,
      "nduII": 8409,
      "zaamani": 8410,
      "sayze": 8411,
      "dumitaray": 8412,
      "fargante": 8413,
      "Kob": 8414,
      "Konni": 8415,
      "Sajeera": 8416,
      "boobokoy": 8417,
      "cakay": 8418,
      "Yowe": 8419,
      "Haay": 8420,
      "Haziyel": 8421,
      "margayaŋ": 8422,
      "gaabikoy": 8423,
      "Hangaw": 8424,
      "Gunda": 8425,
      "zarga": 8426,
      "kemis": 8427,
      "waaniwaaney": 8428,
      "cimiyaŋ": 8429,
      "Sesay": 8430,
      "Segub": 8431,
      "Bera": 8432,
      "Helek": 8433,
      "kaaruyaŋ": 8434,
      "moor": 8435,
      "Burey": 8436,
      "weyey": 8437,
      "fera": 8438,
      "Mediya": 8439,
      "Melancey": 8440,
      "Mehet": 8441,
      "Bamot": 8442,
      "Golgo": 8443,
      "hanganyaŋo": 8444,
      "yeere": 8445,
      "Noba": 8446,
      "sifawey": 8447,
      "Hiyo": 8448,
      "ceeriyaŋ": 8449,
      "Daama": 8450,
      "Abib": 8451,
      "Arda": 8452,
      "Ciine": 8453,
      "Cilon": 8454,
      "Husim": 8455,
      "banguyano": 8456,
      "fijiyaŋo": 8457,
      "daabanteyaŋ": 8458,
      "Tudu": 8459,
      "saawareko": 8460,
      "fahamaykoy": 8461,
      "yayandiyaŋ": 8462,
      "Samariyancey": 8463,
      "Tajo": 8464,
      "konnako": 8465,
      "gusamyaŋ": 8466,
      "dooruyaŋ": 8467,
      "gelim": 8468,
      "susubo": 8469,
      "kaynandiyaŋo": 8470,
      "Dimit": 8471,
      "Alfagataray": 8472,
      "parkatay": 8473,
      "jandizo": 8474,
      "Folla": 8475,
      "jabukoy": 8476,
      "Saara": 8477,
      "daguyaŋ": 8478,
      "Barti": 8479,
      "Barmay": 8480,
      "Barsaba": 8481,
      "Karkemis": 8482,
      "alot": 8483,
      "sasabandiyano": 8484,
      "fuurandi": 8485,
      "iwayanta": 8486,
      "Zoŋo": 8487,
      "Tebez": 8488,
      "burnye": 8489,
      "Feejo": 8490,
      "Beyalot": 8491,
      "Morsati": 8492,
      "jiraykoono": 8493,
      "Taata": 8494,
      "Hincin": 8495,
      "follonkey": 8496,
      "jancekoyaŋ": 8497,
      "Rogelim": 8498,
      "taarii": 8499,
      "binikom": 8500,
      "waynokaŋay": 8501,
      "Galal": 8502,
      "Sarga": 8503,
      "2020": 8504,
      "Talibo": 8505,
      "bufuyaŋ": 8506,
      "dottija": 8507,
      "Haroset": 8508,
      "basikoy": 8509,
      "Adduwa": 8510,
      "Garena": 8511,
      "dabuyaŋ": 8512,
      "Akrab": 8513,
      "Gomno": 8514,
      "koobuyaŋ": 8515,
      "Sabbe": 8516,
      "zeebano": 8517,
      "Kormo": 8518,
      "batandikoyaŋ": 8519,
      "Almano": 8520,
      "bililo": 8521,
      "almaayaa": 8522,
      "Tanda": 8523,
      "Habaku": 8524,
      "izeeno": 8525,
      "Bilga": 8526,
      "Koonu": 8527,
      "Istifana": 8528,
      "laabiizetara": 8529,
      "zamuuyaŋo": 8530,
      "Iyyanta": 8531,
      "hõsekoy": 8532,
      "safarko": 8533,
      "Moore": 8534,
      "Kaaruwa": 8535,
      "Ezeciyel": 8536,
      "jomboyaŋ": 8537,
      "Salitila": 8538,
      "baanaykoy": 8539,
      "Nazirtara": 8540,
      "konkonsa": 8541,
      "Sabaabo": 8542,
      "Koloŋay": 8543,
      "Fuula": 8544,
      "sabiili": 8545,
      "Gunde": 8546,
      "Potifera": 8547,
      "Dondonandiyaŋey": 8548,
      "Saalabbin": 8549,
      "Botogo": 8550,
      "krisolit": 8551,
      "Mesillemot": 8552,
      "ɲumay": 8553,
      "Dunguryandi": 8554,
      "baasatara": 8555,
      "Kabadosiya": 8556,
      "KULU": 8557,
      "Yasobeyam": 8558,
      "Mehetabel": 8559,
      "Golgota": 8560,
      "Dimitriyos": 8561,
      "Akrabbim": 8562,
      "DA": 8563,
      "Dima": 8564,
      "EN": 8565,
      "Eber": 8566,
      "Gaw": 8567,
      "Haru": 8568,
      "Hino": 8569,
      "Iye": 8570,
      "Ihinza": 8571,
      "Iguwanta": 8572,
      "Nyu": 8573,
      "Or": 8574,
      "Panta": 8575,
      "Pur": 8576,
      "dduwa": 8577,
      "hho": 8578,
      "ili": 8579,
      "ifaa": 8580,
      "ijay": 8581,
      "lama": 8582,
      "ntus": 8583,
      "pey": 8584,
      "paa": 8585,
      "zbi": 8586,
      "zabel": 8587,
      "ŋweyey": 8588,
      "ɲoo": 8589,
      "karaw": 8590,
      "gaar": 8591,
      "gaham": 8592,
      "gasiyaŋ": 8593,
      "gayar": 8594,
      "dama": 8595,
      "koral": 8596,
      "gosiyaŋ": 8597,
      "almasii": 8598,
      "almaari": 8599,
      "kumo": 8600,
      "dih": 8601,
      "tep": 8602,
      "silma": 8603,
      "gumbi": 8604,
      "fot": 8605,
      "tola": 8606,
      "duw": 8607,
      "dumba": 8608,
      "eekey": 8609,
      "ngala": 8610,
      "lati": 8611,
      "izi": 8612,
      "andiyaŋo": 8613,
      "subey": 8614,
      "sulum": 8615,
      "wata": 8616,
      "wadiya": 8617,
      "handam": 8618,
      "rub": 8619,
      "kaado": 8620,
      "kaajiyaŋ": 8621,
      "sankaa": 8622,
      "binjo": 8623,
      "milla": 8624,
      "Yasar": 8625,
      "Yadduwa": 8626,
      "hiji": 8627,
      "goyize": 8628,
      "medame": 8629,
      "danko": 8630,
      "sinjante": 8631,
      "izeri": 8632,
      "Nisan": 8633,
      "Yetur": 8634,
      "nanda": 8635,
      "Mage": 8636,
      "Mahat": 8637,
      "beyot": 8638,
      "Waasu": 8639,
      "Almon": 8640,
      "Yaaru": 8641,
      "kwaasa": 8642,
      "zanjari": 8643,
      "furoyano": 8644,
      "Misal": 8645,
      "Koniya": 8646,
      "Kozbi": 8647,
      "nina": 8648,
      "fim": 8649,
      "fimos": 8650,
      "koomayaŋ": 8651,
      "suurey": 8652,
      "foomanteyaŋ": 8653,
      "kuubu": 8654,
      "buuney": 8655,
      "cawan": 8656,
      "marguko": 8657,
      "haamo": 8658,
      "ceeciko": 8659,
      "Fikol": 8660,
      "Jijiri": 8661,
      "Jittan": 8662,
      "yanjey": 8663,
      "neerayaŋo": 8664,
      "Guusu": 8665,
      "cabekoy": 8666,
      "daabuleyaŋ": 8667,
      "Sefu": 8668,
      "zuruko": 8669,
      "doŋdoŋ": 8670,
      "yunifer": 8671,
      "Kurku": 8672,
      "Kuuru": 8673,
      "Buntus": 8674,
      "Ibhar": 8675,
      "baaruyaŋ": 8676,
      "kondako": 8677,
      "jareko": 8678,
      "Halaciko": 8679,
      "Mela": 8680,
      "Mesa": 8681,
      "gaarayko": 8682,
      "gaarayyaŋo": 8683,
      "Nahal": 8684,
      "Nafi": 8685,
      "Zed": 8686,
      "tabi": 8687,
      "minis": 8688,
      "Hiijay": 8689,
      "biiriyaŋ": 8690,
      "Tibni": 8691,
      "teeyaŋey": 8692,
      "firsa": 8693,
      "Haŋyaŋ": 8694,
      "sappey": 8695,
      "Mowabance": 8696,
      "Abihud": 8697,
      "Kaso": 8698,
      "Arbi": 8699,
      "koytarayyaŋ": 8700,
      "Ciina": 8701,
      "Husati": 8702,
      "Hukumo": 8703,
      "saawarekasin": 8704,
      "Keniya": 8705,
      "Kerub": 8706,
      "gundekoy": 8707,
      "Pat": 8708,
      "Kaarimi": 8709,
      "Marge": 8710,
      "Kayfuru": 8711,
      "Dik": 8712,
      "Harif": 8713,
      "kungur": 8714,
      "Foto": 8715,
      "Lokoto": 8716,
      "Saajaw": 8717,
      "Gatam": 8718,
      "Abafara": 8719,
      "yulba": 8720,
      "soojetaray": 8721,
      "Adiyel": 8722,
      "taalamyaŋ": 8723,
      "bayrandiyaŋ": 8724,
      "Maara": 8725,
      "Zofim": 8726,
      "burjina": 8727,
      "Lahay": 8728,
      "Eltola": 8729,
      "hallasiyaŋ": 8730,
      "Salisa": 8731,
      "maayaŋey": 8732,
      "tangarandi": 8733,
      "Naason": 8734,
      "zaŋaykom": 8735,
      "Gande": 8736,
      "Isumeylan": 8737,
      "Anzuray": 8738,
      "Roy": 8739,
      "jaamaa": 8740,
      "hindirikoy": 8741,
      "laalayaŋ": 8742,
      "burcinandi": 8743,
      "Jindo": 8744,
      "Hamno": 8745,
      "boriizey": 8746,
      "Soojeyaŋ": 8747,
      "Azzur": 8748,
      "Gareb": 8749,
      "moodabaley": 8750,
      "tabbatanteyaŋ": 8751,
      "takulayaŋ": 8752,
      "kankamandiyaŋ": 8753,
      "alaasirayyaŋ": 8754,
      "Talfi": 8755,
      "Yokmeyam": 8756,
      "dakeyaŋo": 8757,
      "Put": 8758,
      "Mesezabel": 8759,
      "lambandi": 8760,
      "Pekahiya": 8761,
      "Simeyat": 8762,
      "Margasinay": 8763,
      "Jeeni": 8764,
      "Mantawey": 8765,
      "Danawyaŋ": 8766,
      "Zeena": 8767,
      "dimmaa": 8768,
      "parsi": 8769,
      "peet": 8770,
      "funsaro": 8771,
      "Mattiyas": 8772,
      "fanakayaŋ": 8773,
      "Fooma": 8774,
      "Gonitaray": 8775,
      "kormotanteyaŋ": 8776,
      "muradey": 8777,
      "Koŋŋo": 8778,
      "Potifar": 8779,
      "pantir": 8780,
      "Madmena": 8781,
      "Jiloni": 8782,
      "ptahho": 8783,
      "gartyaŋo": 8784,
      "Onisimos": 8785,
      "asdih": 8786,
      "Yekamiya": 8787,
      "Konkonsa": 8788,
      "Amorance": 8789,
      "Turofimos": 8790,
      "Iddanta": 8791,
      "Tiberiya": 8792,
      "Diblatayim": 8793,
      "Habbot": 8794,
      "Giine": 8795,
      "unier": 8796,
      "taariifi": 8797,
      "Dimas": 8798,
      "Pantakot": 8799,
      "dumbariyaŋ": 8800,
      "Jijiriyaŋ": 8801,
      "Abafaras": 8802,
      "Eltolad": 8803,
      "ptahhotep": 8804,
      "13": 8805,
      "16": 8806,
      "BA": 8807,
      "BO": 8808,
      "Eter": 8809,
      "Jaw": 8810,
      "Jani": 8811,
      "Lin": 8812,
      "Mabe": 8813,
      "MEN": 8814,
      "Obal": 8815,
      "Sandi": 8816,
      "Ulay": 8817,
      "Unni": 8818,
      "ada": 8819,
      "afollonka": 8820,
      "hiz": 8821,
      "ici": 8822,
      "ijey": 8823,
      "kt": 8824,
      "nyo": 8825,
      "pé": 8826,
      "ptey": 8827,
      "slu": 8828,
      "th": 8829,
      "tlon": 8830,
      "kabi": 8831,
      "gabante": 8832,
      "ankoy": 8833,
      "dalla": 8834,
      "mam": 8835,
      "mamou": 8836,
      "nodin": 8837,
      "ris": 8838,
      "riyance": 8839,
      "gorey": 8840,
      "naru": 8841,
      "kufa": 8842,
      "kundo": 8843,
      "diyos": 8844,
      "rok": 8845,
      "tenay": 8846,
      "lud": 8847,
      "sizey": 8848,
      "silley": 8849,
      "guda": 8850,
      "gullayaŋ": 8851,
      "baaney": 8852,
      "badila": 8853,
      "foto": 8854,
      "torancey": 8855,
      "toret": 8856,
      "bumbu": 8857,
      "buwel": 8858,
      "gaazi": 8859,
      "tiray": 8860,
      "tilliyo": 8861,
      "furante": 8862,
      "tafa": 8863,
      "reyaŋ": 8864,
      "tukuru": 8865,
      "tuhancey": 8866,
      "tunanda": 8867,
      "Iriya": 8868,
      "laasaa": 8869,
      "dekoyo": 8870,
      "dedandiyaŋ": 8871,
      "rusancey": 8872,
      "arayyaŋ": 8873,
      "zajey": 8874,
      "zazon": 8875,
      "hinni": 8876,
      "hib": 8877,
      "goyjinay": 8878,
      "mayel": 8879,
      "meunier": 8880,
      "Boki": 8881,
      "kancey": 8882,
      "kanandey": 8883,
      "nyaizeyaŋ": 8884,
      "zuka": 8885,
      "dondey": 8886,
      "Maana": 8887,
      "Mahane": 8888,
      "saare": 8889,
      "muk": 8890,
      "mutal": 8891,
      "mutukuru": 8892,
      "salanga": 8893,
      "dayaŋo": 8894,
      "Alfarey": 8895,
      "Almoda": 8896,
      "karbon": 8897,
      "noorize": 8898,
      "fayko": 8899,
      "nuwa": 8900,
      "sooro": 8901,
      "soolaa": 8902,
      "farro": 8903,
      "kandekwa": 8904,
      "Kore": 8905,
      "Konaniya": 8906,
      "zez": 8907,
      "ceeko": 8908,
      "Sace": 8909,
      "hawyaŋey": 8910,
      "fooyan": 8911,
      "kuukoy": 8912,
      "kuunu": 8913,
      "binegaabo": 8914,
      "haaray": 8915,
      "Hasse": 8916,
      "Hazazon": 8917,
      "Hamutal": 8918,
      "ceecikoyaŋ": 8919,
      "seede": 8920,
      "dondonnandi": 8921,
      "Sijiri": 8922,
      "Suni": 8923,
      "Sufa": 8924,
      "Suppim": 8925,
      "Zadada": 8926,
      "jinakoyyaŋ": 8927,
      "barikariyaŋ": 8928,
      "Beeje": 8929,
      "zanguri": 8930,
      "zanguzangu": 8931,
      "zambarzambarey": 8932,
      "Gaasi": 8933,
      "jean": 8934,
      "Sebuwel": 8935,
      "Beno": 8936,
      "Bezay": 8937,
      "bambatayaŋ": 8938,
      "Hetlon": 8939,
      "Kul": 8940,
      "Kusi": 8941,
      "dumakoy": 8942,
      "Bunni": 8943,
      "Laasaabo": 8944,
      "taaliteerey": 8945,
      "feeyaŋey": 8946,
      "farikoyey": 8947,
      "Kuludiyos": 8948,
      "sarata": 8949,
      "naasa": 8950,
      "kurikoy": 8951,
      "kankamante": 8952,
      "Yehowa": 8953,
      "Naharay": 8954,
      "Gor": 8955,
      "Zelek": 8956,
      "sabakt": 8957,
      "Astoret": 8958,
      "Abimayel": 8959,
      "BaytHoron": 8960,
      "Kamba": 8961,
      "Kaslu": 8962,
      "kargayaŋ": 8963,
      "tangariyaŋ": 8964,
      "Rex": 8965,
      "Resef": 8966,
      "Fufu": 8967,
      "futaykooni": 8968,
      "darayyaŋey": 8969,
      "hansekoyaŋ": 8970,
      "Peniyel": 8971,
      "Penina": 8972,
      "Hobab": 8973,
      "Samariyance": 8974,
      "Kemuwel": 8975,
      "Ahilud": 8976,
      "konnakwa": 8977,
      "habancey": 8978,
      "taabandiyaŋo": 8979,
      "taabandikwa": 8980,
      "Dira": 8981,
      "kunguyaŋ": 8982,
      "Teere": 8983,
      "Gaay": 8984,
      "Gagaro": 8985,
      "Samgar": 8986,
      "yaamarko": 8987,
      "doorikomo": 8988,
      "yoojeyaŋ": 8989,
      "Bargata": 8990,
      "toonyanta": 8991,
      "Maaziya": 8992,
      "Uzal": 8993,
      "fonnaykoy": 8994,
      "lalay": 8995,
      "Telem": 8996,
      "Goorey": 8997,
      "burkin": 8998,
      "Azaziya": 8999,
      "jiraykooniyaŋ": 9000,
      "Taalam": 9001,
      "Taabantey": 9002,
      "garawkooney": 9003,
      "Anamancey": 9004,
      "Sallu": 9005,
      "Miza": 9006,
      "hawjiyo": 9007,
      "Ganjo": 9008,
      "gonitaraykoy": 9009,
      "Fap": 9010,
      "buruyaŋ": 9011,
      "taariifo": 9012,
      "Itran": 9013,
      "Sanniize": 9014,
      "zortandi": 9015,
      "Ramat": 9016,
      "Sooguyaŋ": 9017,
      "gumyaŋo": 9018,
      "Haaguyaŋ": 9019,
      "candacanda": 9020,
      "burciniyaŋ": 9021,
      "saarayyaŋ": 9022,
      "Tuubi": 9023,
      "kubayniyaŋ": 9024,
      "Adriyel": 9025,
      "Piton": 9026,
      "futoyaŋ": 9027,
      "Luka": 9028,
      "Ludancey": 9029,
      "kulbayaŋ": 9030,
      "Mattenay": 9031,
      "Arod": 9032,
      "leema": 9033,
      "lutuyaŋ": 9034,
      "Lehabancey": 9035,
      "dursayaŋ": 9036,
      "Ribay": 9037,
      "danjize": 9038,
      "dawsa": 9039,
      "YerubBaal": 9040,
      "simbarkoyaŋ": 9041,
      "gumbutuyaŋ": 9042,
      "binjize": 9043,
      "Bilhan": 9044,
      "2005": 9045,
      "2008": 9046,
      "koŋŋoyaŋ": 9047,
      "Misma": 9048,
      "Misne": 9049,
      "banjikomey": 9050,
      "ikwaarayyaŋ": 9051,
      "Bonkaanay": 9052,
      "Muraadey": 9053,
      "fuusuyaŋo": 9054,
      "Fatakoy": 9055,
      "falle": 9056,
      "Toonyante": 9057,
      "gasandiyaŋo": 9058,
      "Iskandariya": 9059,
      "dadara": 9060,
      "kwaarandiyaŋ": 9061,
      "Muraaduyaŋ": 9062,
      "siirantey": 9063,
      "Kaftorancey": 9064,
      "kormoto": 9065,
      "Meholati": 9066,
      "kindo": 9067,
      "Madmanna": 9068,
      "Jiraytaray": 9069,
      "madarsa": 9070,
      "Taarifo": 9071,
      "KOYO": 9072,
      "Deemokarasi": 9073,
      "Kiristi": 9074,
      "koddoro": 9075,
      "jihaadi": 9076,
      "Mibsam": 9077,
      "jawaabi": 9078,
      "kauya": 9079,
      "diagne": 9080,
      "burɲe": 9081,
      "Hadid": 9082,
      "Bisako": 9083,
      "sukurutu": 9084,
      "Nefilimyaŋ": 9085,
      "Areli": 9086,
      "Neyariya": 9087,
      "ssé": 9088,
      "Londibuuno": 9089,
      "lokkli": 9090,
      "koloozey": 9091,
      "Patrusancey": 9092,
      "Janisarata": 9093,
      "Mabet": 9094,
      "MENE": 9095,
      "mamoussé": 9096,
      "gaaziga": 9097,
      "Almodadu": 9098,
      "karbonkal": 9099,
      "sabaktani": 9100,
      "Kasluhancey": 9101,
      "Alu": 9102,
      "Ahu": 9103,
      "Habu": 9104,
      "Iram": 9105,
      "Mino": 9106,
      "Marka": 9107,
      "Pin": 9108,
      "Paltiyel": 9109,
      "TI": 9110,
      "Tabey": 9111,
      "Yii": 9112,
      "ck": 9113,
      "fsi": 9114,
      "ib": 9115,
      "rtu": 9116,
      "ssar": 9117,
      "ssara": 9118,
      "tsa": 9119,
      "ves": 9120,
      "ɲum": 9121,
      "kaci": 9122,
      "kaliya": 9123,
      "kasiji": 9124,
      "kafana": 9125,
      "gam": 9126,
      "gadey": 9127,
      "ane": 9128,
      "dadaara": 9129,
      "mama": 9130,
      "rahansi": 9131,
      "kaŋga": 9132,
      "moto": 9133,
      "kombandi": 9134,
      "gondey": 9135,
      "gotiyaŋ": 9136,
      "nazu": 9137,
      "alum": 9138,
      "ditos": 9139,
      "absint": 9140,
      "doru": 9141,
[...]
